#version: 0.2
Ġ t
h e
Ġ a
i n
Ġ s
Ġ w
Ġt he
r e
Ġ o
o u
n d
e d
h a
Ġ b
e r
in g
Ġ f
Ġ c
Ġ m
Ġt o
i s
i t
o n
e n
Ġ d
o r
Ġa nd
l l
Ġ p
e s
Ġ l
Ġ he
Ġo f
a n
a s
a r
Ġ h
Ġ in
a t
Ġ I
o m
Ġ n
Ġ g
Ġ ha
ha t
Ġb e
o w
l e
Ġ y
Ġ e
u t
i d
o t
v e
i c
Ġy ou
a c
l d
u s
Ġw as
a l
Ġt h
i m
e t
Ġo n
g h
Ġ re
l y
a y
Ġt hat
Ġs t
Ġ T
i on
Ġ it
en t
v er
Ġhe r
i r
u r
a d
Ġa s
it h
Ġw e
Ġh is
Ġf or
r o
Ġ S
' s
s e
. "
s t
o o
Ġw ith
Ġ "
Ġ u
Ġ H
gh t
k e
r i
ou ld
Ġ A
a m
Ġa n
Ġ is
' t
Ġm e
he r
Ġa t
a ll
i f
Ġha d
c e
Ġs he
Ġ k
ĠT he
i ll
Ġs e
t er
Ġm y
Ġw h
Ġ M
c t
i l
Ġn ot
r a
p p
c h
Ġf r
re d
Ġd o
e l
Ġl i
Ġn e
Ġ C
o re
Ġh im
Ġs a
k ed
om e
Ġ B
Ġ W
a in
Ġs h
r ou
an t
Ġb ut
ac k
Ġha ve
us t
Ġfr om
ĠH e
ou t
es s
Ġo ut
Ġu p
Ġs o
g e
u n
. .
Ġ j
Ġk n
at ion
? "
Ġd e
Ġc on
Ġth is
u l
Ġa b
Ġthe y
o p
Ġa ll
h ing
, "
ar t
in d
o d
Ġa re
Ġin t
u m
er s
Ġa l
i ght
on e
Ġl e
k ing
Ġe x
i e
Ġ D
Ġwe re
he n
q u
o s
Ġsa id
Ġw ould
Ġ r
Ġs u
es t
a nd
ar d
Ġo r
is t
a b
Ġ G
o l
Ġw or
e m
Ġs p
Ġ v
ha n
id e
e ll
Ġ P
Ġ J
Ġ L
oo d
i g
Ġg o
Ġthe m
re s
ow n
Ġon e
Ġw hat
Ġc ould
at e
all y
Ġl oo
as t
he d
Ġd id
Ġc an
Ġc om
n t
Ġb ack
T he
Ġyou r
r y
Ġ R
Ġb y
Ġf e
Ġ E
Ġli ke
Ġ us
v en
Ġint o
i ve
ac e
Ġab out
on g
Ġ N
c k
ver y
ĠS he
Y ou
Ġp l
Ġ F
Ġc l
a ke
or t
ou s
e ct
Ġt im
Ġkn ow
Ġthe ir
p t
am e
Ġa g
Ġm an
Ġp ro
Ġan y
e p
w ay
Ġthe re
Ġw ill
Ġwh o
t her
l f
Ġj ust
Ġn o
ĠI t
it y
Ġ if
Ġ ro
Ġo ver
Ġs ome
ic e
Ġbe en
a g
Ġg et
Ġtim e
Ġ O
Ġw hen
Ġb l
ou r
rou nd
o st
ur n
Ġs m
Ġd own
in e
Ġha nd
Ġof f
a re
t h
Ġm ore
i es
Ġ qu
u re
Ġw ant
Ġto o
a k
Ġ en
Ġo ther
Ġthe n
re at
Ġu n
o nd
in k
r u
â Ģ
p l
m ent
o se
v ed
Ġth ou
Ġse e
f f
e ar
ic k
i le
Ġa r
e nd
ot her
o ve
as s
Ġf l
he re
f ore
u ll
e red
Ġe y
v ing
Ġag ain
it t
ri ght
u d
Ġt w
ou nd
' m
Ġc h
Ġs c
ac t
se lf
i p
Ġp e
a p
.. .
ic h
Ġ K
Ġw ay
a us
Ġ (
Ġo ur
' d
Ġn ow
Ġp r
Ġ im
f ter
i re
b le
rou gh
Ġbe c
l ed
Ġd on
Ġon ly
i z
Ġt han
Ġhe ad
Ġs ay
Ġdid n
it e
ing s
Ġbe fore
Ġ _
ab le
Ġs l
Ġd is
res s
at ed
ac h
ad e
pp ed
o c
Ġth rough
Ġh ow
Ġcon t
Ġ 1
Ġa c
Ġne ed
om et
re e
an s
Ġe very
Ġe ven
if e
a ge
f t
Ġa round
k s
Ġey es
H e
Ġc o
w ard
en ce
' re
i ous
nd er
Ġt r
op le
Ġwh ich
p er
Ġha s
Ġ right
b er
Ġhe re
v es
e w
w n
Ġ You
Ġgo ing
Ġa d
ion s
Ġt urn
aus e
Ġd ay
a ve
an ce
Ġth ink
Ġloo ked
Ġg r
Ġa m
Ġsh ould
Ġthou ght
' ll
Ġpe ople
t ed
or d
Ġs ha
Ġ '
Ġtw o
Ġs omet
Ġl ong
e re
a u
ir st
o g
t ing
n g
Ġb r
i a
t hing
is s
ĠT h
Ġre s
u ch
i ld
u e
Ġcom p
Ġu nder
Ġw at
o y
Ġa pp
ar k
Ġre m
Ġst ill
Ġg l
Ġg u
at her
n ing
! "
Ġa way
n e
Ġg ood
Ġbe t
ĠA nd
Ġa fter
ĠThe y
i ed
Ġp o
Ġdo or
Ġ ke
Ġas ked
Ġw here
at h
ĠW e
âĢ Ķ
Ġp re
Ġm uch
Ġm ade
p en
Ġsomet hing
e c
Ġg ot
Ġs w
t e
Ġf irst
* *
as e
or m
Ġfe el
Ġc ha
Ġne ver
Ġt e
Ġm ake
ĠB ut
ou gh
Ġf ace
a red
Ġl ife
Ġp er
ar y
a h
is h
s ide
ad y
i ly
Ġp art
i al
itt le
ig n
Ġd es
Ġf o
Ġha pp
Ġc all
oo k
Ġl et
I t
i v
' ve
Ġ 2
is e
ĠG od
Ġro om
Ġat t
p s
g g
Ġbe l
ĠI n
od y
Ġl ittle
Ġt ake
o b
Ġw a
Ġhe l
Ġbec ause
Ġst art
Ġc ar
ri ed
s s
ot h
c hed
Ġe m
Ġw al
Ġy ear
s o
f ul
a king
Ġo pen
t y
Ġc he
Ġc ome
n ess
Ġ very
an g
Ġloo k
or y
b e
Ġt ell
Ġ ra
en s
S he
a v
W hat
Ġa ct
Ġc ou
Ġne w
Ġ V
Ġbe ing
c l
Ġit s
Ġtoo k
Ġar m
Ġo wn
Ġs ur
ic al
h y
Ġre al
el t
on s
o ld
Ġkn ew
u b
c ed
Ġc r
Ġse em
if f
Ġ U
x t
i an
Ġf ind
Ġha r
Ġwe ll
Ġm o
Ġw r
Ġhel p
os s
Ġse c
in t
Ġle ft
Ġfe w
he s
Ġc ame
ation s
Ġwh ile
ĠS t
on t
Ġc han
Ġbe g
ul t
Ġm ay
Ġim p
Ġt al
ĠC h
ri end
Ġre l
Ġth ose
a il
Ġturn ed
Ġ ent
e ver
Ġm om
ow ed
Ġf elt
Ġwor k
Ġan other
i gh
Ġth ings
Ġw om
ve l
en ed
Ġp ut
Ġt ry
p ect
g et
Ġe nd
ou se
w e
ĠH is
Ġn ight
Ġre ally
Ġal so
ow er
o ice
Ġu nt
Ġwor d
Ġm ost
Ġre c
ent s
Ġm ind
âĢ ĵ
Ġsu re
oo l
or s
Ġwas n
Ġf in
l es
Ġto ld
Ġthe se
Ġw ent
Ġdo es
Ġp ers
Ġl ast
way s
ro ss
i ble
Ġo ld
Ġs ide
Ġb u
ĠThe re
W e
at ing
p le
Ġwor ld
Ġli ght
a ir
Ġt ra
ĠTh is
e e
Ġto ward
Ġ -
Ġhand s
Ġpl ace
Ġf ound
Ġman y
Ġst r
it ion
u al
l ing
ic t
Ġas s
Ġl ove
Ġre t
Ġf riend
# #
. '
u ally
Ġs k
Ġp ull
Ġm ight
in ce
Ġm at
Ġbel ie
Ġc le
ĠI f
c ess
Ġs ame
Ġs er
i b
ver s
n er
Ġagain st
Ġd iff
Ġwant ed
Ġe v
u ck
a w
Ġm ust
Ġ âĢĵ
Ġyear s
Ġde c
Ġsa w
à ®
Ġcom m
a z
Ġe ach
Ġb ody
o ck
u c
Ġh ome
Ġs et
Ġw ar
re am
Ġre p
re n
h ind
Ġke ep
n ed
ĠA s
Ġm in
er t
Ġth ing
Ġne xt
Ġany thing
Ġwa it
Ġen ough
Ġe l
Ġg ra
Ġfo ll
Ġo b
Ġb oth
ct ion
Ġhar d
Ġbe hind
Ġal ways
d ed
ir l
Ġh um
ow ing
Ġp ass
c es
Ġf am
Ġsm all
Ġpers on
l ess
Ġunt il
ĠT hat
Ġv oice
ce pt
is ed
Ġe ar
m ed
Ġm en
g ed
0 0
Ġsu ch
Ġwith out
Ġre st
ĠW hat
Ġcould n
Ġg reat
Ġwh y
Ġg i
n a
f orm
au ght
re w
Ġb o
Ġmom ent
n y
Ġnot hing
Ġch ild
Ġ Y
Ġh ouse
Ġs at
Ġthou gh
Ġhim self
u p
Ġf ar
Ġe ver
N o
d en
at er
i et
re t
Ġloo king
Ġin st
Ġs ound
b ed
Ġb ed
s w
Ġcl os
A nd
ch ing
in ed
ow s
a le
Ġd ri
Ġin d
Ġr un
Ġfr ont
i er
Ġst and
Ġin v
T h
Ġunder st
we en
i x
Ġsu pp
Ġhe art
Ġd ark
Ġg irl
ut h
r ist
at t
Ġcont in
ar ing
Ġin ter
Ġth ree
Ġac c
Ġm et
Ġh op
Ġsm il
Ġc are
an k
m er
Ġc or
ou nt
Ġbet ter
Ġc our
Ġcon f
Ġst e
Ġcon s
Ġwom an
d ay
Ġbet ween
Ġg ive
Ġhe ard
ĠA l
Ġan sw
Ġp h
T hat
Ġme an
Ġqu ick
Ġb re
Ġqu est
er ing
Ġc ur
Ġex pl
as on
o ke
in s
p ed
Ġt ru
out h
Ġdis c
Ġ *
Ġk ill
Ġh u
ĠW hen
j ect
Ġb reat
en se
Ġw ind
Ġsp e
ĠM y
ab ly
Ġdiff ere
Ġstart ed
Ġpl an
Ġon ce
ĠA ll
Ġd ra
Ġseem ed
ent ion
is hed
un g
Ġpl ay
Ġwat er
re ady
ĠH er
Ġn od
iz ed
m ost
Ġd r
Ġsec ond
Ġst ood
Ġb it
Ġf ather
Ġin c
i ke
Ġd ist
ull y
Ġl au
Ġh old
Ġre ad
t o
d er
Ġfl o
Ġm other
i ent
Ġs il
Ġal ready
ar s
Ġs im
B ut
ĠS o
Ġ Ð
Ġin side
ac hed
Ġwal ked
Ġl o
Ġtry ing
Ġret urn
ot t
Ġbeg an
Ġsome one
Ġm on
Ġg ave
Ġb us
ĠH ow
Ġd one
Ġp oss
id ent
Ġdo ing
Ġk ind
at es
p r
Ġcall ed
Ġs ince
Ġel se
Ġw ond
Ġm or
Ġevery thing
ha r
Ġa ir
Ġn ame
Ġunderst and
Ġp ain
um b
Ġs le
Ġre f
Ġac ross
Ġp le
ate ly
Ġb ig
Ġrem em
Ġword s
Ġus ed
Ġha ir
id ed
r ow
g er
o h
as h
Ġm ar
Ġw all
Ġre g
Ġl ot
Ġus e
Ġse en
pp ing
an c
Ġne ar
Ġde ep
Ġp ower
it s
Ġ ide
it her
en e
a x
i red
Ġmin ut
Ġp res
Ġb est
ĠThe n
m an
al s
get her
Ġto gether
Ġst ay
Ġs n
Ġl ar
ĠN o
Ġde f
Ġt ried
ain ed
ter s
it ed
Ġh igh
Ġd ro
Ġal most
Ġyou ng
ak es
Ġd ire
Ġpull ed
Ġb oy
Ġs y
Ġex p
h ip
Ġbelie ve
Ġre pl
Ġsay s
Ġst o
h o
Ġh our
Ġf ore
Ġsu b
Ġal ong
Ġv is
e k
Ġcomp le
in ess
in king
Ġf act
y s
Ġ 3
u red
ac ed
Ġbl ack
Ġpo int
S o
Ġfam ily
u res
Ġcl ose
Ġm ove
Ġbl ood
u ed
Ġy et
t s
Ġa w
ĠCh rist
ic ally
n ce
Ġfe et
Ġs ign
ĠI s
c er
Ġ .
Y es
Ġmy self
ĠA n
y ing
Ġday s
Ġd et
Ġp ast
p e
Ġt er
ol og
Ġp ol
Ġdiffere nt
i ence
Ġsmil ed
Ġso on
Ġres p
Ġe as
m s
r ic
Ġre d
ur ing
Ġsm ile
Ġle ave
se l
p h
Ġcour se
ĠR e
ert ain
ul ar
The y
p ter
ent ly
Ġp at
Ġst re
Ġf ing
m b
Ġst ud
I n
are nt
Ġhe ar
Ġt able
) .
Ġst op
Ġp ur
Ġab le
Ġme et
u ff
Ġhum an
Ġother s
a ut
Ġin s
Ġl ater
it ies
Ġhe ld
Ġ es
Ġg en
il ity
Ġle ad
ĠM ar
Ġle ast
one y
Ġget ting
Ġflo or
am p
Ġm iss
Ġle g
Ġsl ow
Ġs it
Ġarm s
Ġt ri
ch ool
as ed
Ġg round
iz e
Ġl ist
Ġm outh
ic ked
Ġcom ing
ress ed
et s
a pt
Ġc reat
Th is
ĠM r
Ġr an
art h
Ġe ff
Ġnod ded
Ġneed ed
or n
Ð °
Ġ ri
Ġb ad
Ġtal k
Ġh ur
A s
O h
Ġf all
Ġex per
im e
W ell
Ġcha r
.. ."
Ġpr ot
Ġ1 9
Ġb ro
us hed
Ġher self
ie w
Ġcou nt
at ive
Ġwould n
Ġco ll
ter n
ĠU n
Ġex t
Ġde ad
Ġquick ly
Ġmor ning
in es
? '
ĠF or
et h
Ġl and
itt ing
k ay
if ic
Ġtoward s
Ġtr ans
Ġha lf
f ully
Ġl oc
Ġb ar
Ġhapp ened
b y
The re
e ad
Ġlar ge
Ġha ving
Ġst ra
H ow
ĠB e
ĠA t
re en
le ct
ious ly
Ġas k
Ġtim es
Ġf ull
ak en
ha pter
Ġcle ar
Ġto p
Ġde m
ĠN ot
b ably
oh n
d u
o ll
c c
b r
t en
ie ld
am es
ir d
Ġf ire
ĠF r
Ġ [
Ġquest ion
t he
Ġ Z
ir t
Ġsp ec
Ġre ason
Ġm aking
Ġapp ro
ou d
Ġg one
Ġle ar
i o
Ġbu ild
Ġt re
f ort
Ġs chool
Ġp ar
Ġw on
Ġide a
Ġsto pped
ment s
he ad
Ġbreat h
Ġdoes n
Ġsle ep
Ġfriend s
Ġey e
a pp
Ġ :
Ġfor m
Ġst ep
Ġsh ort
Ġb ook
ro l
Ġup on
Ġ ed
Ġde ath
Ġopen ed
ir it
Ġs qu
Ġd el
ere st
Ġany one
gg ed
ĠA r
Ġt ou
, '
us h
Ġremem ber
Ġwho le
Ġf our
Ġfeel ing
Ġf ree
M y
Ġmo ved
Ġpr om
sel ves
Ġf ell
us ed
Ġl ess
Ġex pect
an e
Ġa p
Ġf ight
ant s
or ry
es us
an y
Ð ¾
I N
e ah
Ġpro ble
Ġwh ite
en ing
Ġevery one
Ġsur pr
Ġre ached
à ¯
Ġgra b
Ġsw e
id es
Ġmat ter
Ð µ
m y
f ect
c y
t on
I f
is ter
Ġpro bably
Ġf un
Ġbec ome
Ġex c
w here
Ġout side
ĠD e
Ġm oney
Ġwith in
W hen
Ġad d
Ġ 4
Ġpre t
Ġh or
in ing
Ġon to
Ġb ra
Ġk iss
Ġs un
Ġfor ward
Ġchild ren
Ġk id
E R
c om
Ġc ertain
Ġg rou
n ot
an ge
Ġminut es
in ted
Ġf ur
Ġke pt
Ġre ady
ro om
Ġan g
Ġc ell
Ġrepl ied
r act
Ġ ...
os ed
i ver
Ġcontin ued
ĠB r
ut e
Ġt aking
g r
us s
el s
0 1
Ġhad n
ay be
Ġc at
Ġsh ow
Ġwr ong
i k
ri e
Ġal one
rou ght
e ared
as ter
Ġc ol
Ġcomple te
g y
Ġsh ook
on y
Ġph one
Ġ Q
Ġli ve
Ġle a
u g
in a
l and
l ic
Ġad v
d den
Ġ **
Ġhop e
i ally
Ġin form
Ġimp ort
um ber
Ġl if
Ġp ri
Ġth inking
Ġm us
ard s
Ġp os
Ġbr ing
Ġl ost
m e
Ġbr other
Ġsa f
Ġfin ally
Ġf ig
Ġc ent
Ġint erest
Ġf ill
Ġsu dden
a id
g ing
k en
ist s
um p
ĠW ith
Ġwh is
Ġli ving
Ġbe aut
Ġf ood
ou l
Ġs ent
Ġsh o
ac es
Ġbre ak
em ent
ress ion
ear s
Ġo pp
ot ion
Ġchan ge
Ġt aken
Ġj o
cl ud
Ġb rought
Ġst ru
c le
ĠS p
Ġspe ak
Ġde p
Ġj ob
ĠN ow
Ġm id
Ġtru e
Ġqu ite
Ġ 5
Ġe ither
Ġim ag
Ġgi ven
Ġwat ched
ĠJ esus
ove red
ĠD o
Ġse ver
Ġm ag
is on
Ġc ra
ĠL ord
Ġm ess
Ġqu iet
ĠJ ohn
Ġsha ll
Ġn at
ĠA fter
Ġslow ly
it c
Ġd ream
i en
ic s
ic ed
is m
ĠO ne
Ġtal king
Ġme m
Ġf a
Ġm ed
u es
Ġact ually
ĠC l
Ġso ft
Ġs ense
Ġd ou
st em
er v
Ġsever al
ot s
ic es
Ġfe ar
Ġwal k
Ġstr ong
m a
Ġc re
ut ion
ha ps
Ġar ri
ent y
Ġsay ing
e y
an ed
Ġto day
e x
it ing
_ _
Ġag o
ou n
D o
i pped
Ġs ing
Ġtr uth
Ù İ
Ġdire ct
Ġfoll owed
Ġcha ir
g hed
ĠA d
Ġcont rol
Ġin f
Ġmon th
ar r
u nd
al m
Ġst ory
Ġansw er
Ġc ut
Ġc ase
re ed
Ġli ps
W hy
## #
o ver
Ġb ur
Ġw he
id ing
im es
Ġo cc
N ot
er y
Ġh ot
vel op
Ġab ove
Ġwom en
Ġgu ess
Ġdec ided
em pt
an ced
c ri
Ġmay be
Ġbus iness
Ġro ll
Ġbeg in
Ġshould er
Ġclos ed
Ġd est
Ġp arent
Ġwait ing
Ġa v
Ġche st
Ġfo ot
Ġgen er
g an
Ġl ow
i ans
Ġl ine
Ġm ain
d le
ĠO n
Ġ ve
a j
Ġco ld
Ġro ad
ĠO r
Ġhour s
Ġimport ant
Ġl ay
Ġn umber
Ġlong er
) ,
Ġsp oke
Ġp ay
Ġstand ing
aught er
at s
if ul
Ġgl ass
Ġad m
Ġatt ention
Ġent ire
Ġwind ow
Ġs on
Ġc ir
Ġsy stem
ag ed
d e
Ġlau ghed
air s
Ġgrou p
a im
z e
ang er
Ġposs ible
re ad
Ġbec ame
ĠB l
Ġdis app
is ing
ie f
Ġpro v
Ġor der
Ġf ive
r or
Ġper fect
Ġsk in
Ġc ity
c ent
ain s
Ġh it
or k
Ġto wn
os p
id er
Ġcou ple
Ġre qu
ĠL e
Ġd uring
or ies
g es
Ġde al
s h
it al
ã ģ
j oy
n ight
Ġlau gh
ation al
al th
Ġwor king
Ð ¸
Ġm od
Ġkn own
Ð ½
Ġsh ip
Ġne ck
Ġc aught
S t
ĠJ ust
Ġsu c
Ġhe ll
Ġs orry
is ion
Ġhapp y
Ġloo ks
Ġa ff
ĠT o
ac ked
med i
ĠS e
b s
.. ..
o on
Ġprot ect
Ġw ood
Ġfing ers
ant ly
Ġr ather
ag es
i or
Ġbl ue
Ġgu y
ĠP ro
Ġcl ass
Ñ Ĥ
Ġser v
Ġc ond
Ġs itting
ĠC ar
b ody
ĠW hy
Ġc ross
Ġt ight
ur al
Ġth r
Ġcl ot
Ġso c
Ġyour self
Ġex am
Ġy ell
Ġpret ty
Ġis n
Ġl aw
Ġp ie
Ġha ll
Ġde v
Ġm il
Ġs ens
er n
Ġb ott
Ġst ared
Ġoff ice
ĠE l
Ġsc ream
a ul
Ġse lf
O N
Ġd am
C hapter
Ġpass ed
Ġes c
Ġen joy
Ġrun ning
Ġstra ight
o f
c ious
e ks
Ġex act
in ation
un t
Ġp ub
Ġpart ic
Y eah
Ġv iew
Ġg un
D on
end ed
le x
Ġw ife
ur ch
ĠC om
Ġt y
Ġme ans
th ough
p ly
o red
Ġac cept
Ġwar m
Ġparent s
Ġt en
Ġin clud
at or
op e
Ġproble m
a ven
ĠW h
Ġp ap
le ase
Ġof ten
b ing
Ġs oul
Ġe le
Ġre ce
Ġs ix
Ġpr ay
oo ks
Â ·
Ġc ry
ct or
ĠD an
Ġthem selves
Ġf ine
Ġme ant
Ġinform ation
Ġste pped
Ġbuild ing
Ġ 6
Ġsp irit
Ġe arth
Ġchan ce
Ġg az
Ġwat ch
ĠN ew
Ġb ag
Ġwond er
Ġb es
i am
z y
Ġsl ight
on es
Ġb as
Ġare a
ĠS ome
Ġsudden ly
. _
ar ch
Ġbeaut iful
un ch
l er
mer ic
aus ed
Ġthought s
ac hing
Ġwe ek
Ġb ab
ri g
- -
Ġreturn ed
Ġen g
ĠS c
hy s
Ġnew s
Ġso l
Ġhe av
Ġhur t
Ġ ,
re y
Ġcan not
Ġb ene
Ġs ort
ĠS am
Ġgr ow
Ġsaf e
Ġfor g
il t
Ġsh ot
Ġp ath
Ġw in
T hen
Ġim medi
Ġor d
ar a
Ġhu nd
in y
Ġhund red
Ġar t
Ġtr ust
if t
ĠE very
Ġcon cer
ot e
s on
Ġt rou
ĠS h
Ġl im
c hes
I s
Ġm akes
ĠP r
Ġgr in
Ġdou b
Ġcon st
Ġ2 01
Ġeff ect
Ġhold ing
Ġse at
ist ed
Ġf ast
Ġwat ching
er m
Ġnot iced
Ġh on
Ġgrab bed
l ight
s ed
Ġpres ent
ĠW ill
ap e
oc ked
Ġap art
Ġpre v
Ġpr act
Ġsit u
ru pt
ou ght
in c
i ved
Ġle vel
itc hen
Ġcomm un
Ġsp ace
Ġdr ink
Ġe at
Ġy es
Ġl ate
o le
Ġ ign
ĠA m
il i
Ġpro f
re nt
ĠE ven
Ġhapp en
m ing
r ing
Ġpre p
IN G
Ġfoll ow
Ġpro p
ud e
i vers
p ec
led ge
Ġclos er
Ġd ie
Ġn ice
Ġsh out
Ġf oc
Ġk itchen
Ġde velop
ver n
Ġse x
Ġab s
Ġleg s
Ġoff ic
Ġro ck
Ġlea ving
Ġwhis p
T han
Ġf ut
Ġpro du
A ll
Ã ¢
Ġb urn
ĠA meric
ĠM aybe
Ġam ong
Ġo kay
Ġh ung
Ġapp eared
ĠD on
Ñ ģ
he l
Ġm ur
Ġt est
i ves
O R
ĠE m
or row
Ġl ed
uth or
ac ing
og n
Ġb are
Ġatt ack
Ġen er
Ñ Ģ
Ġra ised
it ive
Ġli ves
Ġfur ther
N ow
id ence
n ect
Ġso ld
Ġsh ut
ha m
Ġfill ed
d y
Ġcomplete ly
Ġpro cess
gg est
b ut
Ġmo ving
Ġcon vers
Ġe qu
d om
Ġcom es
Ġear ly
t ered
Ġob s
Ġan n
ĠJ ack
r on
Ġth ro
um ped
st er
Ġen c
Ġansw ered
Ġ 7
Ġs ight
Ġst at
us e
Ġsu ggest
Ġreal ized
Ġ ill
Ġsim ply
Ġinst ead
Ġ 9
Ġus ing
A T
Ġsu ff
ri es
Ġsec ret
Ġc ap
Ġp ict
Ġt reat
Ġs al
Ġt em
Ġwal king
Ġl oud
Ġexact ly
ĠT r
ĠG r
Ġg od
ĠA b
Ġst ate
A n
d ing
ne y
Ġ ir
F or
Ġse nd
Ġte am
Ġem pt
if ied
o id
ro ll
Ġ |
Ġp ushed
Ġwor ry
ã Ĥ
le y
Ġn orm
Ġan im
Ġwhat ever
Ġcomm and
Ġ est
Ġcom fort
Ġkill ed
Ġv al
Ġcr ow
Ġwor ked
Ġs us
Ġv ar
Ð »
Ġ z
att le
ĠE d
A fter
Ġp icked
Ġknow s
Ġcor ner
_ .
Ġst uff
un k
Ġf ail
Ġp hys
al ity
Ġple ase
ĠM ic
Ġexp ression
Ġto r
Ġsm ell
Ġob v
A re
Ġit self
a f
he t
Ġrep ort
Ġgra nd
as ure
ĠC on
an ces
Ġg reen
olog y
Ġrec ogn
Ġpos ition
as hed
Ġsee ing
Ġp op
o ly
Ġbo x
Ġb right
b and
Ġcl im
Ġ 8
it ch
E N
i res
Ġco ver
Ġm ine
Ġstr ange
Ġeas y
Ġc e
Ġw ide
Ġimmedi ately
al ed
Ġsing le
ĠJ o
Ġfut ure
pec ially
ac y
Ġlo ved
Ġan t
Ġdo g
Ġwe ap
Ġsk y
ri f
Ġstre et
Ġs ister
l o
Ġa f
Ġmonth s
Ġcou n
b o
Ø §
Ġre ve
A l
Ġsp ot
rie f
ain ing
Ġk ing
le t
Ġexper ience
qu e
ig hed
Ġwhisp ered
Ġun c
ĠK ing
Ã ©
Ġrel ations
ir m
Ġpro per
ir ty
h ow
Ġgi ving
Ġatt empt
Ġcon v
Ġm ount
it er
l ike
Ġsupp ort
Ġfoll owing
ch n
y ond
Ġquest ions
Ġon es
e v
Ġg as
Ġp ot
L et
Ġco ff
Ġres ult
et er
Ġgirl s
Ġa ge
iet y
Ġener gy
Ġdro pped
Ġpo inted
Ġd ied
en g
Ġle aned
R E
Ġinv ol
w o
Ġd anger
à¯ į
il ing
ad ed
Ġdire ction
Ġcle an
Ġsil ence
Ġpl aced
Ġbes ide
Ġgl anced
Ġfa ith
Ġev ent
Ġha ng
Ġtou ch
ĠC har
ous and
Ġdra w
Ġseem s
m ore
Ġex ist
Ġdiff ic
Ġche ck
Ġclot hes
Ġf av
Ġd in
ĠD av
Ġfor ce
Ġchan ged
Ġgu ard
Ġc op
c ha
Ġex cept
itt ed
Ġhis t
Ġt ree
Ġmid dle
Ġfig ure
Ġa head
end ing
Ġ round
Ġfin ished
A N
Ġt ears
e ed
Ġd ress
ous ly
Ġdri ve
s y
Ġcount ry
Ġapp ear
Ġp ress
J ust
Ġsur v
Ġgo ld
a ked
Ġset t
ĠT om
H is
ec ause
in al
Ġsitu ation
Ġwait ed
Ġwond ered
ha el
ra id
Ġad ded
Ġst ri
Ġsh ru
ĠL et
er c
an a
Ġh us
Ġm ention
Ġs ad
Ġ er
Ġsu per
B e
W ith
Ġm is
Ġm ut
Ġcon nect
Ġarri ved
Ġsw ord
z z
Ġf ield
Ġdes k
Ġed ge
Ġs um
Ġbab y
Ġgu ys
Ġknow ing
e es
Ġinc re
Ġgo vern
Ġa uthor
Ġbe yond
Ġsupp osed
Ġresp ond
Ġp ick
Ġc apt
Ġc ast
Ġpap er
a i
Ġtell ing
r ay
Ġsp ent
Ġm ist
A t
Ġpol ice
Ġthro at
Ġpe ace
Ġr ub
Ġempt y
is hing
Ġs ighed
Ġst om
Ġ ver
Ġcar ry
a ff
k es
Ġ Â·
Ġj ud
Ġtw enty
Ġg ame
ort h
am ed
ĠHow ever
p ort
Ġth ousand
Ġm ass
Ġm ir
Ġim m
us ion
ru ct
Ġtre es
Ġw ra
Ġnear ly
Ġd aughter
g o
ĠR o
Ġw ish
k y
is es
Ġsha d
Ġpartic ular
Ġb all
Ġshould ers
Ġd iv
ĠP aul
c ome
Ġlear n
Ġwhe ther
p ar
Ġspec ial
Ġrelations hip
ĠP er
Ġcoff ee
Ġaf raid
Ġf ly
ĠM e
y n
Ġc overed
ra nd
a ur
en n
Ġwant s
Ġhow ever
ill s
ip s
Ġvis it
iv id
ive ly
Ġknow ledge
he red
al ing
as k
r ation
Ġgaz e
Ġsuc cess
Ġhus band
Ġm ark
Ġconvers ation
ur ity
ĠYou r
pl es
Ġdisc uss
Ġsurpr ised
Ġu nd
Ġkid s
Ġsur round
Ġd ad
Ġneed s
Ġmeet ing
H E
Ġ1 0
Ġact iv
c on
or ing
Ġ ]
Ġres pect
á »
ĠS ha
Ġrem ind
Ġ Ù
Ġcom pl
r om
Ġfr own
Ġth reat
ward s
ail s
Ġheav y
itt en
Ġsha r
Ġ ident
Ġch urch
Ġinv est
Ġha ven
Ġg ri
Ġwe eks
g en
ur y
a ld
Ġany way
Ġperson al
Ġeven ing
Ġcomp any
Ġal ive
Ġf air
Ġc alm
Ġto m
Ġper haps
Ġminut e
ro y
Ġto night
ll en
Ġb ooks
ck et
Ġdoub t
Ġd a
ĠI nd
Ġcir c
r is
r al
ac her
Ġpur p
ĠP e
il ed
Ġt all
Ġstep s
Ġcrow d
ĠA lex
ĠH ar
un e
Ġev il
Ġwor th
Ġdist ance
Ġes pecially
Ġto t
Ġpub lic
Ġr ad
ess ion
Ġre v
Ġstre ng
Ġm ill
Ġp ack
Ġst one
us hing
à ¤
v al
Ġdiffic ult
c i
Ġsh owed
at ic
Ġre ach
ĠG e
aj or
Ġrel ig
i ol
Ġpri v
Ġdes cri
il ar
O n
um e
ĠP l
ĠH im
ic king
i el
Ġl a
Ġor gan
Ġent ered
res h
Ġposs ib
W here
Ġne cess
Ġstru gg
Ġfing er
Ġst aring
Ġcoll ect
E S
act ion
re et
Ġc amp
Ġhu ge
Ġn on
ord ing
re ct
Ġhead ed
id ge
Ġte chn
Ä ±
Ġaw are
O kay
d d
er al
l a
in ite
Ġc as
Ġtrou ble
ĠC an
Ġe lect
re g
l ish
W ho
Ġswe et
Ġturn ing
Ġbec om
Ġli ved
u le
A L
Ġcl aim
Ġp an
Ġear l
H er
umb led
Ġbra in
Ġth ick
Ġl ab
Ġcomp ut
Ġl uck
ĠE arth
m iss
Ġeff ort
Ġslight ly
Ġis s
ort un
Ġf le
ill y
I S
Ġre se
ĠA ng
b ered
Ġp un
Ġdark ness
u ke
gr am
Ġb ir
Ġt akes
G ood
Ġp ost
Ġ2 00
Ġr is
p ite
ĠAll ah
ĠE ng
Ġ Ø
Ġwe ak
es h
Ġsim ple
m p
Ġar g
an n
Ġway s
l t
Ġbegin ning
Ġwall s
Ġpie ce
Ġdin ner
c ing
ĠB y
ĠD r
Ġ =
Ġpart y
ay s
ĠThe se
Ġstom ach
Ġnat ure
Ġbel ow
ĠDav id
Ġmus ic
Ġman aged
s ing
Ġcont act
ow ers
Ġall owed
Ġsub ject
Ġno se
Ġs in
Ġdoor s
Ġb ath
Ġob ject
Ġbro ken
Ġroll ed
Ġper form
Ġen em
ber t
Ġcons ider
ĠC hapter
Ġs ick
ag er
on se
c o
Ġdet erm
u it
Ġc ause
Ġch oice
osp ital
Ġb rief
f er
f or
ent al
Ġj our
Ġf if
n ow
Ġtom orrow
Ġnorm al
1 9
Ġser ious
as hing
Ġbare ly
te en
Ġsomet imes
Ġsm o
Ġg ro
Ġresp ons
p or
pp er
Ġexpect ed
Ġb le
ĠN e
Ġread ing
ĠD ad
1 0
A R
Ġwe aring
Ġb attle
ing ly
Ġp ort
il es
Ġlif ted
O U
Ġc ool
ili ar
Ġgo es
Ġ à®
Ġ ur
o v
ul ation
mb ers
Ġtra vel
R e
pt ion
ĠM an
Ġsh irt
Ġpo or
Ġsa ve
el ess
ĠW ho
m en
e en
Ġo per
b it
up id
Ġmag ic
Ġsp read
Ġsurpr ise
Ġw ound
w ell
Ð¾ Ð
id den
ĠC ha
ent ial
s c
oo king
Ġbe ha
Ġsur f
Ġke y
iz ation
ra p
m m
Ġfor get
Ġt ar
Ġind ivid
ĠG u
Ġchar ac
Ġem b
Ġexpl ained
y le
ol ution
Ġe ight
Ġcat ch
Ġdem and
Ġwere n
s et
Ġte eth
Ġv ill
Ġsa nd
a it
Ġro se
ro du
r it
Ġw ild
u ct
i ers
ĠJ e
Ġexpl ain
Ġdes ign
Ġstreng th
ol f
re st
Ġsome where
Ġcontin ue
Ġgl ad
Ġhor se
Ġearl ier
Ġwor se
D id
Ġnot ice
Ġremem bered
ĠW ell
Ġhe aven
pl oy
Ġo rig
Ġnot e
i um
Ġag reed
m on
Ġsp l
Ġrep e
c ked
Ġboy s
E D
Ġh ig
Ġto ne
T o
Ġhelp ed
Ġeas ily
b all
Ġem er
Ġcreat ed
re l
or ge
ĠJ ames
Ġc am
Ġany more
Ġm ot
Ġsound s
iz ing
Ġresp onse
Ġbro ke
Ġdra g
Ġh y
ce ed
Ġin n
Ġacc om
Ġp en
! '
o ved
Ġthan k
Ġre le
ĠE x
Ġf em
He y
Ġj e
ict ion
Ġsha re
ĠL uc
Ġst ret
at ure
Ġth ird
Ġoff ered
Ġrec ord
Ġlike ly
Ġr ing
Ġrem ained
y l
Ġv iol
Ġhist ory
Ġc ab
Ġcur rent
O ne
Ġfoc us
Ù Ħ
Than k
it ions
Ġplay ing
uc king
y ou
Ġf re
i ving
Ġcertain ly
Ġb orn
Ġus ually
Ġst ore
Ġshru gged
Ġan ger
Ġd en
Ġpurp ose
Ġgovern ment
l ine
ang u
side red
Ġclear ly
Ġto w
Ġth rew
Ġmess age
O f
Ġal though
Ġpres ence
Ġindivid ual
ĠS te
Ġcomm on
am a
ig g
Ġget s
at a
ĠIn st
Ġtr ack
Ġsecond s
ĠP h
Ġhe alth
Ġcom b
Ġlear ned
Ġt ired
Ġoff er
Ġst airs
Ġsil ent
Ġall ow
Ġsc r
ĠS omet
Ġcon sidered
Ġang ry
Ġfor ced
Ġfore st
âĢĶ "
Ġloc al
h ood
ivers ity
od e
Ġbr own
Ġcl oud
Ġne g
Ġsh it
ri b
Ġn one
er ved
Ġs our
ĠC ol
ain t
Ġbed room
1 2
Ġdem on
Ġli ked
ent ed
Ġem otion
ĠMic hael
Ġpol it
ĠD id
if y
Ġshout ed
Ġreal ity
C h
Ġas king
ĠQ u
w ork
Ġg rew
Ġbir th
Ġm otion
Ġtru ck
Ġ1 8
ĠE v
Ġwor ried
o int
in ally
Ñ ĭ
Ġst upid
ri an
ĠB ar
ĠB en
os h
Ġph ot
Ġbe at
Ġp aused
I T
ad es
Ġdest roy
You r
Ġb od
Ġpro ject
Ġh ide
ri ble
Ġn erv
Ġspe ed
ud d
ĠA ny
Ġ 0
ĠO f
ic le
Ġpl aces
n el
Ġv an
ru g
Ġha t
Ġ1 2
Ñ ĥ
Ġse par
Ġto ng
os ing
Ġpo cket
Ġpro gram
Ġfin al
Ġli e
i us
Ġbene ath
ĠF ather
Ġj umped
Ġpict ure
Ġbott om
Ġwor ks
Ġs ir
Ġt ast
Ġfav or
Ġn or
Ġreg ard
Ġexper ien
Ġopp ortun
ĠMr s
er ve
Ġm ajor
Ġv ict
Ġg ently
1 1
Ġr ul
Ġsound ed
ĠC or
am b
Ġwr itten
n oon
Ġ ut
I C
t t
Ġb ow
ust ed
Ġquiet ly
Ġme mbers
__ __
Ġexam ple
Ġacc ount
it ness
Ġa ut
oo se
" .
re ly
ĠM ark
Ġf resh
Ġare n
er ial
Ġold er
Ġfam iliar
Ġcar ried
Ġcell s
is f
Ġl ady
in ct
Ġlist en
Ġh ospital
Ġwe ight
Ġmem ory
ic ated
ĠM om
Ġinclud ing
ra ge
Ġbe ll
Ġact ion
re me
as ion
Ġcomput er
Ġsc reen
Ġkiss ed
ĠO nce
b el
Ġc ost
Ġam az
s it
Ġch uck
Ġra in
c ient
Ġb ull
Ġsu it
Ġt iny
ĠO ur
Ġsim ilar
Ġesc ape
Ġl ying
Ġe t
ĠSp irit
Ġse a
Ġdo ctor
Ġr id
Ġm ad
z en
Ġbl ank
ter ing
Ġstud y
Ġtru ly
Ġplan et
Ġl ose
o k
l u
Ġm ach
ad ing
w ise
ar m
Ġst ation
Ġcan cer
m ber
Ġprom ise
Ġte le
Ġv ol
en a
Ġl angu
Ġf ix
Ġg ent
Ġfor th
Ġhop ed
C an
Ġc up
Ġt a
S h
00 0
Ġphys ical
Ġmet al
Ġhand ed
ol ute
ro p
Ġcent er
Ġ âĢĶ
n ie
ĠA g
w hat
Ġpower ful
Ġlight s
and er
Ġapp re
le ep
s es
Ġsec urity
g ress
Ġsoc ial
Ġafter noon
igh b
Ġan al
Ġnat ural
Ġd ue
h ile
al k
Ġ X
o ff
Ġear s
Ġent r
C ome
A P
z ed
Ġse ar
Ġdes ire
Ġche ek
Ġsp end
it ude
ust om
it ary
Ġmat erial
r ated
Ġc aus
Ġhe sit
Ġp ressed
Ġst ar
anc ing
Ġp air
oc i
Ġkn ees
Ġd ressed
Ġcoun ter
Ġkeep ing
Ġb al
c il
ĠF l
ĠThe ir
ã ĥ
Ġrel ax
Ġcare fully
Ġc ru
or ld
Ġtal ked
ĠM att
Ġmar ried
ĠS m
Ġreal ize
ab ility
n s
ĠS at
ast ic
iver se
Ġdirect ly
j a
b l
Ġspe aking
Ġg ar
Ġf ro
Ġf irm
Ġinvol ved
. ,
cl es
Ġproble ms
Ġst ick
ri ll
Ġ2 0
ĠM ary
Ġint ell
Ġth in
Ġhop ing
ĠW here
il ities
ĠG en
Ġl og
M aybe
ĠT e
Ġopp os
Ġbel ong
ĠJ ul
Ù Ĳ
Ġne ighb
Ġb and
Ġsome how
Ġpull ing
ic a
Ġhe at
i od
à ¦
p es
ch ie
Ġen v
an ing
Ġar r
Ġtar get
ri age
in ting
Ġapart ment
Ġbus y
ĠA re
Ġf ool
Ġl ad
Ġty pe
um ed
Ġo dd
Ġhum ans
Ġs na
Ġd im
Ġwh om
Ġcor rect
Ġbu y
w w
l s
i que
Ġb ase
Ġpr ison
Ġw ip
Ġunt o
Ġocc ur
Ġfore ver
Ġmean ing
ĠT han
ĠK e
Ġw is
Ġam ount
ĠJ im
Ġtou ched
inite ly
n ers
ce nd
Ġbod ies
Ġcra zy
o x
est s
Ġl ower
Ġex ha
Ġd ry
ĠM iss
Ġserv ice
ĠS ar
Ġbl ess
Ð° Ð
Ġsh op
ĠChrist ian
Ġrem ain
Ġunderstand ing
Ġd rug
Ġf uck
Ġfl esh
Ġmom ents
Ġc ult
Ġend ed
Ġ &
Ġwr iting
apt ain
r id
Ġnecess ary
Ġimag ine
Ġt um
Ġsurf ace
u el
it es
Ġtri p
et y
Ġstart ing
g round
Ġdro ve
Ġn umb
Ġhand le
i ents
f ast
Ġaff ect
Ġb ird
Ġri ver
ĠO h
har d
Ġ rou
Ġdec ision
ĠM ost
Ġstay ed
Ġtong ue
c han
ar ily
Ġf it
T ER
Ġsh if
Ġwho se
ĠFr om
ĠC al
p ing
Ã ¼
Ġim age
Ġha te
Ġbl ock
ere nce
Ġc al
ra g
Ġdes per
sy ch
ra el
Ġse ven
Ġext ra
Ġas ks
Ġd i
Ġev ents
Ġt end
p ic
pl ay
Ġl ock
Ġsho ot
Ġcoll e
n al
ab les
ĠS im
Ġturn s
Ġ vers
Ġhon est
Ġbelie ved
ĠL ike
Ġwra pped
Ġf ully
Ġgent le
ĠM or
Ġrece ived
Ġsmil ing
gg ing
Ġc y
ĠM ag
Ġus ual
Ġs ong
Ġimp oss
Ù Ĩ
Ġt un
ard en
Ġm ult
um ent
Ġc aused
Ġl it
Ġcha llen
em ber
Ġunderst ood
ĠAmeric an
1 6
Ġfl at
' .
Ġh ol
Ġgr owing
Ġte acher
ĠM ay
Ġsl id
ist ic
Ġfeel ings
Ġjo in
Ġ Î
Ġem ploy
om b
on na
Ġcons cious
Ġwe l
Ġappro ached
Ġl ack
Ġcharac ter
Ġvis ion
g n
Ġp al
Ġst ories
Ġav ail
Ġwill ing
Ġev idence
ar c
Ġvar ious
it or
Ġc ried
Ġp aid
k n
ĠP eter
iv al
Ġwr ite
Ġl unch
oc king
uc ked
s hip
Ġde ar
l in
Ġsold iers
Ġmo v
Ġj oy
Ġ1 5
Ġhapp ening
Ġfo ld
Ġcall ing
Ġmiss ing
om in
Ġr ide
Ġfight ing
Ġs ac
Ġhar m
Ġcol or
ou red
Ġsha king
Ġbo ard
Ġsat isf
Ġst uck
Ġst ro
Ġloc ked
ĠG l
Ġ i
Ġbu ilt
Ġcreat ure
Ġde cl
A S
Ġopen ing
Ġ ãģ
Ġplay ed
ic ation
Ġw ore
Ġevent ually
Ġun f
I ON
on ed
v iew
Ġmiss ion
Ġbl ind
Ġyell ed
ĠM art
ĠS u
h ib
Ġd ig
ens ion
ĠP at
1 3
ĠG er
Ġp red
Ġmo on
Ġrep res
Ġm ale
1 5
Ġobv ious
and a
Ġbre ast
Ġl aid
Ġdisapp eared
Ġfe ed
Ġc a
Ġw itness
E very
in ary
Ġdro p
Ġper iod
arent ly
Ġput ting
Ġentr ance
Ġdo ll
oun ced
ĠT wo
Ġgr ass
ant ed
er a
r an
Ġav oid
Ġch o
Ġfind ing
Ġsn ow
Ġfall ing
Ġd rew
os es
ru ction
ul f
Ġs ize
Ġatt ract
Ġbath room
Ġsl ipped
ĠCom m
Ġgrin ned
Ġh idden
ĠM c
Ġf il
ic ate
Ġcross ed
Ġbene f
Ġple asure
l im
Ġm er
Ġp ound
Ġprep ared
2 0
Ġhig her
Ġd ust
Ġse arch
Ġn ur
i pping
Ġun s
Ġl ines
he w
p ha
Ġab ility
Ġf ucking
Ġent er
r ate
Ġinter rupt
Ġd ate
ott en
l am
Ġsh ock
Ġinvest ig
" ,
Ġopportun ity
Ġsp o
Ġ id
ĠH el
p ri
ort ed
Ġa ud
Ġw et
Ġj ump
Ġeng ine
Ġc ard
ĠW ar
Ġfrown ed
ĠIs rael
ĠS y
Ġsqu ee
Ġg est
y a
Ġlaugh ing
Ġv amp
Ġh om
Ġsl am
Ġh un
ĠFr ank
S ome
anc y
Ġtra in
et t
Ġlet ter
Ġmiss ed
at ch
Ġenem y
Ġlangu age
Ġd ut
ĠOn ly
pect ed
Ġimposs ible
Ġsw all
Ġfem ale
Ġsoft ly
ĠW as
Ġappre ci
Ġcomp an
Ġac cess
Ġspirit ual
Ġdep art
Ġno ise
Ġse ll
ir on
O M
Ġh ost
Ġsc ene
Ġas leep
Ġgener al
Ġgu ards
Ġg ate
1 4
c a
t ime
Ġy e
at hered
Ġne ither
Ġto ss
ĠWh ile
Ġour selves
ĠD ar
l ie
Ġpr im
Ġst aff
ĠN at
Ġas ide
Ġdri ver
Ġweap on
Ġsm oke
Ġcr ack
Ġris k
Ġag ree
ch o
iv il
e g
ers on
ĠS ec
or a
Ġbur st
Ġst orm
Ġgi ves
ition al
Ġshar p
Ġin j
Ġgot ten
Ġdanger ous
oll y
Ġkn ife
ff ic
N A
Ġc rew
Ġfor t
Ġjour ney
Ġ Ã
Ġbott le
cl aim
Ġhapp ens
Ġst age
Ġf aces
Ġm aster
il s
i ven
Ġstud ents
Ġ ice
Ġc and
eng th
Ġtra ining
Ġweap ons
Ġord ered
rou d
ĠJ ew
Ġs igh
E x
Ġb ound
ĠAng el
h old
Ġpriv ate
Ġf ac
Ġsign ific
Ġabs olute
ia h
Ġobv iously
Ġh ole
Ġind eed
olog ical
ĠE n
Ġoppos ite
C H
h ost
Ġhead s
Ġconf used
om as
Ġsoc iety
ĠM ax
Ġ ess
Ġro b
as ing
á º
Ġb ased
ĠAd am
m in
Ġsc ared
Ġve h
Ġcre ate
ĠH oly
op h
B y
Ġsc ient
Ġsl a
ill ed
ĠB ible
con om
Ġconcer ned
Ġjo ined
t hat
Ġsupp ose
ĠEng lish
all ed
Ġo p
Ġbo at
Ġl oss
Ġscream ed
Ġwind ows
u ing
ĠPe ople
Ġf at
Ġw ine
c ul
\ -
ac hes
Ġhe aring
ĠP res
Ġdef initely
Ġcour t
l ished
P lease
Ġdet ect
Ġbreat hing
Ġwond ering
Ġsil ver
em s
Ġvill age
as es
Ġc ustom
ĠT HE
i pp
ĠJ er
Ġp u
ĠY es
ke y
id s
Ġsett led
iz z
Ġbe ast
1 8
ĠC aptain
n et
Ġest ab
se qu
Ġanim al
st airs
Ġinterest ed
im ate
Ġpract ice
c he
Ġdes pite
Ġmove ment
d o
c her
Ġdam n
Ġpl ans
Ġw ave
Ġg onna
in n
bo ard
h od
Ġsp ell
Ġshould n
O T
Ġ ãĤ
Ġth irty
Ġj ack
3 0
t ain
Ġd ata
en ces
Ġbeha v
Ġavail able
en cy
ĠM ed
Ġher s
Ġmir ror
Ġlead ing
Ġmil es
Ġbe ar
as y
Ġst ream
ĠA nt
Ġanim als
Ġfore head
M r
ĠM ike
Ġhang ing
ĠPer haps
Ġdream s
ot ions
Ġsna pped
Ġsa ved
at ors
Ġmil itary
ĠU S
Ġstru ct
Ġbreak fast
ag ue
ĠD es
Ġmention ed
Ġd ance
Ġcom ment
Ġqu ar
Ù ı
Ġde b
im ent
Ġb an
Ġsleep ing
Ġb i
Ġt ax
b ook
as ons
Ġint rodu
Ġlist ening
Ġman age
Ġad j
Ġnerv ous
Ġrel ief
Ġe ating
Ġlea ves
1 7
ĠY ork
r am
Ġpos itive
Ġext reme
ĠJ ake
Ġlet ting
Ġfin ish
ĠP ar
Ġin it
Ġexist ence
Ġf ish
ĠM el
Ġa chie
Ġinterest ing
ons cious
Ġwood en
Ġte xt
Ġass oci
ir ing
Ġb ank
Ġrem oved
ib ility
Ġacc ording
Ġcon cent
v ent
Ġres ist
Ġimp ro
Ġwonder ful
Ġwa ved
Ġte a
ĠJ an
ĠJ ac
ĠT im
en ny
U n
Ġw ake
Ġocc asion
Ġass ist
Ġprodu ct
Ġa im
Ġtr ad
Ġf reed
ĠJ on
Ġoffic er
ĠB ecause
g u
Ġcare ful
Ġ1 4
Ġdiffere nce
Ġbecom ing
op s
Ġinf lu
N D
u k
ot ed
b b
Ġp sych
ĠH igh
E T
Ġp ush
at ter
Ġcomfort able
O D
Ġmill ion
miss ion
Ġs ides
Ġpie ces
Ġposs ess
Ġs ne
Ġche cked
Ġhall way
Ġan cient
Ġarm y
ol s
ic y
Ð ´
Ġp roud
Ġfig ured
Ġy a
ĠM ad
Ġfl ight
Ġch oose
i os
Ġrepe ated
Ġdis play
m as
Ġinst ruct
E L
Ġli p
Ġg reet
Ġappro ach
Ġmark et
Ġfall en
Ġprov ide
ĠWill iam
Ġhot el
ĠR ic
ĠM us
Ġwr ote
Ġg ather
M e
Ġf al
h ouse
Ġmount ain
it ation
Ġpart s
cept ion
Ġany where
Ġexc ited
f l
Ġdet ails
Ġwe ar
Ù ħ
Ġ1 3
ĠInst ead
Ġyour s
Ġcon c
ĠM a
fort un
as m
Ġg ift
ce ll
Ġr u
Ġw ed
Ġ1 1
Ġfeel s
Ġgl ance
Ġfly ing
à¯ ģ
ĠF rey
Ġcab in
Ġenc ou
ĠS er
Ġthrough out
Ġro le
arr ass
Ġen s
Ġcont r
Ġp ure
Ġchar ge
ed s
ip le
Ġpat ient
Ġdisc overed
ra ph
Ġun less
Ġtell s
Ġem otions
ĠO F
r ick
Ġref lect
r in
Ġan x
Ġadd ress
Ġsh ower
Ġdis p
Ġsum mer
Ġbelie f
v a
Ġbro ad
Ġp ill
Ġlead er
p id
om an
Ġtr ick
Ġe tern
c king
Ġdri ving
Ġinn oc
ap ed
ĠHe re
ĠM ore
Ġb ill
Ġthan ks
Ġl ength
Ġrese arch
am ing
Ġpre c
as p
Ġr ich
Ġed uc
a ving
Ġnear by
Ġth row
Ġt ent
/ /
ĠR y
ĠGe orge
Ġm ix
Ġcirc um
ĠH en
Ġpossib ly
Ġyell ow
Ġsc an
ĠBe fore
Ġsuggest ed
Ġman ner
Ġact ions
Ġst are
Ġun able
u nder
Ġmet hod
Ġrespond ed
Ġmem ories
ell a
Ġg athered
att ered
Ġ #
ĠA f
Ġt aught
Ġn ames
Ġpray er
at ory
Ġun iverse
ĠTh ose
Ġtra il
iron ment
ĠDan iel
ord s
Ġmost ly
al es
in ked
t a
Ġdist ract
Ġe conom
' ,
ĠP lease
ĠSar ah
ĠK at
Ġp ool
ors es
he m
Ġ1 6
Ġt ear
Ġrep ly
Ġse lect
Ġdec ide
ree k
Ġwa ist
Ġresult s
ĠB ob
Ġcond ition
ap s
Ġthere fore
Ġfr ust
Ġsh owing
Ġgr ad
am ent
Ġ $
Ġemb arrass
Ġprev ious
Ġconcer n
Ġfl ash
Ġhead ing
en ch
ĠC ent
Ġfle w
ren ch
B ecause
Ġh ous
es e
Ġch in
Ġ19 9
ĠP et
Ġclim bed
ĠR es
Than ks
G od
Ġt u
Ġcomple x
Ġt it
b ack
Ġl ink
ĠUn iversity
Ġche eks
Ġsha pe
ĠR ed
Ġcou ch
ĠE ur
Ġmach ine
Ġval ue
Ġn amed
Ġd irt
Ġadm it
ĠF irst
Ġfar m
Ġwant ing
Ġp et
Ġ rough
Ġrequ ired
Ġswe at
Ġrele ased
o e
Ġj er
ĠT w
i ber
Ġb other
. )
Ġburn ing
Ġfail ed
Ġc ivil
Ġsha red
Ġcommun ity
g ar
Ġhard ly
Ġdri ft
Ġshad ow
Ġre act
L ook
Ġo pt
Ġdou ble
Ġexc han
Ġst ars
as c
Ġprom ised
Ġn orth
est ed
ĠG ood
Ġf und
ir a
ĠT y
Ġloo se
Ġsour ce
Ġp in
ĠR ob
Ġst ated
or g
ĠW orld
ĠG ab
Ġg arden
Ġacc ident
Ġle ather
Ġ1 7
Ġp ale
Ġbe er
le br
ĠE ric
p et
Ġwhis per
Ġsho es
Ġansw ers
it a
ter day
Ġpur cha
Ġnumb ers
Ġt our
Ġcry ing
Ġremind ed
A h
Ġpl ate
5 0
Ġfoc used
Ġpass ing
Ġcomp et
S ure
Ġpot ential
W ill
ar row
Ġide as
k a
Ġw ished
Ġbl ond
Ġforg otten
ad a
Ġc hat
Ġeas ier
Ġele v
Ġgri p
Ġter ror
ĠM in
ĠJ ud
I L
Ġw id
ĠFrey ja
en ger
Ġv o
A r
Ġpre fer
ĠAmeric a
Ġr ise
Ġlist ened
Ġc red
ific ation
Ġmur der
p an
ĠAl though
Ġcl ub
Ġh orses
Ġwhe el
Ġann oy
Ù Ī
Ġple as
ar l
A ny
Ġgreat er
Ġj aw
ore s
Ġhelp ing
Ġr ang
an na
ĠO l
Ġtot ally
Ġter rible
Ñ ĸ
Ġchuck led
Ġcall s
ĠS ee
Ġl iter
Ġmar riage
ly n
Ġn aked
ĠG rand
Ġcreat ures
i ant
Ġg igg
ĠY et
Ġter m
Ġaccept ed
ĠI N
is c
Ġcarry ing
ĠQ ue
m ar
Ġstru ck
ĠC o
Ġh o
Ġchan ges
Ġfa ult
e b
ĠB ro
Ġdrag on
Ġkill ing
at ures
Ġp ark
ĠM al
ĠT V
is a
Ġb ought
Ġtast e
Ġcolle ge
ĠUn ited
J ohn
Ġsaf ety
Ġ- -
Ġintell ig
Ġfun ction
ĠC am
ĠG o
um an
Ġsha ke
Ġr ushed
Ġbe ach
Ġcr it
Ġbl ow
are t
ĠNot hing
He re
m it
Ġsmo oth
and ing
Ġbeaut y
ĠR uss
Ġp or
id ay
ĠA pp
Ġh ill
Ġis land
: //
ĠI m
Ġme chan
Ġh iding
ĠO ther
Ġyoung er
Ġme al
Ġpr inc
es ides
Ġro of
Ġe cho
Ġf ought
ib ly
int s
Ġsee k
kn own
ck s
S T
Ġsus pic
os en
Ġce lebr
Ġt ask
Ġob l
k in
Ġab and
Ġde g
ic ip
Ġce iling
Ġrece ive
Ġinc red
Ġwor st
w ood
ĠL ou
Ġgr ace
ĠBl ack
Ġfun ny
ac le
o inted
Ġsol id
n o
Ġstre ets
, _
ĠPro p
Ġn arr
Ġf right
Ñ ı
ing ing
Ġup set
Ð º
Ġha ted
Ġun com
A b
ve y
am n
Ġw and
ĠT er
Ġrul es
Ġluck y
Ġsp ir
Ġcir cle
ĠRo bert
Ġreg ular
s ive
Ġdevelop ment
ud den
less ly
Ġte aching
OR D
ĠT O
her n
ĠSomet hing
Ġm ood
Ġre asons
ĠA ust
Ã ¡
ell e
Ġbrother s
Ġw oke
se c
it ched
Ġcra w
Ġdet ail
Ġplan ned
ĠL a
ĠH ad
Ġfreed om
ĠS ir
Ġref er
ive red
Ġsp r
k i
Ġre b
? _
Ġenjoy ed
Ġsm art
ant age
Ġple ased
Ġpro gress
Ġperfect ly
G et
Ġr ace
ut s
Ġop in
Ġlear ning
Ġn et
Ġrelig ion
o om
ĠL uke
ep ing
G o
Ġbl ade
Ġreve aled
Ġthink s
Ġtot al
ing er
Ġvict im
Ġem br
Ġgr ay
ĠE ll
ĠN ick
Ġlead ers
Ġjud ge
ĠM on
om m
ĠG reat
e ke
ic ing
ant ic
t le
Ġp ants
H ell
Ġhu g
and y
ra w
Ġter ms
n es
Ġac qu
Ġmem ber
I D
Ġs outh
Ġspec ific
i ot
ee ch
Ġother wise
Ġpress ure
Ġco at
Ġcaus ing
Ġf aster
Ġpoint s
Ġset ting
Ġland ed
Ġdoor way
Ġm ental
Ġl aughter
Ġiss ue
Ġl ap
udden ly
ĠV al
Ġord ers
Ġdeterm ined
ĠB ill
Ġprov ided
ĠC ity
ri el
Ġap olog
AP TER
Ġorig inal
ĠTh omas
Ġgr own
ul ous
Ù ĩ
Ġsc ience
2 5
e el
Ġdeep ly
el ve
ro g
ĠSt ill
Ġjack et
oy al
Ġser ve
Ġtw ice
Ġm ort
Ġwar ri
ĠS w
Ġpo inting
Ġwe alth
Ġwe ird
Ġdo c
Ġp age
Î ±
ep s
Ġth us
Ġv ide
Ġper cent
Ġcircum st
ri but
Ġmov ie
Ġshad ows
S orry
Ġfor mer
ar ies
Ø ±
Ġc ro
ce an
Ġbut ton
Ġfor med
A C
Ġamaz ing
Ġg host
Ġpur s
Ġign ored
Ġser ies
Ġtra ve
ul ated
Ġc oo
Ġbr idge
Ġr um
Ġcar s
Ġag re
Ġrad io
Ġim pl
ĠS ince
a res
Ġex pen
Ġam b
ian a
Ġmat ch
ep end
m other
Ġcle ared
ish ment
Ġme l
Ġmed ical
Ġcop y
ic ient
Ġb ent
: **
Ġbring ing
Ġexp ress
Ġfavor ite
ĠJo e
g est
ĠS T
ign ed
ĠJ osh
Ġre action
Ġwel come
s p
Ġmass ive
Ġentire ly
le ment
Ġgi ant
ĠB et
Ġn arrow
ak er
Ġspec ies
s he
Ġb oss
Ġyes terday
Ġqu e
t han
ĠSt ates
ĠJ ason
f riend
ĠC ont
L E
Ġcon cept
Ġpolit ical
ĠM er
Ġp ink
A D
ĠD ay
ha l
Ã ®
Ġfr ame
roll ed
Ġte ach
Ġt ick
Ġsac rif
Ġprof ession
ĠCh urch
H ave
Ġenv ironment
ĠC oun
Ġdis e
if er
Ġactiv ity
cri pt
ĠR em
Ġref used
O r
Ġcoll ap
Ġevery where
ĠEvery one
ĠPres ident
is ters
Ġtum or
Ġsh ield
g ment
Ġmod el
Ġkn ock
Ġproper ty
Ġsurround ed
ĠRic hard
Ġme at
P er
u gg
at ched
ĠE ach
v is
ic les
Ġthe ory
ĠEur ope
Ġrub bed
Ġlow ered
Ġv ac
Ġwar ning
ĠW ould
Ġstret ched
Ġhung ry
oc r
Ġpat tern
Ġwa ves
Ġbecom es
Ġstud ied
claim ed
gen cy
ĠMar c
Ġm ic
Ð ¼
Ġburn ed
Ġtem per
o ot
A M
O nce
Ġc ig
Ġc ave
Ġsign s
ĠL aw
Ġdisapp ear
Ġtw isted
ĠM aster
Ġhard er
Ġk icked
Ġp ushing
Ġpro ve
Ġdam age
el f
Ġmur d
Ġsub st
Ġconscious ness
Ġp ul
ĠHe ll
Ġrest aur
Ġgold en
Ġpl ant
Ġgr im
ap er
le ction
Ġgrou ps
Ġimp act
Ġtreat ment
Ġgas ped
r im
ha nd
ra b
ĠChrist mas
ĠBr it
ur s
ub b
all ey
Ġfal se
Ġco ck
O W
Ġmist ake
Ġpar king
it iz
ĠC he
Ï Ħ
Ġmut tered
Ġd ying
ĠC oll
ond on
ĠThan k
Ġrecogn ized
at o
Ġkn ocked
Ġpro ceed
Ġocc up
Ġpat ients
ĠM any
ad s
Ġlar ger
Ġad ult
i j
Ġbre aking
Ġpri or
i qu
z ing
et te
Ġtrans l
ol ic
ĠJ ose
Ġdes cend
y e
ict or
2 3
il ies
Ġdra wn
Ġl osing
Ġp owers
Ġdut y
Ġpict ures
Ġte en
ess or
ĠQ ur
Ġreg ret
if orm
ac hel
st al
Ġl ung
Ġdri p
Ġher o
Ġrelig ious
.... ....
al y
Ġrem ains
ĠS l
ĠPh il
Ġno vel
Ġir on
Ġun w
Ġd irty
Ġking dom
our s
Ġwood s
Ġsc ar
Ġw ings
Ġrepres ent
k er
c an
âĢ ¢
Ġplan e
m et
Ġnot es
Ġstart s
Ġdr inking
Ġspo ken
ĠW est
Ġbl ur
le ar
Ġsh ows
Ġsear ching
um er
D e
Ġmod ern
i ples
ver t
Ġsy mb
Ġs am
Ġra pid
ash ion
Ġd er
ines e
Ġres c
ĠB el
ĠL ove
Ġdep end
Ġshe l
Ġt ail
ĠL ORD
ĠIs lam
Ġre aching
Ġveh icle
Ġang el
iv ity
Ġshif ted
han t
Ġsurv ive
Ġinterrupt ed
h ich
Ġc ow
Ġsend ing
Ġno body
ĠS on
ag ing
Ġe ld
it ement
Ġfr uit
ĠJ ess
Ġc ook
Ġparticular ly
Ġpass ion
fortun ately
Ġrem aining
Ġcloud s
Ġch ose
ath y
ra ft
Ġpr ice
Ġf acing
al t
L e
v in
p re
p ir
ĠA ct
e ous
ag on
Ġsw im
Ġneg ative
Ġtight ly
Ġrel ie
Ġch osen
S omet
Ġse ction
ĠEvery thing
Ġpl enty
ĠGer man
Ġsw ung
Ġsle pt
y m
ĠP ol
Ġt ied
Ġr ule
ĠS un
Ġcr im
Ġre ar
Ġplan ning
ĠR ight
ĠQue en
ĠChar lie
om ed
ur a
Ġme rely
Ġf ol
in ated
Ġfif ty
ĠR ep
Ġu lt
M ar
ha d
is ions
Ġr ising
r um
Ġapp arently
ĠH ouse
ab eth
Ù Ĭ
eke nd
Ġt ill
v ision
Ġsh own
ĠL ady
Ġaw ake
2 2
Ġpl at
ill e
L ike
Ġli br
Ġb ud
ĠL ondon
i est
Ġscream ing
Ġsmall er
Ġfor ces
Ġk ick
ĠJac ob
Ġblood y
ĠS outh
ur ies
ĠGen eral
F rom
Be fore
ys is
ve re
umb ling
Ġat e
Ġse es
Ġp il
Ġwed ding
Ġexperien ced
ĠHen ry
E ven
ck now
f ather
ĠR ose
Ġcl ut
Ġatt end
Ġappear ance
Ġwis dom
in o
Ġabsolute ly
Ġf ist
om a
Ġst un
Ġf ant
Ġre lease
Ġcor rid
Ġtrans form
Ġcount ries
g in
Ġstat ement
Ġin ner
Ġconnect ion
Ġexpl an
Ġinst ant
Ġlevel s
ĠM other
Ġdel ight
Ġroom s
Ġe ager
Ġwas te
Ġhur ried
Ġun iform
Ġstand s
Ġcont ent
ri ff
Ġsystem s
Ġexc itement
Ġ3 0
im p
Ġb at
Ġsm ir
us ing
Ġmar ry
Ġstay ing
Ġthousand s
Ġrequ ire
Ġsp eech
Ġsuff ering
Ġc art
Ġmind s
u a
Ġfre qu
Ġslam med
Ġli es
Ġcas es
Ġdemon st
r s
Ġ Ñģ
Ġf aint
Ġsqu are
Ġaccom pl
Ġtoss ed
Ġwe ather
ĠG et
ang ed
w in
Ġbal ance
ĠTh ough
Ġcapt ain
Ġright s
Ġsp in
Ġuncom fort
Ġcont ract
Ġev olution
Ġwe ekend
u x
Ġ19 8
EN T
Ġsil ently
ĠB oth
Ġbig ger
ĠS und
ĠF rench
Ġth y
Ġinst antly
Ġexpect ing
Ġdestroy ed
Ġcont ain
Ġgod s
Ġred u
i ance
Ġwor ship
Ġiss ues
e xt
Ġint ense
Ġimag ined
ĠF inally
Ġhapp iness
Ġwip ed
pp y
Ġf aced
Ġdist ur
O ur
i ation
Ġtechn ology
Ġpart ner
k ward
ul ate
Ġdeep er
Ġswall owed
Ġda ily
ac he
Ġcam era
Ġadv antage
ĠCoun cil
Ġb ul
u h
ĠAf ric
Q u
R I
Ġun cle
Ġinst inct
Ġrec ently
Ġdisc over
Ġp alm
Ġgl ow
Ġbo ots
Ġdevelop ed
Ġbe ings
u ous
Ġmat ters
ĠH ave
Ġbuild ings
Ġser ved
Ġdr unk
Ġb ree
l or
Ġfell ow
Ġgrow th
Ġbre ad
Ġglass es
Ġsold ier
Ġlaw s
Ġpan ic
ir med
Ġnow here
C on
ĠC ome
Ġw ise
Ġli qu
Ġo il
ĠMus lim
ĠJ ane
Ġlif t
er ves
Ġc u
Ġe gg
Ġlo ving
Ġauthor ity
Ġheart s
Ġdef e
Ġc aut
Ġgr ate
Ġdemand ed
Ġstud ent
ol t
Ġvo ices
ĠM o
Ġrespons ible
Ġb ite
Ġsh ocked
Ġex erc
ĠO ld
Ġres our
à® ¤
f ord
ĠM ac
Ġran ge
ĠR on
rif ied
Ù ĳ
iz abeth
Ġje ans
v ation
a e
Ġsome what
ĠCl a
ĠL ife
Ġhon or
Ġsure ly
Ġstr ate
Ġm ent
l ies
Ġ2 4
ĠT H
Ġa cknow
Ġsp un
Ġover w
Ġaw kward
Ġneighb or
Ġver se
ell y
Ġbl ast
s ion
Ġbut t
st e
Ġbehav ior
Ġinter view
Ġf ed
Ġy eah
Ġfl owers
à ¥
d ie
ort s
Ġsex ual
Ġle aning
Ġde ck
Ġv irt
ap an
an ch
Ġt ro
Ġser iously
Ġfam ilies
Ġfl ood
ack s
Ġstrugg led
Ġhe ight
s pect
Ġf ate
Ġvamp ire
R ight
Ġextreme ly
ĠM il
Ġstruct ure
Ġoffic ial
Ġprev ent
b led
Ġcon sequ
E C
Ġr ush
Ġloc ation
Ġcircumst ances
Ġpl ain
Ġmur m
Ġst ir
Ġconf ident
Ġfe atures
ra in
in cess
Ġsc ale
Ġfor ms
Ġf ulf
Ġg rey
Ġs ink
2 4
ord er
ĠWith out
iss a
ĠR ay
Ġo cean
Ġwr ist
Ġfif teen
at ives
S ee
b ur
Ġpri est
Ġtrans port
Ġfl ow
B l
ĠCar l
Ġm ap
Ġp oured
he ll
ĠS il
et ic
are n
Ġsmil es
b ow
ill ing
Ġch ick
Ġmy st
iven ess
C l
ĠÐ ¿
Ġcast le
ĠAs h
ĠE ve
Ġcur ious
Ġg ames
ĠI nt
Ġcl ock
I nt
Ġpass age
Ġrel ative
aw s
es tern
Ġhous es
Ġmed ia
Ġg ir
Ð ²
ri er
Ġstrong er
Ġrecogn ize
ĠDe v
Ġsp ring
Ġt ur
Ġgo al
ĠS an
ĠSt ep
Ġun e
ĠAn other
Ġare as
Ġdra gged
Ġc itiz
p ro
Ġin ha
Ġre ject
Ġcomp ared
Ġint ent
Ġmus cles
Ġn ine
id ering
à® °
Ġste el
ĠB re
Ġb ond
Ġtun nel
Ġw olf
f a
Ġf ired
Ġg ain
Ġconf usion
ind a
Ġex ec
Ġst ates
W hile
Ġbl ame
ĠD a
Ġbur ied
Î ½
Ġincre ased
d uc
ĠWh ite
Ġchan ging
v est
ar n
ens ive
Ġcre ation
Ġmount ains
Ġdis g
ĠB esides
Ġhigh ly
Ġconv in
Ġpap ers
Ġal t
ĠSomet imes
Ġtw elve
Ġp ace
ec ca
Ġins isted
Ġclot hing
Ġp ra
Ġpain t
Ġvide o
ĠN orth
ist ry
Ġpl astic
ar on
ph one
Ġdist ant
Ġcr ime
Ġint ended
Ġloud ly
Ġpu zz
Ġoverw hel
Ġsurround ing
Ġrestaur ant
Ġp ad
ĠP art
ell ed
Ġhy p
Å Ł
Ġrock s
Ġe p
og raph
Ġcha pter
ĠC han
Ġwin ter
O L
Ġra ise
Ġconnect ed
art ed
ĠW ord
Ġaut om
Ġass umed
ab or
g l
ver age
Ġ19 7
Ġadv ent
ĠCh ris
ĠK en
r ant
Ġcap able
Ġagre ement
Ġn ation
h us
ar i
Ġact ual
Ġconvin ced
Ġrev iew
ĠB o
ĠW il
Ġcon ce
Ġequ ip
Ġ Ä
Ġst iff
Ġtre mb
Ġsa ke
y ear
ĠProp het
ĠC ass
ĠB ook
ĠAr t
Ġexpl os
on el
Ġgreat est
he st
ĠT re
Ġreturn ing
Ñ Į
Hell o
Not hing
ĠS ure
Ġste ady
m o
Ġsepar ate
ĠSim on
Ġprotect ion
Ġcent ury
Ġblank et
Ġgl ob
Ġas pect
Ġkn ee
ĠJ apan
Ġsk ills
Ġsh ift
Ġsc en
Ġship s
Ġinflu ence
Ġbr ow
Ġp ile
Ġdo zen
Ġm as
Ġtor t
ĠP ark
un ted
Ġth umb
Ġopin ion
à® ¾
il os
ot ic
Ġinnoc ent
Ġpar ked
il a
ct ions
Ġheav ily
Ġspl it
Ġsp ark
ĠF red
Ġthr own
ĠL y
ĠD el
g ie
Ġm ob
Ġtem ple
Ġlove ly
ub lic
het ic
Ġlot s
2 7
Ġadm itted
Ġt ip
Ġsc ent
Ġun like
ra ham
Ã ¶
Ġp it
Ġqu ality
Ġrequ est
Ġoffic ers
ĠV ictor
cl us
Ġdes p
Ġchallen ge
T ell
Ã ³
Ġb ones
Ġth igh
Ġs ite
Ġhur ry
u ary
is ible
Ġ2 5
tt p
à® ķ
ĠM ars
Ġpop ulation
Ġl ake
Ġu pper
Ġann ounced
ĠSund ay
ĠN ever
T wo
ag ger
et her
Ġbreat he
Ġar rest
Ġp ond
Ġobs erved
Ġdis s
Ġant icip
ĠA ss
Ġsuccess ful
Ġdoll ars
Ù Ģ
Ġf aded
i as
od ay
Ġr ate
Ġapp ears
ou nce
er on
Ġri f
Ġgl ory
Ġachie ve
w are
Ġsome body
Ġal ien
Ġfirm ly
ic ious
Ġf ier
Ġ Ñ
Ġfor ty
Ġcy cle
Ġsquee zed
Ġh ips
Ġfix ed
Ġit ems
Ġfore ign
Ġdescri bed
g s
Ġc ash
Ġadv ice
Ġind ust
Ġdraw ing
Ġbeg ins
at han
Ġf ile
ĠT ra
Ġstr anger
al ous
d own
Ġet c
Ġm ud
p ret
im ately
Ġrel ated
Ġclos ing
a ult
ar ian
oc ol
Ġemotion al
Ġf ashion
Ġequip ment
pt h
vel ation
Ġbl inked
ĠSt ate
A d
ut ed
Ġinclud ed
ĠThere fore
ĠAn na
Ġhas n
Ġeffect s
ĠSte ve
Ġgu ide
I I
Ġrest ed
Ġincre ase
Ġrec ent
Ġb ast
à® ¿
Ġrelax ed
Ġrec all
w ar
ĠRe g
Ġpre gn
Ġin hib
Ġr ot
u ght
A Y
Ġar ch
Ġmic ro
ĠJ ay
oint ment
Ġdog s
Ġdo ct
se e
Ġt empt
l an
Ġcha in
Ġbel t
il ty
Ġem p
Ġy ard
Ġun known
um ps
f ield
ar ry
Ġfin anc
ound s
Ä ģ
Ġdel iver
Ġfl ashed
Ġtreat ed
Ġst ress
." _
ĠJe ff
Ġ ãĥ
3 3
Ġuse ful
Ġappreci ate
n or
Ġlet ters
Ġsus pect
Ġext ended
Ġh oney
Ġelev ator
Ġspot ted
Ġroll ing
2 6
on a
Ġ Â
Ġconf idence
Ġin qu
Ġbirth day
Ġlo ves
Ġleg al
Ġun us
bel ie
Ġp iss
Ġsoul s
I V
Ġbird s
ak s
Ġv ir
Ġke ys
Ġme asure
ile y
Ġwal ks
P ro
Ġgl ared
Ġex claimed
Ġlibr ary
Ġhor ror
Ġright eous
Ġpossib ility
Ġse ason
ĠJ u
Ġf ab
Ġv ib
Ġwhen ever
Ġexplan ation
st on
Ġal c
Ġfold ed
Ġtele vision
ĠC all
Ġcare er
ĠA ND
el ine
ĠM ess
E M
om s
A m
ĠS al
Ġc ous
Ġoccur red
en ess
Ġforg ot
Ġpr ide
ur day
oo ked
2 1
ly ing
Ġevery body
ur ance
D an
Ġadd ition
ĠB rian
c ast
Ġhu gged
Ġpartic ip
Ġyou th
Ġbag s
i able
Ġclose ly
by e
Ġsens es
Ġsha me
Ġr ow
ĠJose ph
br ows
v an
Ġb one
Ġm a
Ġhundred s
ĠO ut
com ing
Ġrespons ibility
ust ing
l ict
Ġsc hed
Ðµ Ð½
Ġf urn
Ġback ground
ĠGr ace
Ġe ase
Ġland ing
Ġav o
Ġ2 1
Ġv ast
Ġbit ch
c ol
ĠO b
Ġm erc
ip e
Ġst air
ĠDan ny
Ġarr ange
ne ath
S am
Ġthr owing
Ġw est
Ġor ange
The se
cl usion
Ġra ge
Ġn ational
Ġreport ed
Ġwarm th
n at
ĠChrist ians
Ġimag es
or ter
Ġal right
it ution
ĠAn n
Ġcorrid or
Ġact ing
pl ace
ist ing
Ġmon ster
2 9
Ġut ter
W ait
it ute
Ġcond itions
Ġaff ord
nd s
Ġbet ray
Ġhe al
Ġcont em
f all
ur ally
Ġchair s
Ġign ore
Ġreal ised
Ġdef end
Ġme as
Ġs an
ĠS us
T H
Ġdesper ate
ĠAnd rew
lf riend
Ġsignific ant
Ġdise ase
as ha
ĠHel en
T om
Ġuncomfort able
Ġm ate
Ġactiv ities
er o
Ġeye brows
Ġown er
ĠIn tern
Ġind ic
ĠB ig
Ġhor iz
Ġp our
Ġr om
u f
Ġnur se
ad o
ĠT ime
Ġelect ric
Ġdrug s
ĠTh ree
Ġpay ing
at ically
Ġa in
ĠA p
ol ved
Ġp ier
Ġbit ter
Ġo be
ĠC H
l ock
Ġappro pri
Ġeduc ation
Ġso le
Ġall owing
Ġlim ited
! !
à® ©
s m
Ġda wn
Ã ł
Ġserv ices
Ġrelie ved
Ġun ex
ĠS ol
Ġatt ached
Ġqu al
Ġre ass
U S
Ġatt acked
Ġcontin ues
E l
Ġaud ience
p ut
ĠD em
Ġtr ade
Ġgu ilt
Ġfl ames
Ġst ock
ell ing
az e
Ġvers ion
Ġanal ysis
Ġforg ive
ass ion
Ġph ilos
Ġwas h
Ġeffort s
Ġd ancing
Ġrepl aced
Ġs ons
ĠSc ott
Ġl at
Ġbrief ly
Ġe ast
Ġoff ering
Ġsl ip
Ġst yle
! _
Ġbad ly
Ġso b
Î ¿
Ġhuman ity
Ġs en
Ġdev ice
ĠM ir
Ġh oly
Ġre nt
Ġc ott
Ġwar ned
Ġconst antly
Ġha bit
Ð° Ð½
Ġrou t
ic o
Ġgu ilty
Ġgun s
w ith
ĠRy an
Ġenjoy ing
Ġex it
Ġtra ffic
re te
W ould
Ġp ant
urn ing
Ġgra ve
Ġgrate ful
n ces
Ø ª
as hes
Ġvis ible
S e
Ġpop ular
Ġcred it
Ġse qu
Ġtit le
Ġcha mber
Ġbree ze
ĠH all
Ġd omin
Ġc ode
Ġstri ke
r ating
Ġant i
ĠBr ad
w en
Ġp ause
r ont
Ġkeep s
Ġp ages
Ġend s
ĠF a
Ġmed ic
Ġsw ear
ĠChar les
Ġconst ant
Ġbas ic
Ġinform ed
Ġfriend ly
Ġexc use
Ġ ~
Ġstat us
Ġal tern
Ġappro aching
it able
Ġnight s
Ã §
Ġsho ved
Ġro pe
d a
Ġclim b
ĠO ver
Ġcult ure
Ġdeg ree
Ġd read
Ġb ench
Ġre ward
Ġbr ushed
Ġbenef it
Î ¹
ĠR os
ĠE r
Ġenem ies
Ġsec ure
Ġreve al
el ed
CH APTER
ĠB illy
Ġs ch
Ġint ention
ĠL ight
Ġrid ic
Ġarri ve
ĠR ick
Ġbell y
Ġinclud e
Ġthe e
Ġup stairs
Ġcou rage
gy pt
Ġst ab
Ġen velop
Ġsurv ival
Ġman if
ĠA M
ĠD ark
Ġass ume
Ġjud gment
Ġhesit ated
2 8
ĠM s
Ġty p
Ġt ables
y er
Ġsuff er
Ġsto pping
Ġm i
Ġlead s
Ġo ption
Ġspir its
ur t
Ġplat form
Ġsa v
Ġd are
am s
ĠEl izabeth
Ġsur re
Ġinv ited
ĠT ony
Ġcover ing
Ġpleas ant
ĠM ill
2 01
Ġmo ves
ed ing
Ġun ique
om en
c ase
ĠA c
Ġcons idering
Ġble w
Ġstrugg le
ul a
An other
Ġfl u
Ġj oke
cell ent
Ġrem ove
uff led
ĠC r
Ġg ut
ĠL ook
Ġtou ching
op y
Ġret rie
Ġassoci ated
Ġapp l
Ġv ent
Ġunder neath
iz es
ist en
ĠD ep
Ġne are
Ġche er
Ġjust ice
ge ant
Ġre n
al a
l ar
Ġnews p
Ġinc hes
Ġbreat hed
Ġret reat
Ġmer cy
Ġhor rible
Ġg ang
in ate
Ġdesign ed
ĠT or
m ad
Ġprop he
Ġag ent
Ġcomm it
Ġpro of
ain e
e al
Ø ¯
Ġcl in
Ġatt itude
Ġgir lfriend
as ped
se mb
ĠB ab
Ġsp ect
Ġrel uct
h i
Ġencou ra
ĠG reek
ĠSt an
ad em
and ra
art ment
ĠG reg
ĠSat an
Ġsear ched
Ġde pth
Ġgro aned
ĠE ast
Ġcl en
Ġsc ri
Ġcreat ing
b or
ut en
ĠHar ry
Ġdis miss
ĠMatt hew
ĠSat urday
ect ive
ĠSt reet
Ġetern al
Ġad op
Ġblond e
ĠIt s
. **
ĠC ould
Ġbeg un
ind ing
k et
Ġprot e
ĠÐ ²
ap ing
ĠM u
Ġc ere
Ġalc oh
Ġc ream
r ict
E m
ĠD ave
Ġcond uct
Ġg if
um ing
Ġnot ed
Ġli ber
Ġresour ces
Ġpain ful
ĠAg ain
Do es
Ġl ou
Ġimp ress
ver se
Ġas t
I G
Ġind epend
end er
Ġsc rew
b es
Ġ19 6
J ack
Ġcra ft
Ġbr ings
Ġhealth y
Ġtor n
ĠK im
U R
Ġd om
u ine
Ġlab or
D ad
Ġl one
Ġir rit
ri a
I R
Ġesc aped
ĠMarc us
Ġpre cious
ĠA unt
um ents
Ġab rupt
Ġche m
Ġpor ch
ick s
Ġass ured
m es
Ġsuc ceed
Ġbow l
pha s
Ġapp lic
Ġhold s
Ġg le
ĠC our
H i
ug ust
ĠSm ith
Ġimpro ve
Ġwas hed
ev in
Ġmag n
ol es
ol ves
Ġst umbled
Ġdev il
ĠFr anc
Ġmy ster
Ġbra nd
Ġp icking
ac les
Ġ2 3
ĠK ate
ĠA my
Ð ³
i y
Ġf an
Ġdes ert
Ġde ce
am m
ĠBrit ish
ho le
es sel
hus i
ĠN ic
Ġpl ants
Ġliqu id
ww w
Ġprofession al
Ġb acked
ĠCh inese
O S
Ġj u
Ġsn iff
ĠN ik
Ġdiscuss ion
ck ets
ĠMart in
al u
anc hes
Ġfinanc ial
Ġli kes
Ġstud ies
ĠL aur
osp el
Ġexperien ces
ĠD am
Ġboy friend
Ġw icked
Ġinter n
Ġsw ift
ĠD NA
ĠJ am
Ġgrow led
Ġhands ome
Ġb unch
ĠSome one
Ġs ed
Ġreg ion
ĠO N
Ġtem por
ĠJ ere
Ġaband oned
Ġamong st
Ġsle e
Ġhe aling
Ġb owed
Ġra nd
r ad
M ay
ĠTh us
Ġs isters
or se
ob by
Ġsk ull
Ġty pes
Ġcl o
ag n
Ġwor n
Ġemer ged
Ġd ining
ĠS oph
Ġstr ang
ĠT ell
Ġfro zen
Ġro de
Ġal arm
ĠJ en
Ġany body
Ġra re
ĠB ra
ĠJew s
Ġh ood
ĠE than
Ġbreast s
ul ations
Ġqu een
Ġimag ination
ĠW in
Ñģ ÑĤ
Ġstand ard
Ġgen uine
Ġb ot
Ġt ough
I M
in i
ĠE gypt
og rap
ĠDo es
ĠP al
Ġcl oth
Ġass ess
ĠU nder
ĠSt ar
Ġlight ly
Ġserv ant
Ġrest ing
ann ah
m n
Ġprodu ce
i ated
Ġs illy
Ġprodu ced
Ġgaz ed
Ġviol ence
Ġun it
oll ow
Ġbas is
ru e
Ġadm in
it z
us es
ĠR el
ay ed
ĠPr ince
Ġper mission
g ly
ĠFr iday
er ted
Ġarg ument
ist ent
Ġpers pect
Ġlad ies
Ġrec omm
os is
Ġexp osed
Ġst ones
her s
ĠG al
Ġprep are
Ġst ern
Ġpol ite
Per haps
Ġpe ered
m osp
Ġregard ing
4 5
Ġb rill
Ġunc onscious
Ġgu ests
is ha
c ies
ĠR achel
4 0
Ġshe ep
Ġfield s
B ack
Ġje alous
A g
l ooking
ale m
Ġnorm ally
Ġrand om
o very
Ġintrodu ced
Ġdiv ine
Ġexha usted
Ġtrans fer
Û ¡
Ġmen u
Ġf ence
Ġestab lished
res p
Ġc ared
Ġpo ison
ĠUn cle
Ġign or
Ġsett le
b an
se y
ĠE s
Ġembr ace
Ġm ask
ĠÄ ĳ
Ġconf irmed
Ġang els
Ġm al
Ġs ins
ĠR og
Ġsurpr ising
anc er
id ents
Ġdrink s
Ġen orm
Ġacc ur
Ġkiss ing
Ġkind s
ĠAl so
Ġexchan ge
i pl
Ġtra ined
ĠP re
ĠR oman
Ġthr ust
ashing ton
Ġ +
ĠD iv
Ġw itch
om ing
Ġcap ital
Ġse ated
Ġfam ous
Ġshoot ing
ĠCh ina
Ġlim it
Ġs hat
ĠM id
Ġent ertain
os ure
Ġswe pt
Û Į
Ġb ru
Ġ x
el a
T ake
ĠGu ard
v y
cc ording
ha ll
bel ief
Ġsp ending
Ġg e
Ġserv ants
ĠEm ma
h r
Ġent husi
Ġmil k
ĠCar ol
Ġless on
Ġshe d
ĠInd ia
Ġgrand mother
J esus
Ġpurcha se
M att
e gr
Ġrun s
Ġpur ple
Ġunus ual
Ġv essel
re ction
or ce
Ġconv ince
Ġd ed
ĠF our
t hen
pri l
Ġunex pected
S c
Ġs ke
Ġdesper ately
in ity
ĠAl ice
Ġgar age
ĠS ur
Ġscri pt
ĠPro f
Ġche cking
Ġch ief
w hile
nd a
k ind
Ġobe y
ĠÐ ½
Ġp acked
erv ation
Ġ2 2
Ġdest ruction
Ġanal y
Ġbu zz
M ic
Ġsa ving
Ġp ist
Ġg all
ĠW al
Ġr iding
od ed
Ġat mosp
Ġdirect ions
Ġloc ated
c raft
Ġinc ident
Ġear n
Ġfrust ration
pl ess
ĠB ry
Ġgr asp
Ġintellig ence
le c
Ġcle aring
Ġ5 0
Ġ1 00
... '
Ġy ards
On ly
Ġcon clud
Ġenc oun
ĠS han
Ġtre m
ĠC y
Ġthr one
Ġproper ly
z a
Ġdec isions
ĠGab riel
A ct
out s
if ying
ĠD et
Ġv en
ob ody
Ġdec or
f ive
Ġthe rap
ĠG reen
Ġconf lict
ĠWhat ever
Ġsh ore
Ġback wards
à¯ Ī
ĠG over
Ġc ards
ĠLuc y
ĠEm ily
S C
Ġprodu ction
Ġn in
Ġappropri ate
Ġfoot ball
ĠÐ º
Ġexpen sive
Î µ
Ġindividual s
el ia
um n
ic ations
K e
Ġbr anches
Ġlung s
Ġsee king
Ġbull et
Ġpresent ed
ĠP ri
m i
lo ad
og ether
aret te
Ġgrad u
ĠÐ ±
ro s
Ġdem ons
Ġsign al
Ġinv isible
uten ant
Ġd well
ge red
Ġcr is
Ð ¿
w alk
Ġh int
g a
Ġrapid ly
un ched
ĠIs a
Ġha st
it ter
os ition
if orn
id a
ĠBe ing
Ġsent ence
w as
Ġve get
Ġr at
Ġl ord
Ġso fa
Ġin fect
Ġinter f
ĠT al
Ġa verage
it ors
the y
st ers
Ġro y
ĠL ee
Ġt ie
U L
Ġsatisf ied
st eps
Ġgl owing
Ġcont ained
b al
ĠEng land
b oy
Ġpull s
Ġn umer
Ġscient ific
Ġbe ating
t ained
Ġmain tain
rist an
Ġd umb
Ġgreet ed
ir ts
Ġt ension
Ġhar sh
Ġmix ed
m itted
Ġstrugg ling
Ġl ic
Ġcor rupt
t r
U T
Ġhist or
Ġsy mp
Ġstart led
ren ce
ĠJohn ny
ĠHe aven
ol ve
Ã Ń
Ġt il
e f
ĠB eth
W as
u its
Ġsupp ly
O K
Ġtow er
Ġele ment
Ġt ucked
Ġjob s
ĠS ch
Ġri pped
ĠT ake
Ġstud ying
Ġarri val
Ġdeal ing
an ked
Ġgu est
Ġey ed
Ġdel ivered
ĠS chool
Ġequ al
Ġfab ric
pt ed
m ond
Ġan k
Ġsens ed
Ġcig arette
Ġ ing
Ġcur led
Ġtra pped
Ġf iction
Ġa x
ĠI S
ĠWh ich
an i
out hern
Ġens ure
Ġhom es
Ġco ast
ink s
ul ty
Ġcitiz ens
Re ally
ac ity
Ġd u
Ġem phas
Ġconc rete
cl ock
V ery
Ġl oyal
Ġexerc ise
Ġs ust
p ack
ĠS av
gg er
ĠM ount
à® ±
P e
Ġche w
Ġn uc
Ġl ing
Ġstop s
Ġwith d
ay ing
Ġeffect ive
ios ity
u ge
ĠC ount
ĠK ar
Ġcr acked
Ġintell ect
Ġresc ue
ru d
Ġdes erve
ĠM oses
Ġf og
Ġme re
Ġrou te
Ġup right
Ġadv anced
Ġth or
Ġsing ing
Ġsol ution
Ġgrand father
Ġpun ishment
Ġbig gest
Ġinstruct ions
iforn ia
ĠH uman
b row
Ġcut ting
Ġdescri be
Ġfool ish
Ġdecl ared
M om
f ire
Ġur ge
Ġdown stairs
Ġsacrif ice
ĠTr uth
m ark
Ġclos et
Ġgener ally
Ġh itting
um s
ut ions
ĠJim my
Ġhe els
Ġmor al
Ġmag az
Ġdist inct
. *
j o
ĠR iver
ĠB u
Ġattempt ed
og an
à® ®
er ry
Ġcurrent ly
Ġf ra
Ġgri pped
ĠF RE
Ġpo pped
Ġse ats
Ġtend er
Ġchar ged
Ġsoon er
Ġimport ance
ĠSo on
Ġmyst ery
ĠV ir
ĠS oc
Ġdri ven
Ġtrave ll
ast y
Ġper man
in ating
T r
ĠR ome
Ġn av
Ġfail ure
Ġphot o
ĠD is
Ġha m
Ġsqu e
Ġreport s
ot ted
Ġdr ank
Ġsp are
Ġwat ers
se ct
Ġclen ched
Ġsupp lies
j ust
Ġclaim ed
Ġm umbled
Ġr aced
Ġbut ter
ag ged
Ġmotion ed
Ġaw ful
Ġf asc
Ġg ear
Ġsho pping
hing s
Ġwork ers
Ġin ch
Ġmult iple
Ġeng age
ĠAust ral
s ha
Ġperform ed
Ġclass es
ather ine
rou s
Ġd ial
h h
Ġdisapp ointed
v ant
ĠH un
Ġcomb ination
Ġu gly
ĠW ashington
Ġcomp re
Ġs ought
ĠD rag
ot ing
Ġd ang
ĠA ugust
Ñ Ī
Ġeye brow
Ġsc attered
Ġdrift ed
Ġcomple ted
Ġins pect
Ġalcoh ol
g un
Ùİ Ùĳ
Ġv ia
r at
Ġrem ark
un te
Somet hing
Ġresist ance
ĠJ enny
Ġdef ense
Ġfour th
x y
Ġbo red
Ġt an
d on
ĠH al
ĠT ri
ĠD ou
Ġaccom pan
en ced
Ġun l
Ġall ey
Ġvict ory
ĠO ct
Ġtrack s
Ġele ments
Ġsp ine
Ġex isted
l i
Ã ¤
ĠL and
Ġrese mb
ĠD ra
Ġfill ing
Ġd ug
Ġfact s
ĠDes pite
as per
Ġsal vation
Ġliter ally
Ġestab lish
Ġm um
b re
k ins
ĠLou is
Ġl ined
h u
Ġscan ned
Ġunc ertain
ĠM ex
Ġmurm ured
Ġeconom ic
Ġcru el
O P
ĠF ore
ĠCal ifornia
Ġnarr owed
Ġecho ed
ĠT est
Ġem ail
Ġta pped
th ur
ever al
Ġbr ush
Ġsens ation
Ġsus pected
ron ic
ĠCla ire
th is
Ġbless ed
Ġth under
Ġeld er
Ġper ce
Ġman ip
Ġatmosp here
ol a
Ġfair ly
Ġqu ant
Ġinter pret
ĠI an
ump ing
Ġadd itional
Ġsl owed
Th ose
Ġj ew
ond ay
S m
) :
ot es
Ġv alley
Ġint ens
Ġbast ard
Ġs its
Ġcommun ication
Ġmin or
Ġrif le
st and
Ġcl iff
Ġid iot
Ġord inary
Ġmot or
oo p
Ġr hy
Ġembarrass ed
Ġenorm ous
Ġgod d
Ġkill er
Ġbas ket
ĠK yle
w ords
Ġemer gency
for ce
F irst
ĠC D
Ġarm ed
Ġcollap sed
ĠS eth
Ġprec ise
Ġwarri or
ĠÐ ¾
Ġpain ted
Ġident ity
Ġimp ression
Ġencou rage
Ġsc ow
Ġcent re
ĠA aron
Ġexper t
Ġne at
pl ed
ĠH am
ĠF ar
ĠA id
Ch rist
Ġcollect ion
Ġd ull
Ġprim ary
Ġinit ial
Ð ¹
3 5
ĠN ational
Ġimp ressed
p oint
ag ers
Ġw ing
Ġconf ess
Ġt iss
Ġgather ing
Ġf art
ĠH ope
Ġpass enger
ĠSec ond
Ġpl us
Ġb ay
Ġpregn ant
W ow
Ġabs or
Ġshe et
A lex
Ġs ip
Ġquestion ed
Ġdr own
Ġcol our
Ġnerv ously
ĠI r
Ġfl ipped
Ġmin im
Ġcaus es
C har
Ġf iles
ĠY OU
Ġfe ared
Ġsmell ed
Ġarm or
Ġa id
E n
Ġint egr
Ġgener ation
4 7
Ġchild hood
ĠS ara
Ġsuff ered
Ġcomm itted
Ġstun ned
Ġgest ure
ĠS uddenly
Ġgl are
Ġb oo
Ġguess ed
Ġfright ened
2 00
Ġshe ll
n on
Ġperspect ive
Ġdes ires
Ġhoriz on
Ġsl ave
Ġcol ored
ĠG ar
Ġsha ring
AN D
Ġt ang
Ġbes ides
ĠR am
Ġimp at
es is
Ġ_ ____
Ġteacher s
ĠU p
eel ing
u ce
re es
Ġthreat ened
ĠRem ember
Ġc ore
Ġquar ter
Ġb omb
Ġjer ked
Ġact ive
itc hes
Ġ2 8
Every one
Ġvis ited
Ġimmedi ate
Ġhig hest
Ġperform ance
Ġcontem pl
Ġcous in
R A
Ġc ities
Ġjour nal
v ity
Ġarg ue
Ġfind s
Ġra ising
ocol ate
Ġc af
ik a
p ire
Ġ Ø§
am ped
Ġpract ically
Ġto ols
Ġcur se
Ġon line
Ġmajor ity
Ġv ul
Ġrout ine
ĠL or
C T
ĠDo ctor
Ġcont ents
L Y
Ġtri al
ĠS en
Ġspeak s
S ur
9 9
Ab out
Ġre ven
Ġle an
Ġent ering
Ġ2 6
Ġadmin ist
Ġobl ig
ĠCh ief
ĠM at
it ure
ag o
st one
ĠPl an
Ġpro ved
Ġfe ars
i ate
ĠT em
Ġwh ist
Ġfriends hip
b les
Ġcor por
Ġput s
Ġmag ical
Ġdirect ed
F r
Ġj ail
ĠKing dom
Ġsecret s
Ġt ap
Ġ2 7
ill a
Ġsla pped
Ġfl ick
Ġvan ished
à® ²
or ious
Ġdro pping
F inally
Ġfil m
ĠM E
Ġtrust ed
ress ing
ll y
F ine
Ġdis m
Ñ ĩ
ĠCour t
Ġtow el
Ġart icle
Ġoper ation
ar ant
Ġopt ions
Ġs way
Ġh id
Ġpur se
em ents
Ġlou der
Ġpill ow
Ġman ager
ke red
Ġbra ve
Ġpro duc
Ġent ry
Ġmill ions
D amn
Ġsl iding
ĠA rab
Ġ_ "
Ġbox es
Ġpol icy
Ġcent ral
ĠK n
Ġf ists
Ø ¨
Ġpro st
Ġroy al
Ġt ub
Ġdepart ment
ol en
Ġf uel
nt il
Ġ4 0
Ġprot est
Ġfig ures
er ie
Ġra il
Ġden y
Ġpal ace
Ġthor ough
) ;
ĠC ons
ĠThan ks
Ġlight ning
ĠAr my
Ġwid ened
ic ted
m ony
Ġcur iosity
Ġcol ors
Ġbe ard
es se
ent ially
Ġrem ote
Ġident ify
ĠP o
M ore
Ġex cellent
us hes
Ġm ail
Ġr ust
Ġo h
Ġse ed
ap h
Ġso ot
Ġdeterm ine
Ġref lection
w or
Ġcat ching
Ġsk ill
Ġfl ower
Ġfro ze
ĠL isa
ĠT ur
Ġmove ments
Ġsl ide
Ġfoot steps
ild ren
ĠR ec
Ġco inc
Ġflo ating
S p
at ching
Ġsymb ol
o ber
iz ard
Ġnumer ous
Ġwho ever
ĠN or
Ġident ified
Ġbelie vers
Ñ ħ
Ġreal m
Ġconsequ ences
Ġprev iously
ha se
ĠR en
Ġridic ulous
Ġsun light
Ġphilos op
Ġdis belief
Ġ201 3
Ġvol unte
Ð° Ð»
Ġrem ar
Ġb att
ĠA pril
Ġend less
U h
ĠH aw
N ever
Ġn a
ĠSus an
Ġg ates
ay lor
ĠA ir
ĠNat han
ĠJe an
ĠS P
Ġcal cul
ĠS uch
Ġcop s
Ġnod s
in er
ul ating
St ill
ĠS ub
Ġshout ing
Ġperson ally
Ġ \-
Ġair port
Ġpl acing
ĠV an
Ð ·
ĠFranc is
Ġmot iv
Ġus eless
ĠJ une
ĠL ittle
Ġmar ked
Ġfav our
Ġcry stal
Ġabrupt ly
Ġfl ame
Ġso il
Ġfoll ows
- "
St op
C E
Ġdel iber
Ġgrab bing
Ġinvestig ation
Ġf rag
Ġeat en
Ġcoun cil
Ġpil ot
Ġres ul
Ġt ank
Ġhis sed
Ã £
Ġfall s
Ġp ow
Ġn ations
D r
ul ed
Ġrub bing
Ġgif ts
ĠCom p
Ġ ÑĤ
3 7
Ġwar n
ry ing
Ġwe bs
Ġsand w
Ġpray ed
ĠC reat
Ġus es
Ġrecord s
Ġpress ing
Ġsuper ior
Ġdisc iples
ĠBl ood
Ġas semb
Ġl un
Ġpain ting
ur d
g ent
Ġlat est
Ġs arc
Ġpret end
Ġp ed
Ġin ev
Ġab ilities
Ġin her
ĠS ad
Ġanx ious
Ġsurv ived
l ong
Ġadvent ure
ant a
Ġsw itch
Ġwr it
Ġsepar ated
Ġtra p
Ġto ile
Ġhun ting
ĠRuss ian
ic ide
Ġcomp ar
ĠF ur
Ġfl owing
Ġc ute
Ġto re
Ġs ank
v ille
Ġh orn
Ġopen s
ĠSu per
Ġconst ruct
t ies
Ġcharac ters
Ġland s
Ġpat ted
Ġwound s
Ġn ut
Ġhel pless
ĠRe b
ĠSe an
Ġste ad
iam ond
Ġb ars
Ġact s
Ġcent uries
Ġis ol
ĠN ove
Ġsw ing
rib ution
Ġadv ance
Ġvamp ires
Ġint im
h is
Ġrelationship s
ĠL ooking
aj est
ac on
Ġexcept ion
pt ember
Ġgest ured
ĠW ay
ag an
us ter
Ġpart ies
Ġb ike
a fter
Ġter rified
Ġev ident
is ms
3 8
ĠÐ ´
er able
Ġneare st
ri al
Ä Ł
Ġbar n
Ġset s
o ves
Ġg rief
Ġess ential
Ġcar pet
Ġover come
Ġsuc ked
Ġkn ocking
ĠB rand
Ġarr anged
Ġth rill
ect ion
ĠA h
Ġval u
Ġag ents
Ġinj ured
Ġmanage ment
Ġcur sed
Ġreve aling
Ġlif et
ĠC ole
Ġv ague
How ever
Ġpres ident
Ġbot hered
Ġmess ages
Ġ201 2
Ġst all
ag g
Ġmanif est
Ġev alu
S ince
th m
Ġbr anch
Ġviol ent
sh irt
on ation
Ġdiscuss ed
Ġpist ol
Ġcur t
Ġunder w
ri ly
Ġfol ks
ĠR om
Ġcomp assion
Ġbe nd
Ġest ate
Ġdef in
Ġclean ing
Ġsc ra
Ġp m
ĠR ock
Ġpub lished
Ġo k
ĠMar ia
ĠÐ ¸
Ġinter nal
Ġste al
Ġbrill iant
es ome
ost er
Ġcr ash
Ġo l
it ual
Ġgigg led
Ġdrive way
p a
Ġtri es
Ġcommand ed
Ġtr unk
Ġre ck
ic ian
Ġsa il
Ġtremb ling
Ġmus cle
d s
us alem
Ġcompan ion
Ġass ign
Ġter rit
C ar
Ġpr ince
Ġc rou
b ar
Ġgood bye
Ġblock s
ver ted
Ġind icated
; _
Ġra rely
AT ION
Ġste pping
ĠB a
Ġb ang
Ġp ig
Ġen han
Ġwound ed
iss ion
Ġacc ent
Ġphys ically
3 6
Ġsp at
Ġch ocolate
Ġe c
Ġlaw yer
ĠN a
Ġs ou
Ġim per
Ġwa ving
Ġp uff
ĠIs land
B I
eng ers
Ġm ile
ĠCent er
Ġout er
ight y
Ġcapt ured
Ġd ried
Ġsafe ly
Ġw ard
Ġweak ness
Ġh ills
ĠD or
Ġval ues
ĠK evin
Ġar row
l ot
am in
ord an
Ġshort ly
Ġill um
ĠH olly
ĠInd ian
Ġpe e
ĠS cript
Ġsal es
Ġp hen
ĠD uring
Ġneighbor hood
Ġ** **
Ġglob al
Ġcas ual
Ġe go
Ġse vent
ib l
ĠB ur
ĠSe b
Ġf ake
ĠS har
ĠM onday
ĠE st
3 4
ĠS elf
R em
M an
ĠC at
Ġal ert
á ½
Ġl as
Ġcl ue
ir led
Ġconf irm
ĠP ort
Ġsound ing
Ġre ception
ĠB ay
Ġhel ps
ĠAfric a
Ġnewsp aper
ĠMor gan
ink led
à® ª
Ġha l
ĠC ath
Ġpound ing
Ġf et
Ġplay er
Ġstret ch
ĠCon st
à® ¯
nat ural
ĠV in
Ġprep aring
it o
tern al
l ow
Ġchick en
Ġhu h
Ġcustom ers
v or
Ġsign ed
Ġdistract ed
ham mad
Ġcrit ical
ut es
ret t
on ent
ce mber
ĠKe ep
Ġwand ered
Ġlo ad
C C
st anding
Ġtr ay
id ers
og en
Ġorgan ization
il st
Ġincred ible
Ġcompan ies
ĠL yn
ĠE le
Ġdr am
Ġpol ic
Ġcoll ar
ĠAm anda
Ġquar ters
Ġtrad itional
Ġsh y
Ġegg s
um es
Ġapp arent
Ġref erence
Ġhop es
Ġcra p
Ġattract ive
Ġsub s
ĠJer usalem
Ġli ed
Ġfor b
Ġkn ight
Ġb ol
ass es
Ġcha mp
Ġt ing
y es
Ġsuff icient
Ġclos est
over ing
ĠJ enn
ĠM en
Ġphot os
ĠH um
is her
gg y
Ġpeace ful
Ġg al
ĠMag gie
b rew
ĠJul ia
Ġm aid
ĠL ink
S uddenly
ĠÙ ħ
Ġdoc ument
Ġkiss es
ĠD en
Ġseem ingly
b i
E E
Ġannoy ed
Ġdefe at
p o
ĠN one
Ġlo aded
Ġ /
Ġign oring
Ġass ass
Ġend ing
7 8
Ġtro ops
Ġer u
Ġl ust
Ġnat urally
Ġcontin uing
D av
Ġdis h
Ġb order
Ġgot ta
Ġpro ced
m are
ĠI I
Ġgu id
Ġble eding
Ġpo ckets
... ."
Ġcho ices
roll ing
b ers
Ġess ence
Ġ <
u i
M ost
Ġ à¤
Ġperson ality
Ġun ivers
Ġco vers
ĠD ec
S te
ĠÐ °
ĠR a
Ġch ill
Ġmov ies
Ġa unt
Ġintern ational
Ġcomb at
Ġanx iety
Ġspin ning
r ors
ĠV er
ĠS erv
az z
w hich
ĠV ol
Ġequ ally
ĠSha d
ĠMar ch
Ġhol es
ĠT ristan
Ġre aches
Ġfor cing
Ġp od
os m
Ġbehav i
Ġkn elt
Ġwarri ors
on ing
ĠF L
ĠComm un
Ġcollect ed
Ġaware ness
sc ape
Ġlone ly
ere k
Ġsh ining
Ġto ler
Ġsh iver
ound ed
ĠBr other
ĠTh or
ĠTh rough
Ġown ed
ĠJew ish
Ġn ap
if ically
3 9
Ġbelie ving
ist ics
Ġche ap
ĠAb raham
Ġcl ar
Ġeng aged
Æ °
ĠL ong
ĠT oo
Ġencoun ter
ĠT ob
Ġshel ter
ll a
ĠF OR
Ġto ol
in ent
Ġg ul
Ġinst ance
ĠC le
ug s
ash words
Ġobject s
i ge
Ġdam ned
Ġstr ing
ĠÙ Ī
Ġc ooking
ĠS a
m od
Ġo w
an or
ĠUn fortunately
ĠDe ath
c est
Ġst olen
Ġaw a
ĠO ff
Ġremember ing
ĠG old
Ġcons c
Ġg orge
Ġsh udd
Ġcon clusion
ĠH y
Ġfier ce
Ġbo ot
Ġl ur
im mer
b ie
Ġshe ets
v i
Ġext ent
Ġill eg
3 1
ĠPet e
er ving
à® µ
ĠP R
Ġself ish
Ġex ists
Ġsp ar
Ġexam ined
uck y
Ġcont rolled
Ġph r
ĠT ar
Ġcalm ly
Ġsad ness
g reg
ĠM ur
_ ."
ast ing
im ents
Ġmight y
Ġscream s
c ont
Ġwr iter
ĠT oday
Ġhapp ily
** .
ale b
Ġfurn iture
i ens
h t
ĠÐ ¼
Ġproduct s
S ir
Ġreflect ed
l ife
Ï ģ
Ġsp ray
Ġscr amb
n ic
ut ation
Ġbelong ed
Ð° ÑĢ
Ġbelief s
Ġcl er
Ġmyster ious
Ġsne ak
f oot
W hich
á ¹
Ġpr incess
Ġser ving
Ġh ttp
ind er
Ġor g
Ġappl ied
Ġball s
Ġtight ened
f it
Ġt ale
f e
u z
Ġprotect ed
Ð¾Ð ²
Ġsch ol
Ġdest ination
Ġfair y
Ġsha de
Ġabs ence
Ġreal izing
ey ed
ĠO kay
Ġpal ms
ĠO K
Ġsen ior
ĠR od
A V
Ġel bow
se ll
ĠN orm
Ġw re
Ġf ishing
Ġsens itive
ĠJu ly
Ġw agon
um ble
N e
Ġbless ing
Ġvul ner
Ġtravel ing
Ġt act
Ġgu arant
ic ial
Ġcont ext
re m
Ġo ught
ie ce
ort ion
Ġdro ps
Ġsk irt
Ġbar rel
Ġcraw led
ind y
ir ling
Ġh unt
4 6
Ġref use
ĠLaur a
ri k
Ġdec ent
Ġnuc lear
hell e
ĠSt one
ĠM um
Ġp unch
A ng
Ġr itual
Ġins ane
an o
ĠO ffic
D es
Ġlif ting
Ġle apt
Ġsp ite
r as
ĠBl ue
Ġcre pt
os al
ĠAn ne
Ù ĥ
Ġpro spect
Ġbas ement
Ġexpl ore
ĠF ire
ear ing
Ġl os
Ġrec on
Ġmedic ine
ol as
Ġpan el
Ġsh ots
Ġinc ome
Ġmar ks
ĠJ ill
io let
g ic
Ġh ook
l ishing
ĠA L
Ð ±
Ġaim ed
Ġb old
ĠL ie
p ired
o ving
Ġn erves
ĠPar is
Ġhand ful
ut tered
Ġun b
Ġown ers
Ġra w
ĠAny way
Ġworld s
Ġacknow led
ĠD un
Ġ Ġ
Ġsn orted
Ġattack s
o ard
ĠJack son
a ved
ĠT ed
ĠAmeric ans
ĠTr ans
Ġout l
Ġless ons
4 9
Ġre in
Ġhonest ly
Ġth read
yl an
Ġmethod s
Ġsam ples
ĠL iam
Ġaffect ion
Ø ³
old ing
Ġz omb
ĠProf essor
Ġvalu able
Ġcha os
ĠB oy
ant e
Ġtemper ature
is hes
Ġn est
est ion
Ġqu it
Ġansw ering
Ġinter act
Ġexplos ion
ĠU s
az ed
ens ed
Ġvar iety
Ġro be
ĠTom my
Ġinstruct ed
Ġtrave led
Ġstrate gy
Ġrepe at
ort hern
Ġscient ists
Ġcompan ions
Ġsort s
ĠS U
ĠT am
or age
I F
Å Ĥ
Ġpray ers
c onscious
Ġhalf way
Ġwe b
ĠL ily
Ġover head
Ġpra ise
w r
un a
Ġact ed
Ġcr own
ĠS um
n ment
Ġres ur
ĠB udd
Ġsell ing
Ġb in
Ġcru c
Ġsu gar
Ġbl ocked
Ġto es
Ġhum or
E O
Ġinvol ve
in th
ĠAl an
Ġcand id
g ies
ĠAr thur
T HE
ĠC ON
S ave
Ġcrim inal
Ġtoile t
Ġnight mare
ess a
Ġcre ep
is ation
att oo
ĠK y
Ġsum mon
Ġg own
Ġpul se
ĠB er
Ġg ym
oth y
Ġsh r
Ġlo ver
the less
Ġle ge
M ark
Ġob st
S ha
ĠStep hen
b on
n els
Ġn asty
ĠAb out
Ġsc ru
Ġpers ons
Ġgood ness
P aul
I nd
Ġadj ust
Ġcon qu
Ġt ape
Ġdeb t
G reat
Ġlifet ime
ail ed
Ġd anced
ĠSh ould
Ġs orrow
ĠDrag on
ĠSe ptember
Ġcoo per
Ġheaven s
ĠJere my
ber g
4 8
ke ep
Ġpat ience
ĠS ally
Ġclaim s
Ġe th
Ġr acing
er ation
Ġworth y
Ġvol ume
H el
light s
Ġapp ly
Ġfl ag
Ġbur den
Ġpossess ed
Ġcir cles
ass ed
Ġcompl icated
Ġd ar
Ġexpl oded
ra ined
Ġprep ar
Ġpuzz led
Ġplay ers
G en
ĠTest ament
ĠB ern
Ġrhy thm
it ated
c r
c ut
Ġchan ces
Ġcl ient
p arent
ane ously
Ġimm ort
Ġas ton
av in
Ġass ault
Ġf ancy
Ġr ushing
ac ious
Ġetern ity
a ves
Ġcap acity
Ġtil ted
Ġimpat ient
ãĤ ¦
Ġsp orts
Ġalong side
Ġc ake
Ġexp ressed
ĠFr ance
Ġsex y
Ġment ally
Ġadd ing
Ġbenef its
ĠE M
Ġfle e
ĠT en
Ġey el
t own
Ġ ."
Ġfle et
he art
Ġpiss ed
pr ing
Ġdec ades
Ġl apt
ĠLuc as
Ġsh ove
ĠG OD
Ġval id
ĠA N
Ġprefer red
Ġexper iment
Ġfun eral
Ġfl ed
Ġan cest
Ġcor ners
ĠCon f
Ġcon ven
Ġh ip
ĠA z
L uc
Ġback s
Ġsal t
s ized
Ġ2 9
Ġattempt s
Ġphot ograph
ribut ed
ig er
Ġrequ ires
' '
ĠH a
Ġindust ry
p se
Ġel im
it ar
Ġpray ing
n am
un ction
Ġvers es
Ġinterest s
Ġup wards
ĠMuslim s
ĠMar g
Ġthreat ening
aw are
Ġpound s
el come
Ġredu ced
r ations
Ġb oring
Ġ ×
ĠTy ler
Ġstraight ened
Ġgood s
Ġcle aned
itt y
ĠF re
ĠBe ck
ĠN ight
Ġv ig
ĠZ e
Ġn ud
Ġmy th
ic ians
ip er
Ġconf erence
Ġfaith ful
Ġclo ak
ĠY eah
ĠT ex
Ġmort al
m ate
Ġc ough
at in
Ġdoct ors
Ġaffect ed
ĠS k
Ġsched ule
Ġneg ot
b a
3 2
ind s
Ġpers u
Ġnet work
ĠS ix
Ġveh icles
Ġpo et
Ġobs c
Ġg reed
Ġback pack
Ġsurround ings
G u
Ġtri gger
Ġwis hes
Ġhigh way
Ġ à¦
ĠL ake
Ġmid night
Ġass igned
Ġw ire
Ġg ained
Ġtr ace
Ġenvelop e
a ign
ĠAt t
Ġrec ru
ire ct
Ġgl ancing
B ook
ĠJ ones
Ġsn ake
Ġfe ather
Ġform al
ĠP M
is y
ĠK elly
A K
Ġcontr ast
ĠR E
Ġconst ruction
ĠE nd
Ġch oo
ĠJosh ua
Ġc ate
Ġsword s
Ġt attoo
ĠDe cember
ĠS her
ĠK aren
ĠOct ober
ĠS ab
Ġc age
Ġrec alled
Ġmin s
Al right
Ġdescri ption
Ġsatisf action
Ġoccasion ally
Ġoccup ied
ad en
ĠM ont
C om
Ġmod els
ĠEd ward
ast ian
s a
Ġsitu ations
m ates
I A
Ġintellig ent
Ġg re
is k
Ġincre asing
ĠH E
Ġin cl
ative ly
he nd
ĠC ur
P l
Ġclim bing
Ġcl a
ĠBr own
u ced
ĠJon athan
Ġnod ding
Ġexp and
ĠB ack
Ġsuspic ious
ce ler
Ġstra w
Ġst able
cl ick
Ġaspect s
ĠNe xt
Ġt ense
am ps
ĠAn nie
Ġstro de
Ġnew ly
Ġsla ves
ER S
What ever
P h
Ġsn ar
or al
ult ure
Ġprote in
ce l
Ġtort ure
Ġyell ing
Ġpart ners
ic ity
ĠJam ie
od d
Ġhung er
Ġcross ing
ĠJan uary
Ġp itch
Ġ å
ĠK ay
he ther
With out
Ġkid ding
ĠA ccording
Ġdisg ust
Ġpen et
ĠDe f
Ġindepend ent
Ġtop ic
J ames
ear ch
Ġman kind
Ġri g
Ġtest ing
Ġswim ming
T e
Ġexc iting
Ġun re
ĠW all
Ġlaugh s
ic it
Ġport ion
Ġuns ure
Ġlim bs
l ers
an ny
Ġwhere ver
Ġt as
o ked
ha ra
à® Ł
Ġl az
b ell
al i
Ġpred ict
ĠPat rick
ĠBob by
ast ically
C ould
Ġl obby
ĠS qu
Ġl ux
Ġret ire
Ġrece iving
Ġche ese
Ġhel met
Ġdesp air
Ġf ond
Ġrecomm end
Ġappro val
Int onation
ĠW olf
Ġtre asure
t here
Ġlog ic
Ġconcer ning
Ġhat red
go ing
Ġattempt ing
Ġman e
Ġassist ance
Ġjump ing
or r
ĠFur ther
O V
ĠLe on
Ġback ward
Ġd war
Ġag es
G e
Ġb on
E d
ĠL iz
u ish
Ġ" ...
aught ers
ĠT aylor
ĠSec ret
Ġmob ile
Mic hael
Ġdescend ed
f our
Ġgr ade
Every thing
ĠNove mber
Ġsong s
L isten
5 3
Ġgr anted
Ġbr ick
Ġsil k
Ġang le
ĠC ong
Ġfollow ers
Ġmist akes
ub ble
ĠSam uel
ĠF ed
Ġins ight
Ï ĥ
Ġl ately
Ġvictim s
ĠSt r
in ter
Ġd amp
Ġsmo king
e em
ĠN av
Ġf id
Ġwitness ed
Ġcrow ded
Ġcr ashed
Ġaccompan ied
Ġsub tle
O C
ĠF am
Ġu m
Ġsw itched
Ġed ges
Ġs ore
um ption
Ġdel icate
un ting
Ġpl ates
Ġsn ap
Ġpat ch
ĠF ort
ĠGe org
Ġacknow ledge
Ġground s
Ġcompl ain
Ġmurd ered
p ent
Ġfort une
Ġal oud
Ġrelative ly
Ġlapt op
be at
ject ed
ĠSt ud
ort ing
Ð¾ Ð»
ĠH on
ĠRep ublic
Th ree
Ġar rog
O ut
Ġoverwhel ming
Ġcar riage
Al though
Ġd iet
Ġsu ck
oo ped
Ġcond em
N ew
Ġg ap
Ġform ing
ĠN obody
Ġtherap y
Ġdisc ipl
Ġreason able
iv ia
ĠReb ecca
g ression
Ġst al
Ġr ude
Ġdead ly
Ġpl ot
Ġdest iny
Ø ¹
ĠEv ent
Ġgentle man
ar med
Ġr ational
Ġcomb ined
i ar
Ġvis ual
Ġthigh s
we et
Ġvis iting
Ġgo als
ĠAt l
Ġshat tered
Ġgorge ous
Ġwa king
imp se
ĠS ky
ĠW estern
ĠD i
ĠA k
) )
O k
Ġcomment ed
F uck
un ning
ĠA ri
u zz
? !"
ĠF in
Ġsqu ad
Ġall ows
ĠLa ure
P art
m ind
ĠM Y
Ġh ired
od ing
ĠM ason
un ior
od ge
Ġide al
I P
ĠF all
4 4
Ġd ies
Ġcommand er
Ġbu ying
Ġgl impse
Ġste ep
Ġsha kes
as ant
Ã£ o
Ġle ct
Ġbel oved
im m
ĠIn c
Ġgas p
Ã »
Ġquestion ing
om y
Ġroad s
IC E
H T
r ical
old ed
Ġtest s
ad ise
Ġwin ked
Ġste am
Ġdisapp ointment
ĠM ajor
Ġpract ical
Ġbit s
Ġadult s
ĠL ast
Ġin sect
Ġ201 4
Ġult imate
ot a
ĠComm ander
Ġdetect ive
Ġno ble
ĠJess ica
ĠBl ake
ĠTw enty
b ling
ĠF el
Ġreven ge
Ġgrad ually
ic op
ĠSc ience
ret ched
t op
Ġgu ided
Ġrefer red
Ġg ene
Ġunder ground
Ġtw ins
5 7
Ð° ÑĤ
j i
ĠP ress
ent h
ger y
Ġemploy ees
à §
Ġst orage
Ġpattern s
ar io
Ġl amp
ere r
M ary
Ġchem ical
Ġcha p
Ġab use
## ##
Ġv it
Ġwra p
s alm
Ġup d
Ġbill ion
oun cing
Ġha lt
Ġconf ront
Ġcol on
iqu es
ĠNo ah
ĠH aving
Ġlad der
ĠI ra
Ġpos itions
ĠC ase
ĠIn ter
Ġd iamond
ĠP ower
p ower
Ġover all
ĠFa ith
Ġd agger
Ġrep utation
ĠB E
ĠApp arently
ĠW ood
Ġthan ked
Ġgen etic
Ġ ÏĦ
Ġtyp ical
Ġcamp aign
Ġgr at
Ġwh ilst
ĠHun ter
6 0
ĠM ake
qu ar
sh it
ĠA R
ĠMar ie
l ation
Ġside ways
ad d
Ġad apt
Ġhope fully
Ġpun ched
Ġac celer
se en
Ġfart her
Ġchuck le
ĠO R
Ġfant asy
Ġamaz ed
Ġtrad ition
Ġp ir
per or
Ġgreat ly
ĠS H
Ġro ared
G ive
Ġbelie ves
Ġpr on
ven ant
Ġd un
le g
Ġcl aw
ir k
Ġassist ant
Ġbreath s
ĠAust in
ons ense
ĠH ay
Ġstuff ed
B et
Ġfl in
Ġwebs ite
Dav id
ĠT hings
og ue
it ate
Ġdevelop ing
Ġprom ises
ĠÃ Ĺ
Ġo we
Ġhouse hold
w orld
Ġdes erved
Ġtele phone
ant ha
Ġag gress
ograp hy
ĠCol onel
i at
ĠC ap
t ical
Ġro ots
Ġlay ing
Ġha th
i i
t wo
Ġtw in
Ġsmir ked
Ġprison er
ĠF ive
ou ch
w ill
ru ce
Ġprinc iple
Ġour s
Ġun iversity
Ġsto le
Ġgen es
Ġc ries
Ġfound ation
Ðµ ÑĢ
Ġinter ior
ĠR ow
ain ted
Ġschool s
ĠJul ie
ĠC ra
Ä± n
Ġf er
Ġbu ck
A G
Ġcost s
Ġl atter
Ġinc om
ĠDar win
Ġr att
Ġres erved
ĠE ld
Ġcomm erc
Ġreturn s
Ġdec re
is er
ĠF e
Ġstr ict
Ġdraw er
el ing
Ġmid st
ĠI ran
Ġdiffic ulty
Ġla wn
ĠG ive
B r
Ġpl anted
Ġchan nel
_ "
ĠS and
Ġru in
Ġdut ies
er as
Ġcas ually
Ġbott les
Ġele ven
Ġk il
ard ed
Ġlar gest
Ï Ģ
v iously
Ġswift ly
Ġr ings
Ġside walk
5 6
c ar
Ġgr unted
ace y
Ġref uge
Ġgrin ning
ĠNe ither
J o
Ġsy n
Ã ´
ĠSp ec
Ġy anked
Ġtu gged
Ġsequ ence
Ġprov ides
ĠRog er
Ag ain
Ġmach ines
Ġfl ashing
Ġsur vey
Ġg ru
ĠCath olic
ig ning
Ġmir acle
ic kered
Ġexpl ains
Ġcl aws
ĠAnd re
Ġpolit ics
G l
Ġsh iny
Ġport al
Ġcom ments
Ġconcer ns
ĠTh ink
ha med
st ri
Ġann ounce
ĠSure ly
Ġb un
oo f
Ġtor ment
Ġb ore
Ġtiss ue
lo e
Ġforg iveness
Ġeconom y
m ighty
Ġorig in
opy right
ĠH ill
Ġwhisp ers
z ie
Ġmagaz ine
Ġcle ver
Ġs ession
Ġhol iday
ĠS el
Ġp ity
w ho
Ġint rig
Ġyour selves
Ġtr ash
Ġprinc iples
Ġco ach
Ġdig ging
izz a
Ġsurre nder
udd led
p art
Ġl es
ĠSe a
Ġm ax
af e
ĠDep artment
Ġcompet ition
ish op
Ġimm une
Ġland scape
Ġcreat ive
Ġcapt ure
Ġdel icious
Ġout come
M ag
ĠU N
Ġdiffere nces
Ġreg ist
Ġear ned
Ġac adem
ll e
Ġfur y
ÙĢ ÙĢ
Ġfrust rated
Ġrom antic
Ġmon itor
Ġup ward
Ġc her
Ġconcent ration
ĠC ast
R o
ubb orn
Ġex hib
Ġang rily
Ġprom pt
Ġ201 1
Ġmem or
l aw
C O
Ġro ot
ĠAid en
Ġcontr ary
Ġexchan ged
ĠEurope an
Ġeas ed
iz ations
Ġsac red
ĠS everal
Ġpre m
ĠPr incess
Ġbar rier
ag ues
an ne
av a
ĠVin cent
am ental
rib ute
Ġaccompl ish
Ġterrit ory
itt ee
Ġrighteous ness
Ġd aughters
Ġsmir k
Ġoccasion al
ian e
i very
ĠSte ven
Ġtest ed
Ġam used
U N
Ġpurp oses
Ġlim its
" ...
Ġoff ers
Ġbe am
y ard
ĠR ub
Ġhel icop
Some one
ĠFl or
Ġselect ed
ock s
A B
Ġob ed
ĠC OM
Pe ople
Ġk icking
Ġregard less
en cies
Ġinter net
Ġa we
Ġavo ided
le e
Ġaltern ative
Ġbl owing
Ġrep air
eb ru
Ġsu icide
Ġteam s
es ter
Ġmeet ings
Ġext ract
ra h
Ġstro ked
Ġkid na
Ġsc ree
ad or
ve t
ĠC a
an ie
Ġproceed ed
here nt
Mr s
Ġapolog ize
Ġshar ply
Ġth irst
Ġprov iding
ĠP ur
ĠIsa ac
Ġw anna
The ir
ĠA v
ĠKat ie
Ġgl ances
É Ļ
Ġsl umped
ebru ary
Ġcor n
Ġbr ut
Ġs ang
Ġgener ations
Ġd yn
Ġtick et
e ge
ĠL i
Ġve ins
Ġfree ly
ĠH ist
Ġdis hes
ĠSer geant
oun ge
ĠR et
g iving
m ir
Ġperman ent
Ġopt im
Ġsan ct
Ġsquee ze
ĠP an
em an
Ġbase ball
Ò Ľ
Ġins urance
Ġcha se
rib ly
Ġsignific antly
Ġdra gging
Ġover t
Ġfl icked
Ġconclud ed
as ingly
ĠCha se
ter y
qu is
ut ive
ĠJ esse
Ġbe gged
Ġit em
Ġri bs
Ġm ild
Ġsim pl
Ġdo d
ot y
Ġdi agn
Ġspec ifically
Ġpack age
Ġv ote
o ch
Ġw ishing
Ġst ares
um a
ĠDad dy
c ular
Ġslee ve
ĠD omin
Ġtempor ary
m ade
Ġcrit ic
Ġhe aled
Ġint end
Ġcons umed
ĠEvent ually
ri ve
Ġ ?
ĠDiv ine
Ġdef ined
C ol
Ġshort s
ĠH arr
Ġread er
Ġse vere
Ġexha led
Ġcount ed
Ġper pet
Ġb id
act ly
bo x
Ġrepl ies
Ġd il
Ġcand le
Ġdeg rees
Ġro ar
Ġdemand s
Ã ª
Ġju ice
Ġy ield
Ġadd ressed
U m
Ġspread ing
ĠWith in
s ome
ĠM as
Ġpre y
Ġcere mony
J ul
v ention
Ġh i
Ġer ror
Ġleaders hip
om ic
ĠE N
Ġf iring
Ġcar ing
Ġd ict
Ġham mer
ĠK rist
Ġanticip ation
ĠCan ada
ĠM oon
Ġint ently
Ġilleg al
ĠH u
Ġrecord ed
Ġde eds
Ġke en
S F
Ġcommerc ial
ĠPr ot
Ġrep rodu
r ine
Ġexam ine
b orn
ĠL arry
Ġbreak s
Ġmo aned
Ġmis erable
Ġgra vity
Ġincred ibly
ĠAnt on
ĠR and
Ġtri be
p han
Ġneck l
Ġj et
Ġbus hes
O ver
w h
e z
Ġd ating
Ġab oard
Ġsur ge
Ġpri ests
Ġbo oth
i h
Ġprison ers
Ġobs erve
ĠM et
Ġtra iled
ĠM em
ĠL u
ĠHe art
Ġadj usted
Ġthro b
ip ed
ĠMu hammad
W h
Ġv ital
Ġprof essor
Ġj og
Ġn ails
Ġcl ick
S im
Ġcate g
Ġill ness
ĠGover nment
Ġsubject s
B oth
ãĥ ³
ĠGerman y
Ġpour ing
Ġfeed ing
on ents
Ġag ony
ĠP ho
Ġhelp ful
Ġsp ear
Ġstair case
Ġinf inite
v as
Ġfl owed
e ff
Act ually
Ġtal ent
Ġfrequ ently
Ġimp r
ĠAd d
ĠH or
Ġre velation
Ġshout s
ĠØ ¨
Ġjo ining
Ġru ined
Ġdepth s
Ġst ubborn
Ġdis ag
Ġcott age
ag le
Ġya wn
Ġr amp
Ġavo iding
Ġm ug
Ġbab ies
ĠW H
Ġas hamed
Ġsol ve
so le
ES S
Ġimpress ive
Ġdisplay ed
ĠEd die
ac ter
Ġd at
al ian
Ġsl ipping
Ġconcent rate
Ġmaterial s
Ġst ack
op her
Ġw are
sh ot
Ġguid ance
Ġwin ning
Ġcl icked
az ing
ĠS ay
a way
Ġshe lf
ber ry
Ġphilosop hy
ĠIra q
Ġread ers
ĠD oc
Ġintent ions
T ime
ie ve
Ġsad ly
ĠCass ie
ĠVir gin
Ġf ires
Ġcr ushed
Ġstri king
ĠTex as
ĠJust in
Ġneighb ors
Ġcontrol s
Ġintens ity
Ġb om
en ix
Ġart ist
ur ches
Ġfact or
Ġtall er
i ac
ĠT an
Ġrep ent
B C
Ġm ig
Ġh its
Ġflo ated
H mm
ĠK night
Ġ )
e qu
L uke
Ġbr ows
Ġencoura ged
Ġw izard
Ġchar ges
Ġw olves
Ġri pp
ĠSp an
Ġpart ed
Ġclin ical
Ġb ubb
Ġbas ically
Ġapplic ation
Ġcommun icate
Ġf lex
Ġvulner able
Ġwas ted
t ion
Ã¢ l
Ġaccount s
Ġclass room
Ġb olt
Ġb atter
Ġshe er
Ġexpl aining
Ġfac ility
Ġdifferent ly
Ġinv ent
Ġdev ast
ĠA uthor
ig en
ues day
Ġhesit ation
ĠR oyal
ut y
ĠCon nor
xy gen
xt ure
Ġult imately
Ġm ouse
ĠSc ar
Ġintrodu ce
Ġreal ise
Ġform ation
ĠRo ad
S ar
ult s
Ġprop het
Ġtu be
b age
Ġsh one
ĠM olly
Ġcar ved
in ations
ere nt
Ù Ĥ
Ġj am
Ġd ared
Ġt in
Ġprotect ing
Ġun belie
b ased
ic hes
ter m
ĠV ery
Ġex cess
Ġfre ak
Ġimp lement
ĠAustral ia
ĠL ib
Ġnot icing
p it
Ġconvers ations
ĠEm pire
Ġsh ivered
Ġpot ato
Ġhur ting
Ġsn atched
8 0
r ina
urn ed
Ġsour ces
Ġtal ks
Ġren ew
ak ers
Ġsw inging
Ġswall ow
Ġexha ust
Ï Ĥ
Ġmechan ism
ĠE ver
Ġl ounge
Ġse aled
ro se
Ġsha ped
Ġauthor ities
Ġshudd ered
In st
B en
Ġp hase
im a
Ġst icking
ĠCh ic
clus ive
a wn
Ġfort un
Ã¢ n
Ġrec overed
z er
Ġregard ed
Ġad vert
a a
Ġcustom er
Ġrec ip
Ġstrong ly
Ġca vern
ĠJ ordan
Ġal ter
ĠJapan ese
Ġins ist
Ġopportun ities
a ver
Ġvisit ors
A pp
Ġrev olution
ul ously
Ġimm un
Ġdam aged
Ġwip e
Ġmar ched
ĠAfric an
ha s
ĠH annah
ĠU ntil
C all
Ġt ab
Ġaw oke
Ġobl iv
M any
Ġb ounced
Ġpurcha sed
Ġp ipe
ĠW ere
Ġinc or
G F
Ġwas hing
ha b
av or
ĠSoph ie
Ġsha ft
Ġex ited
y r
Ġkind ness
Ġdeal t
I m
land s
Ġlog ical
Rem ember
ĠC ry
Ġstri p
Ġapp le
Ġsur ve
ĠJohn son
Ġinj ury
Ġpro s
Ġring ing
Ġdeterm ination
ant ically
Ġeight een
ĠI D
Ù °
Ġtum ors
ĠB ell
Ġfulf ill
Ġsim ult
h ony
Ġst ool
Ġout s
Ġsp it
p ress
ĠBar ry
Ġview s
um in
ĠC aleb
Ġcour ty
Ġcam eras
Ġsc ary
Ġbull ets
ĠP ap
Ġal iens
ĠYou ng
and o
ĠM ama
ĠOl iver
Ġpro b
ĠAr m
Ġfl ung
ĠSpan ish
Ġr ows
Ġill usion
ip al
Ġlea f
Ġapp e
Ġscramb led
Ġw o
Ġfur ious
cl ing
Ġachie ved
Ġtast ed
od es
Ġcur tain
ĠS ing
Ġ vel
ĠC re
Ġstir red
ĠRuss ia
resp ond
Ġautom atically
Ġse mi
Ġpat rol
el est
Ġ201 0
Ġdem ocr
ĠZ ach
Ġab und
Ġfact ors
g le
Ġpriv ile
ĠVictor ia
Ġsupport ed
Ġl icked
Ġt ack
Ġelectric ity
Ġbeat en
Ġsu its
Ġsc are
Ġwr ists
Th ough
ĠF er
Ġdis aster
ĠC amp
ĠY ah
ĠD ylan
Ġrepl ace
Ġad or
J im
re r
ĠIntern et
6 7
Ġgl oves
Sh it
Ġnot ion
ĠSec urity
ear l
Ġwere w
Ġw rest
ĠMid dle
Ġmin i
Ġscr atched
ĠB as
ĠHe brew
omed ay
U M
Ġd ucked
Ġf est
Ġdo ck
á ¼
Ġjo int
Ġignor ance
Ġreluct antly
ĠL ance
Ġto ast
Ġde af
Ġstrang ers
ĠAnd y
Ġgr asped
urs day
uf act
Ġwh ipped
Ġpl un
rif ying
t aining
Ġel b
Ġdr um
our se
ĠG ent
Ġdisc overy
ĠK a
Ġn erve
Ġarg ued
Ġc ord
P S
Ġm ice
Ġg n
ĠLie utenant
Ġte ased
Ġstand ards
Ġdoub ted
s en
____ ____
c ony
Ġsc rap
Ġbur nt
ah r
Ġarrest ed
an while
Ðµ Ð»
ĠGr ant
Ġpriv acy
us ement
Ġcl ients
Ġapp ointment
Ġsix ty
Ġbu nd
ĠH ol
ĠF air
Ġnecess arily
Ġpass es
Ġrec over
Ġdoc uments
Ġdra ined
Ġdel ivery
Ġele g
Ġcar go
ir teen
r ot
Ġutter ly
Ġaw esome
Ġm our
Ġsc ore
Ġmain ly
Ġmet ers
Ke ep
ste in
rou p
u pp
ĠM ort
al ie
ĠL ogan
Ġd art
Ġbehavi our
Ġgodd ess
5 9
ĠIs ab
Ġplay s
Ġbeast s
ac c
Ġattract ed
ĠScript ure
it an
Ġbal cony
Ġd arted
ĠF ace
........ ........
ĠInst itute
Ġcha ins
Ġfil th
Ġcaut iously
Ġmat ching
Ġproject s
ĠHe ad
Ġcoun sel
ik es
ar ms
ĠCor inth
pir ation
Ġcor pse
ĠW ater
Ġinclud es
Ġcourty ard
Ġm es
Ġpract ices
Ġun p
Ġthorough ly
Ġslight est
Ġst im
om on
Ġp izza
Ġ201 5
ud es
sh ine
L ord
c use
Ġvac ation
ĠCH APTER
Ġcon greg
Ġdes ired
wor ks
Ġposs ession
Ġlight ing
ĠS ays
Ġdream ing
] .
Ġmagn ific
Ġmin istry
z ens
ĠA st
Ġmon sters
M or
Ġdra ft
Ġcris is
Ġsp ots
Ġair craft
Ġaff air
Ġinv itation
Ġir re
Ġphr ase
Ġrefer ring
Ġne ut
Ġv oid
Ġinvestig ate
ĠOffic er
Ġinev itable
Ġaband on
Ġbright ly
Ġbe aring
Ġtax i
Ġprof ile
Ġz one
ĠC ross
Ġcount less
ĠIntern ational
ĠF BI
Ġpossib ilities
Ġdep os
Ġcl an
Ġv oc
ĠP ut
cha ir
Ġg ospel
Ġdeath s
Ġshall ow
Ġdrag ons
Ġas h
ĠH ome
Ġconsc ience
Ġcha sing
ĠMarg aret
Ġank le
Ġl id
ne cess
Ġep is
Ġg oss
ĠG re
t ail
Ġro d
Ġla unched
Ġimm ense
c up
G r
m ail
Ġhu ff
Ġreal ization
ĠSt u
Ġsl im
Ġch im
Ġass ure
v ol
ha ired
cri ption
ung le
Ġelder ly
i ating
C R
Ġ `
olog ist
Ġjew el
Ġrough ly
Ġsou p
Ġnav ig
ĠM od
ĠAngel a
Ġha b
Ġn ipp
Ġover l
Ġdri pping
Ġco ord
ĠM ia
Ġo xygen
Ġfund amental
ay er
Ġafter wards
st ream
Ġc oc
ĠP D
Ġremar ked
it ching
Ġsad dle
y t
ĠE ither
Ġwand ering
Ġthank ful
ard ens
ere nces
Ġre nd
Ġill ust
y an
Ġcomput ers
Ġelse where
Ðµ ÑĤ
Ġw estern
Ġclut ched
Ġd orm
Ġlet s
ang s
Ġpret ending
Ġpr int
M ax
im ated
ĠJer ry
r ich
w ind
Ġdev ices
Ġg ig
Ġo d
Ġb ust
Ġcurt ains
Ġdiv orce
Ġbless ings
ch ief
Ġple aded
Ġs outhern
Ġstat ue
Ġac id
ĠM ind
w ide
ĠH an
Ġneckl ace
ĠG ary
Ġinv ite
Ġround ed
ĠD erek
Ġs ire
ĠChic ago
ĠA lf
Ġenthusi asm
S E
un ks
is le
Ġl inked
ĠMex ico
ĠMic helle
Ġfl ushed
Ġlege nd
Ġind icate
Ġintim id
Ġ6 0
4 1
m pt
Ġelect ronic
are r
k o
5 5
ĠO d
Ġtown s
f ree
ĠW ed
ond er
ro ad
g ood
Ġ3 1
Ġsa le
Ñ İ
Ġoverwhel med
ĠJo ey
ĠPl us
4 2
Ġp aus
Ġl an
ens ions
Ġsubst ance
Fr ank
ens es
Ġdefin ition
ien cy
et he
Ġtor ch
S ounds
ĠAm ber
ĠAlex ander
Ġmat t
ĠN ate
Ġatt ended
Ġdis gu
Ġen light
ĠF ebruary
Ġfif th
Ġmed ium
Ġc ub
ĠS E
ll ed
Ġt ag
ĠCreat or
ĠPro bably
Ġrequ ested
Ġcu ps
Ġgr ant
Ġcomp ound
Ġaccur ate
Ġinj uries
ĠB on
op ed
Ġoper ations
en cing
ĠD rew
Ġsoft ware
ĠFor ce
-- "
Ġ_____ __
Ġsum m
Ġcontin u
Ġz ero
Ġviol ently
ple x
ost on
Ġcat s
Ġsm ashed
ĠJenn ifer
T w
b id
IL L
Ġcr ashing
t w
Ġel abor
Ġmel ted
Matt hew
Ġr ack
iv a
Ġgl orious
Ġh ollow
ing e
Ġappear ing
ĠMel issa
ild a
i ya
Ã¢ m
ĠSome how
h ttp
or ia
7 0
z ard
Ġmax im
Ġprophe ts
Ġfing ert
C L
ĠA T
ajest y
res a
ul es
Ġprogram s
Ġmo ist
Ġmount ed
ĠPol ice
Ġth ud
if ully
Ġunlike ly
Somet imes
Ġut il
lot te
or ney
c alled
Ġadm ir
i pt
ĠP en
Ġbu cket
Ġdark ened
Ġsandw ich
Ġhand ing
Ġrecogn ition
Ġwealth y
w ord
Ġfe ast
ax y
Ġintellect ual
Â »
Ġg ay
ĠR uth
Ġdiv ided
Ġtrou s
Ġinvest ment
ĠT a
ĠH ot
Ġbr ide
Ġgrab s
ĠK ore
w ater
u ction
Ġdist ing
Ġl ump
Ġcrou ched
Y et
ĠW r
Ġcr ad
Ġgu itar
Ġtarget s
ĠSeb astian
Ġcho ked
Ġaccompl ished
Ġu h
Ġlay er
f ace
Ġcompar ison
4 3
Ġun aware
v able
Ġaccom mod
Ġmoment arily
Ġfin ishing
Ġpatient ly
Ġcut s
Ġhistor ical
ve led
R es
T oo
Ġbl ushed
Ġgro cer
ĠL ead
Ġstro ke
Ġhum ili
Ġhe m
Ġrele vant
u per
el and
ro c
ĠD ick
Ġlim p
ĠCar ter
Ġwind s
v o
Ġwait ress
at i
Ġdown wards
ĠV en
Ġble nd
" )
ort hy
ĠG ra
Ġsw ore
ĠÐ ¶
Ġsuit able
Ġst em
ord on
Ġprotect ive
form ation
Ġbl iss
Ġextra ord
ĠDra ke
s l
Ġman ufact
Ġembarrass ment
ĠMed ical
ip her
Ġwild ly
alk er
ĠColl ege
ĠN az
Sh ould
uck er
Ġprof ound
d ia
Ġinterpret ation
Ġhat ch
Ġsub sequ
Ġcomp rom
ĠFlor ida
ĠM ist
ĠW is
Ġb ills
ĠDet ective
Ġcon j
b et
Ġexam ples
Ġwhe els
Ġsuggest ion
C ha
Ġf ucked
Ġdim ension
Ġgener ous
ĠRe al
Ġbl ades
Ġam usement
Ġdress ing
Ġshru g
Ġhum ble
ĠUn ion
Ġshif ting
Ġno ises
Ġmar ble
Ġt id
ur ry
h ou
ĠTre vor
Ġsol ar
Ġar ray
Ġwr ath
Ġsp y
Ġblank ets
Ġwin ced
ĠL inda
L ove
ĠI re
Ġse ve
h uman
Ġarr ows
AL L
Ġres olve
ĠSl ow
Ġwhisper ing
Ġv ain
ĠL o
Ġcollect ive
r un
Ġbl ocking
Ġtw ist
Ġrepeated ly
Ġbus h
ian o
Dan iel
Ġsuspic ion
Ġsmell s
Ġout fit
Ġprof it
Ġag ric
Ġat op
nes day
Ġden ied
Ġsust ain
Ġst ag
Ġorig inally
Ġmatt ress
Ġwh im
Ġch urches
Ġobs erv
he arted
Ġmane u
U p
Ġf oul
ĠC T
Ġmis ery
Ġse lection
ĠEd ition
Ġdoll ar
as ions
Ġprocess es
Ġcompl ained
Ġr ank
Ġbl own
Ġcommand s
ortun ately
ĠWil son
Ġwip ing
Ġdefe ated
tt ps
5 8
Ġcabin et
Ġd ign
Ġacc us
ĠAb by
Ġcult ural
Ġl in
Ġmi xture
Ġfe e
ic an
Ġtransform ed
Ġmod e
Ġincre asingly
Ġcor respond
ren al
Ġs ipped
ap y
Ġfor k
Ġmake up
ount ered
Ġdepend s
Ġg rie
Ġhe ars
Ġbra ins
ĠBar b
Ġto y
ĠEs pecially
ĠS n
M iss
ĠC R
ĠS pe
9 0
ri l
Ġkn uck
ĠB art
ĠG avin
ĠHe alth
ĠIn side
? !
J on
ĠC L
Ġhop eless
Ġsto red
Ġjo king
cher s
ps on
ij ah
Ġenc ountered
Ġdim in
ĠAl mighty
Ġb unk
M ike
Ġst ained
Ġsh rie
Ġredu ce
D uring
ĠON E
os c
Ġadop ted
Ġmus e
S er
Ġexist ing
Ġdream ed
Ġassign ment
n an
Ġdemonst rated
ĠR ad
h in
Ġpass engers
Ġrec ording
Ġst ake
Ġbutt ons
Ġun necess
Ġpath s
Ġeffect ively
ĠL ater
ĠDan a
Ġsix teen
Ġhelicop ter
Ġdel ay
Ġsp aces
Ġn ative
ual ity
ĠLe o
ĠSc ot
IT H
Î »
Ġalt ar
ĠP ac
Ġlight er
Ġn uts
Ġfr antically
hen s
d ro
ĠN OT
Ù Ĵ
P at
y our
Ġd uck
Ġchallen ges
Ġex ternal
Ġgl oom
Ġeff icient
Ġmat ched
it ect
ĠH ospital
Ġpro ven
Ġco in
ĠT W
Ġun ha
Ġto oth
ony m
Ġp up
Ġdyn am
ĠH ard
ing ton
Ġschol ars
N ice
ĠD iane
Ġwor ries
ic ia
RI F
Ù ģ
Ġwel com
Ġcompre hend
Ġan ch
Ġtight er
Ġbe w
Ġmed itation
Ġprecise ly
as is
ĠI T
ĠRe v
Ġinher it
Any way
Ġdist rict
ĠS oul
ult ural
ĠG ospel
Ġhur ts
Ġstret ching
Ġbelong s
Ġfun ctions
L ooking
g ers
Ġcott on
Ġperfect ion
Ġdest ro
Ġret ired
ĠT aking
Ġbud dy
j ud
ĠDe an
ĠCh loe
Ġflo ors
Ġin ex
am i
Ġimp ul
Ġodd s
Ð¸ Ð½
Ġb ald
Ġjer k
Ġap ost
Ġer a
Ġun its
Ġeff ic
ill ian
est ly
Ġarri ving
Ġext end
Ġt une
Ġpound ed
Ġdirect or
Ġkil omet
l ance
ĠFore st
Ġscr atch
Ġstruct ures
e le
Ġtw isting
Ġtas ks
ist an
Ġb ob
Ġsupp er
Ġcont aining
ĠHe ather
Ġreject ed
Ġobject ive
Ġsurprising ly
h ia
ing ed
Ġind ex
Ġban ks
M ed
Ġsubst ant
Ġho pped
olog ies
Ġn ic
ĠP ers
Ġcl ung
Ġmin ister
Ġcount ing
Ġbi ological
ish ly
Ġround s
as ping
Ġhe ated
Ġbu ff
à¥ į
ĠR iley
Ð¾Ð ´
Ġlic ense
Ġmo lec
Ġse al
ĠMill er
Ġfl our
Ġj ungle
Ġcont ains
Ġunl ocked
ay a
ĠF ound
p ass
ĠT on
Ġso aked
u ild
Ġd ump
iet ies
M S
Ġsam ple
ĠÐ¿ ÑĢ
rel ated
Ġc ure
Ġv ic
ful ness
V ER
Ġb apt
ĠNew s
Ġflu id
Ġmain tained
ĠGr ay
ĠShad ow
R el
ĠR oy
Ġdar ling
Ġdep ression
Ġstreng then
Ġaff airs
Ġme als
ar se
Ġindic ating
Ġne ur
br is
ĠO s
ir ming
Ġb ord
Ġc osm
Ġtrou bled
ut ch
Ġbeha lf
f rom
l ene
Ġware house
he ard
itt ered
Ġk ings
Ġbed s
Ġdetail ed
ĠJul ian
ĠG un
Ġcommit ment
N ext
oo per
Ġsurv iv
ĠT rue
Ġdismiss ed
Ġpre f
S S
ĠH as
Ġapp eal
IS T
ĠV iet
Ġvar i
Ġr ac
ĠB oston
Ġprot ested
c ons
ĠCont ents
t ic
ĠT uesday
Ġk in
Ġproper ties
Ġreg ister
old s
ĠSam antha
ĠIslam ic
Ġgreet ing
ĠT urn
ĠLe g
Ġcelebr ate
Ġcomfort ing
Ġto e
Ġacqu ired
Ġprim itive
Ġorgan ized
Ġbetray ed
Ġstra ined
Ð¸ ÑĤ
Ġworry ing
Ġla unch
K at
U ST
ĠAg ent
ang el
quar ters
Ġshop s
uth ors
ĠRes earch
ĠAd rian
Ġlif est
ĠB al
Ġdiscuss ing
orm al
Ġbar ked
Sh ut
Ġrel atives
Ġfe ver
A F
Ġp y
Ġalt ogether
Ġinst rum
Ġbl ink
ĠUn iverse
Ġneg lect
Ġint imate
Ġw ha
Ġsomet ime
Ġas cend
ĠSt ella
Ġo ak
Ġsc he
Ġeru pted
Ġsec ured
Ġt roll
Ġdig ital
iff erent
ĠIr ish
Ġv om
.' "
ĠIt alian
Ġcirc led
Ġfol k
Ġappro x
ĠInd eed
Ð¾ ÑĢ
ĠS orry
E ric
Ġamb ul
Ġcraw l
ĠAnt hony
Ġno stri
Ġsp illed
ĠSee ing
Ġmeas ured
Ġaccept ing
Ġstore s
Ġsu p
Ġcl am
ĠOl ivia
Ġsole mn
Ò ¯
ak a
Ġre cept
Ġins pired
Ġcontr ad
ĠR aven
ĠI ll
au gh
ĠH ank
ĠL ex
app y
Ġmoon light
ĠChristian ity
ĠJ os
Ġconcent rated
ĠOther s
Ġexpl o
Ġgrow l
ĠCase y
ĠA D
ĠL ew
Ġl ion
ĠK now
D own
ell er
r us
Ġn onsense
ertain ly
Ġpo ll
Ġsh orter
Ġdark er
ard on
Ġsur gery
ere n
Ġbo ats
Ð¾Ð ¼
Ġgl owed
Ġinha bit
Ġdistur bed
Ġoper ating
Ġpart ially
Ġhead ache
IG HT
Ġy er
t i
Ġpoet ry
Ġcorrect ly
Ġass hole
Ġsuggest ing
Ġtear ing
Ġarg uing
Ġwall et
Ġun ion
our ce
ĠMess enger
Ġc ocked
ĠH and
Ġw ives
Ġf ount
Ġeng ines
Ġlast ed
Ġar ched
Ġflood ed
Ġdistur bing
ĠTh ursday
og a
Ġacc used
Ġneat ly
Ġpret ended
ĠMc C
M art
h ire
Ġm art
Ġfather s
ĠCent ral
Ġsimult aneously
J ake
Ġe lf
Ġdoub ts
Ġpolite ly
ĠØ§ ÙĦ
ĠCorinth ians
w hen
Ġfire place
Ġmet ast
Ġsqu inted
ĠP ast
og y
Ġsnar led
Ġcollap se
Ġfl aw
ĠP ub
net ic
ig an
Ġno on
Ġrepres ented
th ren
S ec
Ġmat tered
Ġpay ment
Ġcon sole
Ġgro an
pt ions
Ġsu cc
ĠO pen
Ġt ips
ĠG il
ili pp
Ġregular ly
Ġsh ine
s omet
Ġclut ching
Ġca res
Ġdeliber ately
Ġprop osed
gu ard
Ġj ab
T oday
Ġesc ort
ut ter
oll en
Ġm all
Ġtal es
Ġb en
AR T
Ġapp ointed
r ons
Ġpath way
r d
Ġtrem end
ethe less
Ġaccept able
Ġc attle
ĠTem ple
Ġobs ervation
Ġp ine
ĠE p
ĠTob y
ha i
Ġ icy
Ġc ush
st r
v enty
uss y
ĠW or
Ġle ap
ĠD og
Ġocc asions
Ġcaut ion
Ġper ception
Ġchoo sing
ĠGrand ma
Ġdeb ate
Ġbe gging
Ġwe ary
ane ous
Ġwitness es
Ġdo zens
Ġsp oon
ĠP ier
Ġpow der
Ġ3 5
Ġsuccess fully
ĠDid n
ĠR ich
ra ged
id el
ĠP a
keep er
ien ces
Ġappreci ated
if ies
ĠC her
ĠA va
Ġmon it
Ġs ung
Ex cuse
Ġdistur b
op ing
ĠR us
Ġentertain ment
Ġgaz ing
Ġsho e
Ġroll s
Ġident ical
Ġshe riff
ave ment
Ġneed ing
ĠW ild
Ġpros per
ĠD ream
Ġpo ked
Ġattack ing
ĠL os
ĠL oc
ail ing
Ġghost s
Sar ah
ic ating
Ġm uffled
Ġplan ets
Ġdwar f
Ġclim ate
Ġre ign
Ġwar s
col m
Ġchar m
ver ty
Æ° á»
head ed
Ġharm ony
ĠCl ar
ĠM ass
Ġmagnific ent
D iana
Ġopp onent
ven ue
Ġpo verty
Ġcamp us
Ġinter action
n i
Ġat h
Ġcivil ization
Ġapp et
ap ers
Ġsniff ed
Ġpurs uit
av an
Ġspeak er
Ġf are
ha w
le ts
ĠAl bert
S il
ĠCh ildren
ĠS id
Ġv est
Ġart ific
Ġcou ghed
Ġw ander
Ġcreat es
Ġsp raw
Ġsp ider
Ġde bris
ir th
ol n
or ters
Ġacc ord
O ther
Ġag ency
ac ement
Ġgar bage
ĠO RIF
Ð°Ð ¼
Ġisol ated
Ġam id
au x
Ġsign aling
p her
Ġf ading
ble m
Ġsp ed
Ġstrange ly
Ġt inted
b ot
ĠN ancy
Ġd ick
ĠEx cept
Ġri p
ĠGab e
Ġfingert ips
ĠD ire
Ġmo ck
Ġtrous ers
ĠS C
ĠA mb
ĠSoc iety
Ġcr imes
Ġsu itc
Ġpurs ue
ĠBrand on
Ġaccept ance
ĠC ir
Ġsha pes
ĠAr ch
Ġinqu ired
Ġpar a
d es
0 5
Ġunivers al
Ġvis ions
Ġneed le
Ġdemand ing
un ken
Ġrep orter
Ġgl aring
ĠG rey
Ġimportant ly
ĠDav is
Ġgr umbled
ĠB an
Ġwre ck
Ġfed eral
ĠG host
D ar
Ġpar all
Ġ201 6
iz ar
O b
ack ing
p at
Ġn orthern
Ġb ould
Ã¢ hu
Ġf ade
Ġcr ush
ĠAs ia
Ġtest im
Ġsh uffled
Ġimmort al
in als
Ġj ar
Ġcon vey
ĠMin ister
Ġrob ot
be ing
ĠSy stem
Ġstud io
Ġcol umn
pp ers
Ġw ider
er ate
ĠMe gan
Ch inese
Ġsus p
Ġtrou bles
Ġdep ending
ĠC atherine
G ab
Ġdr ama
Ġgigg le
Ġdistract ion
ple te
Ġexpress ions
ĠA y
L ater
ud dle
ĠM erc
Ġtremb led
Ġacc um
Ġwra pping
C he
ĠNic ole
ĠPark er
ess ed
ĠHim self
ĠRe ally
ĠD amn
Ġmouth s
Ġse w
ac ha
.. ...
Ġde er
Ġran ch
Ġscow led
s al
ot hes
ren ched
IN E
Ġsit es
Ġsc off
H old
Ġlock er
ĠC ard
Ġrem oving
g han
Ġt ipped
ĠI d
Ġfr idge
Ġmult i
Ġmad ness
eth od
Ġgoss ip
l ad
Ġle ans
Ġcr um
ĠF ree
H ER
Ġdepart ure
A ye
C opyright
Ġstick s
less ness
Ġse eds
fortun ate
ĠF al
ĠIn f
Ġwithd raw
Ġf ans
Ġj unk
ĠD own
hip s
Ġd ates
Ġbr ace
Ġwelcom ed
b our
Ġpin ned
Ġper f
Ð¾Ð ³
P R
u ps
Ġd ense
Ġday light
Ġbull shit
Des pite
so ever
ĠL il
Ġfund s
b ag
ĠH ans
Ġstat ements
ĠBe hind
Ġin ward
M ad
Ġsecret ary
ĠT imes
Ġdist ress
ĠB ad
ĠD uke
uff ed
Ġhon our
Ġscient ist
n is
Ġvir us
ap or
Ġthreat s
hem at
Ġw ield
Ġste ering
ION S
Ġstri pped
ĠD er
Ġste aling
Ġur ged
ĠCl ub
ri gg
ĠH IS
Ġscru b
1 00
Ġstag gered
Ġth ief
Ġshel ves
ĠSoph ia
C or
Ġsle nder
Ġdetect ed
Ġen cl
es c
ĠN ich
ĠCol in
e ven
ĠOr der
ou b
Ġs omeday
J ac
uff s
Ġbatt les
Ġleg it
Ġretrie ved
Ġreb ell
Ġob tain
Ġannoy ing
ik o
har m
H a
c ers
im eter
Ġex ceed
Ġpri ze
Ġr am
ĠQur an
Ġbl og
Ġcur ls
C aptain
Ġevery day
ĠC ancer
Ġ ..."
ĠT odd
P L
ĠF ox
ĠD ie
Ġdisappear ing
Ġblur ted
ĠEv an
Ġad renal
Ġsu ite
Ġmist aken
ĠSe ven
ĠHist ory
Ġinter rog
Ġn g
ĠJ in
Ġimpro ved
ĠAl most
ure au
ĠY ear
Ġc ul
Ġbe hold
Ġc ert
Ġwork er
j amin
Ġperson nel
nd ry
Ġcont ribut
ha g
Ġm ath
Ġpre ced
ĠB est
Ġinv asion
Ġdepart ed
und red
T R
ĠSlow ly
Ġe h
ĠH om
ĠC ham
Ġcur ve
Ġgrim aced
ur ation
Ġa ura
er ness
Ġaggress ive
ĠJ our
r ument
Ġscen ario
Ġtempt ed
Ġbr ushing
Ã ±
ĠT ara
Ġgentle men
Ġembr aced
Ġunder t
Ġw igg
ĠB ert
us iness
ag ging
ĠB ruce
AT E
Ġsignific ance
ĠAct ually
Ġs ack
ĠRe velation
Ġ ÑĢ
Ġsp an
ĠAss oci
Ġte asing
Ġsince re
Ġproced ure
P r
R ed
ĠFrancis co
Ð½ Ñĭ
Ġlist ed
ast e
ab ilities
P eter
ir o
ĠD ist
Ġemploy ee
ĠComp any
re ll
w est
Ġsl ap
Ġco venant
Ġdes erted
Ġignor ant
Ġtrans ition
Ġpol ished
Ġabs ent
Ġhar vest
Ġag ed
ĠEl i
Ġmeas ures
Ġconsider ation
Ġco ins
Ġrub ber
Ġdi pl
Ġpr ick
Ġdown town
Ġpr ime
Ġold est
Ġeager ly
Ġfier y
mir al
Ġsw irling
Ġdisc om
Ã¢l Ã¢
Ġsymp athy
Ġp ills
ĠW hether
Ġor b
ĠPhil ip
ang le
ĠG ene
ess ions
Ġcow ard
Ġnostri ls
ĠServ ice
Ġded icated
Ġfant astic
T y
Ġsoot hing
est ic
n ew
Ġtheir s
Ġadv ised
ĠPho enix
ell ow
ten ance
ĠCam eron
w an
Ġrec overy
ins on
Ġflash light
Ġnote book
w a
Ġexperien cing
Ġd umped
Ġwhere as
Ġshut tle
Ġqual ities
v ous
M a
Ġdram atic
Ġfour teen
ol k
Ġambul ance
Ġst ove
Ġpier cing
D ear
Ġmus cular
Ġscrew ed
Ġk ar
Ġd ash
iz zy
ĠSt acy
Ġsc or
ĠSil ver
Ġshot gun
Ġscan ning
Ġheart beat
m l
Ġrelig ions
Ġp ony
Ġcons ist
Ġmechan ical
A meric
n ings
ĠA ut
Ġ3 6
Ø Ń
Ġguarant ee
Ġrev ol
ĠW y
Ġob tained
Ġannoy ance
Ġbe ck
ist a
ĠAny thing
Ġretrie ve
Ġelb ows
un ny
ab led
Ġsuggest s
yl on
Ġal ike
Ġra b
ĠS anta
Ġend ure
r ates
Ġfem in
Ġind ul
Ġout ward
ore n
ĠS up
Ġoff ices
asm ine
ĠSer ies
Ġp aced
ur g
Ġfavour ite
z es
B el
Ġteen ager
Ġveget ables
Ġsun shine
Ġb ubble
Ġcommun ities
ĠJ oy
ĠSp ace
Ġperce ived
ĠRob in
Ġa isle
Ġs inking
Ġsupport ing
ĠR ain
Ġcons ult
Ġtrail er
ĠB ud
S at
Ġwr inkled
Ġp p
Ġwe igh
Ġmeant ime
Ġant ib
Ġn h
ro d
Ġlifest yle
ĠWed nesday
ĠW ind
Ġcand les
Ġun st
Ġwat ches
Ġdem e
Ġin k
Ġd ude
Ġre ct
5 2
Ġslam ming
d ney
Ġ200 9
Ġh ire
Ġthem e
Ġcar c
ĠE mer
Ġpo le
Ġse ctor
Ġadd s
ĠTe chn
ur u
Ã ¨
br idge
Ġrest ra
Ġh ut
ull ing
Ġh ooked
Ġsp here
Ġextraord inary
Ġresul ted
Ġun ple
Ġgen ius
Ġconf ron
ĠF orm
ĠL ay
Ġsl ope
\ --
N ick
ir s
Ġfl ies
Ġexpect ations
F ather
Ġac hed
Ġdef ensive
Ġhe el
ĠAl i
Ġran ks
ĠS in
Ġatt ach
ĠD O
Ġwond ers
Ġm ast
Ġancest ors
Ġdri ll
Ġthe at
un ts
Ġtechn ical
a ired
uck ily
Ġall e
St ay
Ġheaven ly
Ro bert
Ġinst it
Ġprophe cy
Ġtechn iques
ut ic
ĠK al
Ġinst rument
ar ly
Ġac he
M el
uc cess
Ġdra ped
ell ig
Ġune asy
Ġaw aken
Ġs i
Ġinf ant
Ġreass uring
Y ep
Ġp ump
ĠV alley
c at
ĠCong ress
Ġmut ual
Ġdelight ed
ĠE llen
ma res
Ġloyal ty
Ġbother ing
Ġprepar ation
Ġsc re
Ġfl ip
Ġ3 2
Ġresur rection
Ġm ant
Ġun fortunate
Ġbusiness es
Ġbud get
Ġha y
a el
Ġunc ont
er ior
inc oln
H ar
Ġchar ity
Ġprior ity
Ġto x
Ġfe ature
Ġd ashed
ĠMag ic
Ġregist ered
ĠJ ared
Ġter ribly
B N
Ġcolle agues
as tern
Ġre form
P ut
Ġsh red
Ġcur ved
I E
ĠT able
Ġw ink
Ġdecor ated
Ġc av
w orth
ĠJud ge
ĠFam ily
pt ic
Ġrepres ents
Ġsqu at
Ġfail ing
Ġdiscipl ine
Ġlect ure
Ġacknowled ged
ib ilities
Ġint ro
ĠL ana
Ġbl ows
Ġgrat itude
ĠE X
Ġs om
ĠP erson
ĠChar lotte
v iet
H Y
Ġdust y
ĠT ears
ir y
we h
ĠMart ha
Ġf ert
ĠCount y
Ġopp osed
Ġcontin ually
ĠG irl
Ġfight er
ĠFRE E
So on
Ġor phan
ad er
ĠE ight
Ġcomp are
ĠKe ith
Ġcoo ked
Ġcl asped
Ġprom ising
Ġse venty
Ġent ity
Ġproud ly
Ġopin ions
Ġto mb
ha ve
6 6
ĠW ITH
u be
Ġpat hetic
Ġphen omen
os a
ĠSol omon
ĠTr ust
Ñ ķ
Ġ Ñĥ
ĠT urning
Ġr ays
Ġch ips
um m
ĠAnd erson
ad el
Ġfocus ing
Ġbit ing
Ġappro aches
hen sion
Ġlaz y
Ġfood s
H en
Ġsw ollen
Ġr aces
Ġmut ations
Ġrom ance
Ġres umed
Ġgl ist
Ġarch itect
Ġsucceed ed
C am
ĠC A
inc ing
clus ions
ĠI mm
ĠG ordon
ĠIn n
ĠK ings
Ġhy ster
Ġb art
bur g
5 1
b ra
le ton
Ġopen ly
Ġl ane
Ġax e
z el
Ġst if
Ġ8 0
im med
ustom ed
Ġpart ly
ĠA ud
ĠJo an
ĠW at
Ġteaching s
O OD
Ġcelebr ation
Ġtransform ation
Ġarrange ments
op les
ra pe
Ġart icles
ĠShe riff
Ġcoinc idence
ĠM D
Ġdri ves
ĠE lect
Ġfr uits
Ġur gent
U nder
ĠPr ime
am iliar
Ġcontain er
ous es
Î ·
Ġconven ient
Ġmess enger
Ġ7 0
Ġdra in
Ġmod est
Ġun fortunately
ĠPh ill
Ġwide ly
ĠA ge
qu et
do or
th ree
W elcome
r ane
ĠCry stal
l en
Ġsick ness
ĠOff ice
Ġgra vel
Ġcomp osed
Ġresul ting
Ġe rect
Ġperform ing
Ġconsider able
ĠEv a
r ise
Ġcha sed
G ot
ĠCra ig
ĠV iolet
Ġst ance
Ġhy per
Ġcast ing
Ġ æ
ĠEm peror
ĠHal f
bb ie
Ġfe at
ĠT own
ĠG ot
Ġaw hile
Ġemphas is
n h
ect or
ĠU sing
Ġp avement
Ġforb idden
re al
ect ed
Ġpract iced
ĠCor por
ĠW ait
Ġgr ows
ĠE arl
?" _
Ġskin ny
Ġirrit ated
As h
Ġconnect ions
ĠRom ans
ĠB ooks
Ġmar ch
Ġadminist ration
Ġhell o
L ooks
Ġhun ter
E ach
Ġdad dy
u ated
Ġsecret ly
Ġar c
Ġtravell ing
ĠE rin
oc cup
Ġdr unken
Ġtor so
Ġrob es
ĠC are
or ation
Ġman sion
Ġdec ade
Ġ9 0
ĠWilliam s
ĠUS A
gg ie
Ġabsor bed
m un
g ue
Ġatt ain
Ġarg uments
Sur at
m iah
r ary
Ġadm ire
ĠO wen
ĠM ack
Ġsh uff
Ġbelie ver
f ly
ĠE CO
Ġh oll
ount ed
Ġfact ory
B esides
Ġpo ly
ĠM ust
Ġencoura ging
m ble
H ad
d led
Ġsymb ols
ber ly
Ġinv iting
Ġv ivid
Ġh overing
Ġkn ot
ĠTer ry
Ġeld ers
av ier
Ð° Ñģ
Ġmother s
Ġse ized
Ġtim ing
ĠT ina
Ġass uming
se ction
Ġthe ories
Ġp ic
Ġpun ish
Ġe book
Ġdisc on
olute ly
Ġpro d
Ġa uthors
R om
Ġpaper work
Ġremark able
Ġofficial s
Ġepis ode
Ó ©
Ġre ver
ival ent
ĠP op
AR D
Ġ á¼
Ġpen cil
Ġsy nt
áº ¿
Ġunnecess ary
ĠC indy
er i
ĠT ry
Ġex agger
ers ed
Will iam
t or
ĠD ead
um ph
Ġr ice
J osh
Ġinst itution
Ġcorrupt ion
Ġsy mpt
ot ch
all ing
Ġfree zing
ĠWal ter
ĠAc adem
k now
Ġtransl ated
Ġsuper natural
Ġce ased
Ġspr ang
EC T
Ġjo kes
or ous
Ġwhat soever
Ġdiscom fort
Ġattract ion
Ġfl ickered
Ġpe ak
Ġexcited ly
Ġremind s
at us
Ġtri ps
Ġun m
Ġsl ipp
ĠSh ui
Ġartific ial
ĠP ost
F l
sha ped
em et
Ġre ly
Ġint u
ĠI mp
ah l
Ġcler k
Ġfulf illed
Ġpe cul
ĠT ro
cul es
h or
ĠS ister
ĠLew is
Ġn ause
Ġg a
Ġpecul iar
at hed
M ake
Ġ3 3
ĠMed ic
ĠSoc ial
ast ed
Ġser geant
le nd
z o
et e
Ġlarge ly
O B
Ġh overed
ĠC hel
Ġeyel ids
i pper
Ġcorpor ate
v ia
se a
Ġsk et
Ä Ļ
pen s
ĠA ld
Ġstab bed
ĠG ree
ed y
as ma
ĠDire ctor
Ġfem ales
Ġra v
ĠScar let
Ġunple asant
Ġconcept s
Ġres ent
Ï ħ
Ġcons pir
A H
ĠL es
Ġinstinct s
anc he
ound ing
Ġdown ward
Ġoffic ially
ĠS aid
Ġank les
Ġfur r
Ġex asper
Ġab st
ĠH ER
Ġneighb our
C hing
8 7
cri bed
Ġrespect ed
Ġcommun ications
Ġsett ling
Ġpro l
S H
Ġspell s
om i
Ġ4 5
lic ted
Ġà® ª
Ġmo le
AN T
Ġcoll abor
ĠThe o
Ġ ;
Ġrock y
ĠO k
Th rough
ĠCl ay
Ġtremend ous
p res
Ġlong ing
Ġdemonst rate
ĠHe y
ĠR ab
An cient
m aking
Ġlay ers
ĠR al
ES T
Ġsl ice
Ġf oss
Ġsupp l
Ġinha led
Ġknuck les
Ġinit ially
et ing
Ġconc ert
Ġmus ical
Ġra gged
Ġdo ve
Ġcont est
ĠJust ice
Ġhu gging
Ġremind er
Ġ200 8
p ath
Ġabs urd
Ġmo an
Th ink
Ġen force
A nt
Ġliter ature
Ġprinc ipal
ĠBu ild
Ġt ire
Â «
ĠE z
man n
il ton
Ġj umps
Ġobliv ious
Ġb ump
Ġsaf er
Ġcitiz en
Ġb io
ĠOther wise
Ġv ine
_ **
Ġsign als
ĠIs n
Ġpan icked
Ġtruck s
ĠH art
Ġhab its
Ġover night
u ished
un ching
Ġvirt ue
Ġbew ild
Ġp iled
Ġamount s
Ġsweet heart
ibl ical
v als
ion a
Ġgovern ments
Ġconv ention
ss a
mind ed
ul sion
G E
Ð¸ Ð»
C ont
Ġdis rupt
Ġnight mares
ĠDev il
Ġretreat ed
ill ance
Ġatt orney
u ation
st ick
o ft
Ġconst it
ĠM ister
Ġa ching
Ġsc rib
Ġta pping
Qu estion
Ġcharacter istics
r r
ĠBe at
Ġindust rial
r ants
Ġvisit or
act ic
d is
Ġst rolled
Ġso ph
Ġhigh light
Ġec st
Ġneut ral
pl an
I O
ĠAl ways
Ġlux ury
Ġcont rolling
ĠAngel es
Ġbroad cast
Ġ âĢ
Ġiss ued
Ġminim um
Ġw ww
Ġlif eless
Ġres idents
ĠEl ijah
Ġunderw ear
Ġal pha
ig ure
Ġup side
Ġzomb ie
Ġbe amed
Ġkind ly
S P
Ġmain tenance
Ġappro ved
oo led
Ġra iling
p iece
Ġwild erness
on ic
ĠL ear
arch y
ĠSpec ial
Ġb inding
ĠT ru
ĠW omen
ĠJan et
Ġtax es
Ġwrit ers
Ġ ,"
ĠGe off
ĠR oss
az ar
Ġcirc ular
ĠDou g
ĠLy dia
Ġdestro ying
A IN
F eng
Ġcorrect ed
Ġrig id
Ġemotion ally
e very
ĠS ue
Ġsc out
Ġworld ly
ĠS outhern
ĠP L
Ġgal axy
ĠLaure n
Ġsc ars
Ġcl ip
ĠH oll
Ġte ch
Ġth irteen
Ġf itting
ific ations
Ġm ales
Ġd iver
ĠUn less
u v
Ġmurd erer
Ġb ark
Ġb izar
Ġg au
Ġenvironment al
ĠG EO
Ġhesit ate
ĠMess iah
b one
Ġal b
Ġrad iation
ĠSo viet
Ġdrift ing
Ġro cked
IS S
à¤ ¾
Ġlock s
ĠMore over
ĠAm elia
Ġcla pped
Ġpain fully
Ġtransfer red
somet hing
5 4
Ġview ed
ĠF ord
Ġvague ly
ĠM uch
ĠK el
oll owing
Ġcomm ission
Ġimpr ison
Ġsat ell
Ġpr ices
ri ger
Ġ3 7
J an
Ġunha ppy
ĠN ature
R ob
it ivity
Ġtoss ing
Ġling ered
Ġun seen
Ġreluct ant
O O
IT Y
ĠSu pp
ĠPlan et
Ġthe rape
Ġfar mer
Ġtrick s
Ġprop osal
Ġhe ap
Ġv icious
ĠP am
it udes
c led
Ġadv is
ĠSt op
ĠChrist opher
Ġeleg ant
Ġcand y
Ġre verse
Ġdis ob
Ġinstinct ively
Ġsuc king
Ġsha ck
z i
N one
ly ph
ĠT op
ĠU K
ĠF if
Ġint act
ĠÐ ·
Ġelect rical
F our
Ġemploy ed
ag ne
Ġretire ment
Ġter rifying
Ġt ut
p any
Ġhe nce
Ġamaz ement
Ġtr aced
ĠComm and
st ep
ĠC orn
Ġv s
Ġp anc
Ġarrange ment
Ġrel ation
ĠR ather
Ġinst ruction
Ġcraw ling
ĠSm ashwords
Ġspark ling
ĠB ank
Ġpe ering
9 7
Ġd ipped
Ġatt ending
Ġsw am
Ġpaint ings
ĠDem ocr
Ġh olog
ĠYah weh
ĠN E
Ġent it
Ġso cks
Ġdec iding
Ġfell ows
ck er
Ġpr inted
Ġsummon ed
Ġsu ited
Ġg ardens
Ġm and
ial s
Ġgenuine ly
Ġsm ug
Ġvis its
ĠL ar
S ay
Ġg olf
Ġvir gin
ro be
Ġstead ily
Ġcur iously
Ġesc orted
Ġrul ed
9 8
Ġreason ing
Ġpee ked
ĠD est
w hy
Ġmotion less
end y
Ind eed
ĠWis dom
Ġwr ites
U C
Ġph ones
sc ar
ag ine
Ġexp ans
it ating
ĠS aint
ĠL in
Ġtechn ique
Ð½ Ð¾
Ġlas er
Ġcal med
Ġdesper ation
Ġb rew
Ġple ading
Ġele ction
ĠMal colm
Ġsche me
OU R
Ġp ip
Ġrem n
Ġsp ort
ĠFace book
ig o
Ġinsect s
Ġinvol ving
th rough
f ront
Ġb ouncing
Ġread s
Ġà® ī
Ġwait er
ĠGod s
Ġrel ent
ĠN ad
Ġme lt
ĠG riff
orn s
ĠB ull
Ġtestim ony
ĠEll ie
Ġtra ged
M arc
Ġpassion ate
ĠB ow
k ar
Ġn ick
Ġbul k
Ġsupp ress
Ġut tered
Ġfl a
ars on
Ġr ates
ur i
N at
ĠB or
Ġfount ain
ĠF ear
Ġfind ings
Ġfeather s
f old
Ġtre as
Ġfright ening
Pro bably
) _
Ġpe oples
Ġbeha ve
ob b
Ġanticip ated
Ġadm ired
Ã º
ĠÙ Ħ
Ġcongreg ation
Î ¬
ĠMil o
ĠN on
Ġadd ict
b ird
Ġparall el
Ġexhaust ion
Ġsc ur
k ra
Ġsix th
Ġdepend ent
Ġ200 0
ĠL en
Ġreg ain
Ġpar an
ĠPro ject
Ġfight ers
Ġpres ents
Ġelabor ate
Ġchew ed
Is n
All ah
n ame
Ġsh immer
ĠH ind
Ġb er
Ġtw ent
Ġt ended
Ġinstrum ents
ac ent
Ġre jo
Ġorgan izations
Ġwithd rew
R on
ĠStep han
Ġed itor
Ġfilth y
Ġcompl iment
Ġsatisf y
Ġcomp ens
ĠD E
ĠSy dney
ĠÙ Ĭ
Ġdisc har
Ġeng ulf
ĠSup reme
] ,
Ġso ap
ball s
f irst
Ġtri bes
Ġawkward ly
ĠS andy
ĠL incoln
Ġposition ed
Ġlangu ages
Ġsched uled
d id
all ic
Ġha ul
re c
Ġchar ming
Ġhom eless
Ġscen es
ĠF ortunately
d ened
Ġcry st
Ġfarm ers
ned y
ĠR andy
Ġins piration
ĠJen na
ink le
Ġcons erv
Ġbl oom
Ġref riger
ro ve
gr im
Ġbl ush
ĠW es
Ġqu iver
ĠN ed
Ġp acing
ri x
Ġmir acles
st retched
Ġem an
Ġmat ure
Ġdis pl
ĠSt ory
Ġpick s
Ġremind ing
ĠJ a
ik i
Ġh ull
Ġstra in
Ġsha ken
Ġrele asing
J ess
Ġling ering
f aced
AC K
K en
ĠHolly wood
Ġpun ct
parent s
ĠDa wn
us k
p erson
Ġswe eping
e a
o es
al king
IC K
Ġpolit icians
Ġlo vers
Ġcaf Ã©
Ä± r
Ġsmooth ly
Ġcrowd s
ĠL eah
Ġh ttps
Ġchallen ged
Ġloo p
In side
s pring
Ġper sec
Ġhand led
Ð°Ð º
ang ing
Ġcris p
Ġlau ndry
Ġcrim son
L a
ud ed
ĠAm az
Î ¯
Ġstun ning
Ġinnoc ence
Ġf angs
ĠK ind
Ġillum inated
Ġri bb
Ġcont empt
Ġhome work
Ġ3 8
Ġenjoy ment
Ġdisc ern
Ġwor sh
Ġconv iction
ĠRo ber
op er
Ġrequire ments
ak i
Ġdev oted
Ġwh ip
Ġco gn
Ġengage ment
Ġsha lt
Ġtravell ed
Ġto ps
Ġle aped
ĠTim othy
Ð¾Ð ¹
... ?"
Ġswe ep
Ġtrack ing
Ġrecogn ised
ĠAd miral
uc ing
ĠS yl
Ġ201 7
Ġun ison
ĠS now
Ġwas ting
medi ately
ur red
res pect
Ġcop ies
Ġoper ate
Ġint ru
ps es
ĠØ £
Re g
Ġarrog ant
ret ty
Ġscr ut
al ia
Ġmis under
ĠShan e
Ġout line
ĠBen jamin
Ġa ward
hen sive
Ġlan tern
em ed
Ġbl ouse
ĠNav y
g ive
Ġpsych ic
ĠM itch
Ġf uss
Ġev olved
Ġpun ished
ĠMir anda
Ġbizar re
ak ened
Ġc ust
Ġrespons es
Ġloc ate
Ġimm ig
J ason
f ia
ĠK arl
ri ent
ĠT roy
Ġcar n
am on
Ġthought ful
ĠQu inn
Ġbl inking
Ġsend s
Ġpartic les
ĠKn owing
Ar t
F ive
Ġref ers
Ġsun set
bre ak
ĠPe ace
Ġt umbled
Ġsquee zing
b ul
Ġearth ly
ud der
ett a
oc ate
Ġsob bing
b ooks
Ġins ul
Ġstick y
Ġobs erving
ĠU P
Ġexper iments
ra k
Ġha unted
ĠC ub
Ġthrill ed
Ġpuzz le
ĠS ign
izz ie
Ġro cking
ĠAng ie
ĠNe il
qu es
à® £
are tt
ick y
ĠBudd ha
Ġnud ged
Ġbart ender
Ġconv incing
O l
ĠSh ort
Ġpier ced
Ġvirt ually
Ġ ic
or us
lo aded
Ġdiv ision
amb ling
Ġpack ing
Ġtou ches
ĠI van
ĠOb viously
l ah
Ġmar vel
in ction
Ġbr ass
Ġv iv
Ġp iano
ol i
f r
iz a
Ġincl ined
h op
os y
ĠBe ach
Ġacc ustomed
Ġmuse um
om p
ĠM AT
Ġch ip
Ġrum ors
Ġdipl om
Ø £
ĠA na
Ġfrequ ency
ĠW ork
Ġar ts
Ġass ets
ĠG arden
ĠTh ird
Ġconduct ed
Ġo ath
Ġfrag ile
Ġkind a
Ġbu g
Ġvent ure
Ġsurve illance
Ġcl ay
bed ded
Is a
Ġassemb led
ĠB i
es y
Ġrab bit
Ex actly
Ġforget ting
ai ge
Ġg inger
Ġdress es
ĠE nt
Ġà® ®
Ġoccur s
Ġfr antic
Ġmarket ing
Ġconstruct ed
Ġfr amed
han y
ĠT R
Ġdise ases
Ġtw itched
Ġtempt ation
ge on
l ings
Ġchallen ging
Ġsusp ended
f illed
Ġind ign
Ġtun nels
Ġinfect ed
are th
ab y
Ġsl iced
k ers
Ġpast or
N ope
ĠP ass
ĠF ield
ĠJ ade
umb ers
Ġres idence
Ġequ ivalent
g ra
Ġst ages
Ġreg ul
Ġt ide
Ġst ations
C la
Ġpro sec
ry n
hand ed
Inst ead
Ġseem ing
C A
ĠS et
Ġt rop
Ġwar med
Ġref res
Ġpro gression
ĠØ ª
ĠMars hall
Ġflo at
Be ats
ĠM iles
Ġgri pping
ĠVirgin ia
Ġlabor atory
ĠPr inc
ĠCha d
Ġunf amiliar
Ġsne ered
act s
emet ery
ĠG all
Ġro pes
ĠGen esis
ĠPart y
Ġsepar ation
Ġstr ings
B re
Ġprop ortion
st ar
Ġt ires
Ġemploy ment
ĠAsh ley
OU S
Ġh ind
Ġoff ended
Ġad equ
Ġtem ples
_ ?"
Ġtick ets
ĠS aul
Ġpost ed
ĠD u
Ġoppos ition
Ġm ac
Ġfac ilities
Ġhapp ier
Ġexpl ode
Ġinter ven
clud ing
Ġhast ily
Ġun le
Ġguess ing
Ġobey ed
um or
ĠR id
Ġbrut al
Ġsk ipped
Ġcan vas
Ġexam ining
ĠF R
ĠJack ie
Ġhe ed
Ġeas tern
Ġstra nd
Ġcom r
Ġbl unt
ĠHow ard
Ðµ Ñģ
M us
Ġ ze
ri ers
Ġins ult
T im
Ġbar g
Ġprom ote
r ome
Ġsna pping
ĠAcadem y
Ġapprox imately
at hetic
Ġap ology
Ġguard ed
Ġa rose
Ġdep ressed
Ġsmo ot
us ions
ĠTh om
Ġto ys
Ġ3 4
ĠS pr
ob s
hara oh
Ġassess ment
Ġcrum pled
ĠC and
St ep
ill es
Ġnice ly
à® ³
Ġyoung est
ĠAL L
ul u
ĠP ot
Ġsk ies
Ġre un
Ġforg iven
ĠC ad
ĠÎ º
ĠB less
Ġconf ession
Ġfear ful
Ġexpen se
Ġp ussy
int erest
Ġpsych ological
Ġter min
ab ol
Ġm im
ĠC lear
Ge orge
Ġloo s
Î º
Ġorg ans
Ġal tered
Ġcaut ious
Ġled ge
à¦ ¾
Ġblack ness
Ġo ven
m aster
6 8
Ġjo ked
ick ly
ĠBet ty
Ġh uddled
ĠO p
Ġ[ *
Ġemer ge
b ro
Ġco al
u an
Ġover ly
Ġent ers
Ġsal ad
Ġpub l
ab s
ĠI V
ut her
Ġpro pped
ink ling
Ġp ushes
Q U
Ġper ched
Ġref using
Ġpond ered
Ġwh ore
Ġinhabit ants
Ġfortun ate
In ter
Ġage nda
R ep
ĠV ar
Ġgul ped
ĠIt aly
H aving
ĠT rent
Ġmechan isms
Ġw it
Ġfore arm
9 5
Ð ¶
ly mp
wh ite
Ġplun ged
m al
ĠF inn
Ġteen age
Ġse ctions
and al
f ish
Ġdef ine
n ut
Ġcons istent
Ġid ol
Ġstay s
ĠS ant
ur b
Ġconfess ed
Ġess entially
_ ?
Ġstream ing
Ġhal ted
Ġte ens
or ient
ĠF ood
ĠAll en
Ġtri als
Ġdescri bes
ĠBeck y
Ġvessel s
Ġdang ling
st ate
gr at
L ast
Ad am
Ġlun ged
Ġdis cl
Ġpant ing
Ġbright er
ĠUn like
Ġpotato es
ĠP C
ĠPap a
Ġemp ire
ok i
Did n
Ġper mitted
Ġwhist le
Ġcu pped
Ġra pe
M s
Ġreve als
Ġgr an
ĠPh ilipp
Ġesc aping
Ġsc roll
Ġunf air
Ġstar ving
Ġsl it
Ġdoct rine
M other
Ġthought fully
Ġres ort
Ġsevent een
y ers
Ġcolor ful
it ative
ĠE den
Ġdis belie
Le ave
Ġor bit
ĠSU V
d ling
Ġmay or
enn is
Ġris ks
Ġawa iting
ON G
ĠPr om
IV E
Ġtong ues
ĠK r
ĠNat alie
ãĥ §
Ġven ge
Ġperce ive
Ġm os
Ġimag ining
Ġjealous y
Ġ( (
Ġswe ater
D el
Ġdom ain
Ġsign ature
ĠCh uck
Ġout stretched
ĠCarol ine
Ġ200 7
Ġjewel ry
Ġve ter
Ġt ies
Ġdo se
Ġpot entially
Ġadrenal ine
Ġnecess ity
Ġconsequ ence
ĠFurther more
all as
ix ed
Ġstra pped
ac ion
e ight
az a
Ġautom atic
Ġm used
Ġgra in
Ġwind ing
Ġpolic ies
ac ular
Ðµ Ð¼
Ġdom estic
Ġb um
ibl ings
Ġwhis key
Ġt ensed
ĠM i
Ġra ises
ĠV iv
por ary
Ġres olved
ĠK ent
Ġstorm ed
ig ious
Ġtort ured
Ġind ication
Ġhost ile
Ġdec ides
M al
Ġtri b
o or
Ġresc ued
ĠWill ow
ĠDe ep
Ġany time
Ġcandid ate
ĠP ublic
Ġfat ig
Ġhor rified
Ġfro st
Ġassoci ation
Ġst ing
T rue
ĠO x
ĠA lec
ĠB C
at tering
Ġsuitc ase
Ġscre ens
ĠC ooper
Ġaccident ally
Ġtransl ation
im al
ĠG roup
Ġcl inging
Ġcomp artment
ĠBet ter
ĠZe us
Ġkn ives
Ġsc ul
Ġrep ro
Ġsun k
iam ent
Ġembarrass ing
ĠÙ ģ
Ġk it
Ġsha ky
Ġtrust ing
Ġjud ging
H ING
u gged
ad ers
us ive
Ġend e
we ight
Ġcons ol
Ġbru ises
ĠAl pha
0 7
Ġmat hemat
ĠBrit ain
Ġmaxim um
cl ass
ĠF riend
Ġbol ted
× ķ
il ia
Ġresemb led
or ne
Ġg aining
Ġme ad
H oly
Ġw ool
Ġproduc ing
Ġrepe ating
Ġb orr
Ġmet allic
im ental
L ife
Ġtherape utic
Ġ â
ĠCom mission
f are
P P
ĠT ower
Ġass ert
Ġsub d
EL L
Ġinstit utions
ĠEve lyn
ĠK it
ri pp
ĠN eed
Ġflin ched
ut tering
Ġex ped
S pe
Ġrel ate
Ġr ug
Ġinvolve ment
ĠR ap
ĠAny one
ĠÂ ©
ym ph
Ġsens ing
ot o
Ġgas ping
Ġterm inal
ĠEN G
Ġor c
Ġclos es
Ġcertain ty
Ġreact ed
Ġad vers
Ġexp osure
Ġwill ingly
Ġintrodu ction
ĠT ab
ĠNever theless
Ġshad es
Ġath let
Ġreg ions
Ġunc on
Ġlif ts
Ġsurviv ors
Ġne p
ĠO per
Ġdifficult ies
bo ards
Al so
l asses
Ġslee ves
Ġcrim inals
ro id
Ġoff ense
Ġfl ush
Ġprocess ing
Ġf iled
Ġl y
Ġstiff ened
ou ched
Ġso ber
Ġv ice
in ates
ĠMar co
Ġcon ver
ri ving
pen cer
Ġnin ety
act or
Ġprev ented
Ġimpatient ly
Ġbe ams
Ġbl oss
Ġfl ared
Ð°Ð ¹
ĠNik ki
Ġdisg usting
: _
Ġhorn s
Ġd ive
Ġtal ents
J oe
ob al
E r
B ro
Ġremain der
ID E
ou rage
Ġclaim ing
Ġj unior
à§ ĩ
ĠKen nedy
ĠV eg
Ġtable t
Ġvill ages
OW N
Ġdev otion
Ġpe er
Ġassass in
Ġbr isk
Ġres ident
Ġel ves
Ġg uts
Ġacadem ic
ÙĦ Ø§
Ġbe ef
z zy
Ä «
g age
Ġscoff ed
Ġr ises
ĠPro v
á» Ļ
Ġprompt ly
Ġper imeter
ĠRub y
Ġs orce
Ġappreci ation
Ġn an
ĠGod d
ĠP ope
Ġcur b
Ġthr ows
ĠDe bbie
Ġconf using
Ġparticip ate
am ble
ĠGrand pa
0 8
Ġar ise
Ġst ench
ĠMy r
g us
Ġs ie
r ice
st orm
ĠM ajesty
Ġcam ps
ep ed
ad ian
ĠC ru
Ġann ual
Ġre vers
ĠE R
de f
Ġratt led
Ġeight y
Ï Į
Ġcomp osure
an ks
ĠGeorg ia
els on
Ġelect ed
Ġhard ened
h our
Ð¾ ÑĤ
is p
Ġsoft ened
Ġmass es
oc ation
Ġcreep y
Ġare na
ĠK ell
rif ic
Ġgl or
OU ND
Ġa irl
Ġchat ting
Ġstro king
l it
Ñ Ĩ
act ive
rop ri
C han
Ġ9 78
Ġa rou
id ays
Ġaccom pany
C ass
s ix
Ġsil hou
Ġb umped
Ġru ins
Ġo x
it arian
ĠF le
ĠCar rie
ĠB R
Ġcow boy
Ġv ary
ĠB ear
ĠDe velop
Ġg ross
v ard
Ġ200 6
Ġto n
Ġcrack s
Any thing
D ay
Ġcollect ing
Ġsc ope
A ccording
ĠÑ ĩ
Ġuncertain ty
ĠA x
ĠDon ald
Th omas
ĠORIF ICE
ant ine
z il
Ġdis in
Ġjud ged
' ."
c iously
r ace
Ġs iblings
Ġdress er
if ting
Ġwerew olf
ĠL ot
Ġconce aled
s pec
Ġincre ases
Ġpresent ation
Ġdign ity
Ġreg ained
od ies
h ist
ĠG raham
Ġactiv ated
Ġex ter
Ġm ars
Ø ´
Ġth resh
Ġn ail
ric ted
Ã ¬
Ġro ses
Ġcro oked
et een
umb les
ĠR un
arett es
Ġsn ugg
ĠS asha
Ġcar ries
Ġfrequ ent
Ġengine ering
Ġde ed
Ġsway ed
ĠT ree
Ġha ze
Ġra ven
Ġinn ov
Ġre vel
ale nd
ĠBr id
Ġclass ic
ĠSum mer
ĠB ody
ar ming
t an
Ġst y
Ġhe ck
ĠH it
ĠA very
Ġing red
Ġo o
Ġmoment um
Ġcre st
Ġg em
ĠP earl
Ġfight s
U B
Ġstra nds
Ġbab e
Ġre app
or i
Ġchew ing
ĠH old
Ġengine er
ĠTe am
Ġnur ses
Ġmar king
Ġloc ations
Ġtw e
Ġk h
Ġd ated
Ġp out
Ġgr itted
Ġcheck s
ĠSt ation
ĠS L
Ġgo bl
Ġhe y
Ġreact ions
ys on
Ġindic ates
ĠI b
Ġra z
Ġpant ies
Ġimag inary
ĠV e
Un fortunately
Ġfold er
Ġfant as
l ph
com es
Ġkn eeling
os om
Ġsweat y
ĠN Y
fl ies
p ost
b ecause
Ġtraged y
R et
Ġsw irled
g al
± ÙĦ
Ġpro hib
ere na
ott ie
H as
Ġrul er
Ġmas ters
ist ically
ĠU se
Ø °
Ġfr ank
ob e
Ġst ain
Ġuncont roll
b urn
ĠB enn
v it
Ġobed ience
Ġdrown ed
Ġinvol ves
Ġtour ists
Ġfur iously
Ġfac ial
ĠR h
Ġwe ighed
ĠR aj
Ġlo an
Ġexam ination
any a
ĠSt anding
Ġfat al
Ġsh irts
Ġinspect ion
Char lie
Ġint r
ĠUp on
S A
Ġce ase
Ġsw orn
ose x
Hen ry
Ġall eg
Ġmotor cy
ess ert
Ġinit i
Ġfl ashes
Ġcontact s
Ġcour ts
o vers
Ġst acked
Ġtarget ed
ust y
ĠMel anie
on ia
ar ter
Ġsympt oms
ĠN O
Ġstri kes
Ġbru ised
ash ri
ĠO lymp
Ġrespond ing
ist air
Ġri vers
Ġrock et
Ġtang led
ob ile
Ġcompl aining
ĠS ac
Ġtreat ing
Ġback ing
Ġcon grat
Ġmat es
set t
Ġse as
iv ated
ĠRe f
t ra
ĠP ad
ig s
Ġphys ics
l ord
Ġbe ars
Ġher d
AL E
ĠTra vis
Ġcous ins
ĠMar ine
Ġ4 8
Ġrespons ibilities
Ġf ren
Ġve il
Ġwarm ing
Ġencourage ment
Ġblast ed
ĠM ain
ĠC e
l iament
Ġbur y
Ġre ins
uck s
f ight
Ġder ived
ĠJ asper
pr ise
Ġacqu aint
he ld
ĠWar ren
Ġer r
ĠUs ually
ĠB ishop
ke l
b ound
ĠK ey
Ch ris
Ġcle ans
Ġsleep y
Ġsqu ir
Ġstr ay
rest on
al o
Ġj ur
u ate
pr ints
ĠL atin
Ġdat ab
Ġcrack ing
ens us
Ġanx iously
Ġnep hew
Ġmen acing
Ġsubsequ ent
ha ri
Ġsung lasses
Ġfuck in
ĠA ra
Ġex h
ĠL am
7 7
B ill
Ġthrob bing
Ġbelong ings
Ġprim arily
Ġscar ce
Ġblind ing
Ġinter pre
Ġzomb ies
Ġe erie
Ġrelax ing
Ġfr action
Ġp ose
ruct ive
Ġra p
r ational
Ġr ats
K n
o is
Ġman ners
Ġhous ing
Ġinfect ion
Ġgrand parents
Ġth ine
× Ļ
Ġb attered
nect ed
ach t
Ġprol ifer
Ġecho ing
ĠBarb ara
Ġm ush
Ġexpl oring
Ġphenomen on
Ġcou ples
ĠU r
Ġyell s
ĠRus sell
Ġpract icing
J ay
Ġrecon c
ĠB alt
Ġfurr owed
Ġflick ering
Ġrest ore
Ġw itches
Ġbr on
Ġhead quarters
Ġstom ped
d ad
H uh
ĠL E
Ġcont ribute
em on
Ġpre acher
Ġas hes
Ġh orm
ĠP sych
Ġw ary
ĠV eron
ON E
Ġestablish ment
Ġhall s
ĠGu y
im ity
Ġcig arettes
R ic
ass ador
Ġpossess ions
Ġshif ts
D am
Ġhair s
Ġgra ph
Ġsarc astically
Ġmet res
Ġemer ging
Ġprote ins
Ġcount y
Ġguard ian
Ġcan e
Ġra g
ĠÐ½ Ðµ
ĠC as
form ed
Ġl est
R NA
] :
v ironment
Ġhum ming
g reen
6 9
Ġclin ic
Ð¾ Ð½
Ġt ug
Ġbund le
Ġha uled
Ġhero es
Ġvirt ual
h ill
ĠL ow
ĠMay a
Ġperiod s
hys ical
ĠCon nie
U RE
Ġinst alled
Ġsp illing
Ġd izzy
are k
Ġv i
Ġpure ly
ĠT ha
Ġrecomm ended
Ġre cl
Ġro les
col ored
ĠD ur
Ġsigh s
Ġb ind
Ġsa uce
ĠSt and
ĠAp ost
re qu
ĠE astern
ĠWe b
on ly
) **
v ate
oid s
out hed
Ġli king
Ġhonest y
Ġrespect ively
ĠL uckily
Ġh oo
ett le
v ie
-- --
T S
et ers
Ġst amm
ĠG wen
Ġentit led
Ġinc ap
Ġcount ered
Ġi hr
Ġdisapp ro
Ġconfron ted
Ġper plex
em en
Ġtyp ically
Ġthere by
Ġfac il
M P
Ġr ic
Ġread ily
Ġlink s
ĠMount ain
Î ¼
ĠCar men
arc iss
ra ble
Ġphilos oph
ick en
ull en
Ġmagaz ines
Ġpl asma
Ġbe ans
Ġdri vers
ĠSm all
it age
Ġhe d
Ġrest ored
Ġsole ly
ĠA cc
ĠC ivil
ĠD ale
ĠMe g
Mag ic
ĠI II
Ġpic nic
Ġfl uttered
Ġfin est
en ance
Ġext ensive
ruct ure
Ġqu ote
Ġannounce ment
Ġb ount
ĠL iving
Ġto nes
Ġ >
ĠOb ama
Ġunderstand s
Ġpregn ancy
ĠUn iv
ĠMar a
Ġleg is
w all
Ġbr id
Ġd ome
ĠSu z
quis ite
Ġass ay
an qu
ar ia
Ġhat es
Ġreport ing
clud ed
cha l
ĠD isc
O G
ĠSh ow
Ġnewsp apers
ĠNich olas
s pe
S low
ĠHope fully
Ġenhan ced
Ġthresh old
Ġbo ards
Ñĭ Ð½
ĠØ ¹
Ġbom bs
Ġra ging
W ere
w yn
Ġcons isted
iet h
ot er
Ġfort ress
ark er
Ġpost ure
Ġcook ies
T aking
u er
Ġp airs
Ġd ivers
ĠBet ween
ĠJess ie
Ġb a
oy er
Ġen qu
Ġwor m
ĠDon na
N ah
Ġsubstant ial
Ġcat ches
Ġsob bed
ĠJour nal
ht ml
Ġeye ing
Ġcol ony
Ġbl azing
Ġgener ated
Ġcro ps
Ġdist ribution
Ġfet ch
Ġun ity
ĠMar ines
ĠD C
Ġaff irm
ĠV ic
Ġcons ent
Ġm ing
à¯ ĩ
ĠRo om
Ġvill agers
Ġinst all
ĠJud ah
C o
t es
ĠP oint
b ec
d am
iss y
eter ia
Q ur
ĠN ame
Ġexec ution
Ġp aw
ĠP enny
ur able
Ġhope ful
Ġconce al
f unction
T ry
A c
ĠHum ans
Ġhar ness
Ġhun ters
b ury
Ġsevent h
Ġintrig ued
Ġs id
Ġstrate gies
Å Ľ
ab out
Ġcruc ial
Ġprop ag
Ġcar bon
Ġbasket ball
Ġro aring
Ġpass ages
Ġà® ħ
oll o
Ġcol ours
ian na
Ġm ocking
Ġs ly
os ity
ĠR est
ee z
Ġmonit oring
Ġoff spring
ĠCl ass
Ġtruth s
Ġterror ist
Ġmolec ular
ĠC elest
Ġenhan ce
Ġf its
ĠR ol
bs olutely
Ġrece iver
T en
Ġappet ite
Ġst umbling
Ġret orted
Ġb ik
Dad ashri
Ġm age
ĠGold en
ut ing
ath om
Ġsl ides
ĠSha wn
ĠN et
ĠJ ar
Ġloc als
An na
Ġfing ern
Ġinhib ition
Ġmeaning ful
ft en
b at
h im
Ġint ric
de al
reed om
Be ing
ĠMex ican
Ġsight s
Ġsupposed ly
ãĤ ¤
u y
Ġde ploy
ri ved
Ġch ir
Ġcha mbers
Ġs essions
Ø ²
Ġb acon
Ġrest less
Ġrefriger ator
ĠJ ace
ced ed
ĠW alker
l asting
Ġcr ushing
Ġprom otion
Ġdes cent
ir ms
Ġfrown ing
ĠShar on
Ġwe lf
Ġpl ague
Ġfree ze
Ġmist ress
ĠL isten
Ġdest ined
Ġmain taining
Ġgigg ling
S uch
ĠCl int
Ġbal anced
ĠViet nam
ĠTr acy
Ġdemocr acy
Ġcomp onents
Ġbre thren
Ġd essert
Ġper cept
ĠAl icia
Ã¼ n
Ġtun ic
ĠB ren
áº ¡
Ġad ul
Ġresemb lance
r ative
EN D
Ġpar am
Ġp ouch
Ġre j
Ġam pl
Ġpick up
Ġr idge
Ġg room
Ġwelf are
? )
Ġpill ows
ĠAs ian
ĠMy st
Ġl od
Ġtext s
Ġfasc inating
Ġresour ce
C arl
Ġow ed
pher d
ĠTr ump
Ġfresh ly
Sm ashwords
Ġcre eping
J V
ĠJ i
Ġassemb ly
Ġman aging
M A
Ġaw akened
Ġtr ump
Question er
Ġport ra
Ġnovel s
Ġhand ling
Ġt ant
onym ous
Ġle nd
ĠB uck
c hen
Ġdes erves
Ġexper ts
Ġca ressed
Ġst ew
Ġcomm otion
Ġtrans f
Ġpred icted
ĠHar old
i ors
Ġel ite
Ġgrocer y
in ch
8 8
op es
ĠM ade
Ñ ī
ĠA S
Ġclar ity
Ġsc ooped
ĠPac ific
Ġless er
Ġnon etheless
ĠW alt
Ġres id
Ġcomm ittee
Ġaut hen
Ġgas ps
u j
ion e
Ġtri umph
Ġrad ical
M on
ĠHel p
Ġsm acked
Ġback yard
ÐµÐ½ Ð¸
Ġcontin uous
Ġsp ill
ribut es
ĠR OD
Ġres isted
ÑĤ Ð¾
Ġcontact ed
ul s
ĠK ara
Ġser pent
Ġg ust
Ġ( "
An n
Ġc ement
ĠCl ark
Hel p
Ġmot el
Ġne ared
Ġpain s
Ġhand y
it i
Ġr ider
Ġab dom
Ġinv ented
Ġpres um
Ġglob e
Ġover heard
Ġon going
occup ied
Ġd aring
Ġinterf ere
** _
Ġpu ppy
Ġse am
ĠB ang
? ?
ĠG em
Ġsw arm
Ġmess ed
ol ving
o oted
Ġf ib
ĠF at
L ou
O ST
Ġlo ft
Ġnipp les
Ġquick er
Ġscr atching
ĠIm per
Ġcomp elled
Ġdecl are
ĠBro oke
ĠD al
Ġchar ging
p iring
du ct
Ġca ress
Ù ī
ĠG oo
Ġfew er
ĠBab ylon
Ġlear nt
ĠCla ud
or ial
Ġsub mit
Ġser ves
Ġrepresent ative
Ġlack ing
ĠMedic ine
Ġ Ã©
Ġo min
Ġlong ed
Ġchan nels
ĠK er
Ġst er
ad ium
br id
Ġso bs
Ġsl ower
Ø ¬
Ġmot ions
Americ an
ĠR oc
Ġden ial
ĠN ine
Ġri b
st ra
ĠG a
Ġr ural
ĠE rik
ĠFed eral
Ġ ç
ĠB ecca
ner gy
Ġprot ru
Ġcult ures
Ġdim ensions
st ood
ĠCast le
Ġsanct uary
bur st
Ġcaf eteria
ĠStephan ie
ĠL iber
Ġwar rant
Ġbed side
Ġbound aries
Ġreg ards
ĠJere miah
Ġc reek
ĠA le
Ġcondem n
A A
Ġex otic
d i
ĠB L
Ġhyp othes
Ġphotograph s
ĠB all
Ġodd ly
Ġunw illing
ĠFound ation
Ġsa ints
ĠEl ise
Ġshiver ing
Ġmaneu ver
Ġexec uted
GF R
T E
Ġfunction al
Ġcheer ful
Ġl ugg
Ġche ered
ro ph
Ġeduc ated
Ġvac ant
ud ge
ĠAll ison
arr ing
g ot
0 2
b en
Ġ201 8
Ġr otten
Ġthe r
Ġres on
ĠP il
ERS ON
ag ram
Ġdisgu ise
ag raph
Ġarm ies
ric s
ĠPro gram
Ġshrie ked
Ġchamp agne
0 4
Ġcon verted
ĠWh it
Ġco pper
Ġà® ķ
Ġl ining
Ġout rage
N obody
Ġm amm
our ing
ĠAf ghan
ont o
Ġur gency
Ġbell owed
Ġliber ty
ĠEll a
Ġsl ick
Ġkidna pped
Ġjust ify
Ġn u
Ġinc on
B ar
g irl
Ġ ÏĢ
Ġp aces
ĠM andy
ĠProp he
Ġpar adise
Ġinherit ance
Ġtri pped
ĠF uck
Ġearth qu
Ġsun ny
c are
i antly
Ġtri ump
spect or
Ġthumb s
Ġtempor arily
Ġmicro phone
r ition
Ġin ject
Ġre bel
id i
I B
en ment
Ġsol utions
Ġa pr
ĠA venue
Ġforest s
Ġem bedded
l iness
Ġconnect ing
Bet ter
P D
Ġall ies
Ġelim inate
Ġexpand ed
m at
act ed
ĠD ante
Ġrecogn ise
Ġmark ets
Ġsk ip
Ġsla very
oub ted
Ne ither
ĠB IO
Ġswe ating
Ġorg asm
Ġhe ir
Ġcons ume
Ġlugg age
Ġst roll
Ġmir ac
Ġha mm
Ġident ification
Ġest imated
Ð°Ð ·
em ploy
iz er
Ġdr one
Ġun sett
Ġsc al
g ence
Ġfl ock
Ġreflect ing
Ġsurvey ed
Ġview ing
re nd
empt ion
ĠT it
U D
Ġpar ad
ĠEd uc
Ġmotiv ation
Ġd ub
Ġs ized
ĠG ina
Ġadd iction
Ġatt ent
Ġbuzz ing
Ġsp ont
ant ing
Ġmeet s
ĠK atherine
h ot
ĠL ane
ĠN ev
Ġempt ied
0 9
Ġincor por
Ġexp osing
ĠÎ ¼
Ġg ender
am as
Ġpo em
oo ping
ty pe
Ġplan es
Ġsc ales
Ġp iles
Ġstamm ered
Ġlim b
net te
ĠMor ris
Ġhe aved
ĠIre land
Ġdiss ip
Ġwater fall
Ġbatter y
ĠG erm
Ġth ie
ĠAndre a
Ġve nd
Ġapp rent
Ġprom inent
ĠCarl os
ĠT rib
ĠShe ll
V al
Ġperf ume
Ġf oyer
Ġgr unt
Ġcl ues
ĠW endy
Ðµ Ð´
ich t
aw a
Ġpres erve
Ġwh irl
or an
Ġang uish
Ġenv y
Ġstra p
Ġc able
Ġsk illed
ĠD ub
Ġdel ic
Ġloc king
Ġco b
ĠIsa iah
Ġspect acular
ĠTh irty
Ġlaw yers
Ġmud dy
Ð°Ð ´
Ġag on
ĠCal vin
d ream
Ġprom pted
ĠL A
Ġsecond ary
Ġdisag ree
I K
ĠL ena
Ġexc uses
( (
ĠB ri
Ġexpen ses
Ġrese arc
ĠSte f
Ġplay fully
Ġtravel s
ĠBr idge
ĠP haraoh
ĠA I
ĠTh ought
m ill
ĠH ug
áº ¥
l ines
op t
Ġorgan ic
ĠBo ard
Ste ve
ĠL ab
ress ive
Ġstrong est
Ġjaw s
Ġc rop
ĠJu an
Ġneare r
Ġle ague
Ġpat io
Ġchat ter
Ġblur red
ĠAmaz on
itc her
7 5
ro st
ĠH aven
Ġvol can
Ġarri ves
Ġsurv iving
ĠI l
Ġcough ing
Ġc ad
Ġunder lying
S everal
Ġmess y
K ing
Ġdeme anor
M en
Ġsl ack
ĠJo el
Ġp orn
Ġpoor ly
M E
l ook
Ġc ope
Ġp ent
Ġen able
Ġburn s
Ġstr ide
unt ary
ull ah
Ġshield s
Ġr im
Ġstir ring
C al
U ntil
Ġgradu ated
ĠV is
Ġport ray
With in
O pen
Ġwe ed
Ðµ Ð¹
ĠO rig
Ġadvent ures
Ġj ury
H al
ĠA ly
ĠB apt
Ġor n
Ġpe ek
ĠÙ Ĩ
Ġmurd ers
J e
c al
A w
ĠD om
an ity
ĠRe x
Ñģ Ñı
Ġl am
ĠBe yond
Ġcru de
Ġadop t
Ġdis gr
Ġ3 9
e ur
ĠK end
ĠB ella
Ġpron ounced
ĠCor ps
Dan ny
Ġirrit ation
Ġtr ading
Ġcountry side
C omm
Ġdiv ide
Ø§ ÙĨ
re ne
Ġbond s
Ġpred ic
y on
g on
Ġgle aming
ĠBe aut
il ation
Ġcho king
Ġsup reme
ld om
S us
ac co
Ġsh udder
G reek
Ġchap ters
Ġc emetery
Ġri pping
epend ent
ĠGer ald
v ah
Ġst ark
Ġproced ures
Ġy el
Ġu mb
ĠV ill
ĠRal ph
Ġperman ently
le m
Ġli ver
ĠN an
ĠM all
Ġpre aching
Ġinter jected
Ġske pt
it als
im er
Ġsoc ieties
ĠãĤ ·
ĠEle anor
onel iness
ow ered
Ġcir cling
ĠDomin ic
Ġf itted
ond a
Ġins ign
oubted ly
Ġdisg usted
Ġris en
6 5
Ġ200 5
Ġur ban
Ġam bit
b in
Ġgradu ate
Ġbr aced
g il
it tering
ĠMe anwhile
ber y
Ġtra its
ĠGuard ian
Ġinev it
Ġnur sing
ĠT ogether
Ġbl amed
f ound
ĠM A
Ð°Ð ²
Ġde als
Ġweak ly
Ġteen agers
ĠP HY
Ġfold ing
ĠAm ong
Ġc ue
ĠHot el
à¤ °
ĠD iana
Ġpo king
Ġse ct
Ġsw ell
itc hell
at ha
ĠCol umb
ĠA B
Ġmole cules
Ġext ending
Ġm ol
ĠMad ison
Ġhun ched
N umber
in ner
Ġlie utenant
ĠDam ien
ĠPar adise
ol ine
ĠCl are
Ġv ag
Ġmat ches
Ġind uced
Ġwel coming
ĠVal ent
Ġjust ified
gl as
Ġspar ks
Ġwarm ly
or gan
ĠT her
se ven
Ġvel vet
Ġ4 2
Ġcap s
Ġsuspic iously
Ġf umbled
H ope
ĠR ac
Ġsett lement
Ġag itated
Ġ q
Ġcapt ive
Ġpost s
ĠSt art
Ġcur ly
Ġimpl ications
Ġha w
ĠK ai
olog ists
Ġtra iling
ĠLuc ifer
et ically
ĠIn vest
Ġhum ility
Ġscow l
Ġwe eping
ĠG ate
um bed
Ġlin en
" '
Ġre he
Ġte x
Ġle mon
Ġuniform s
ĠDev on
c or
Ġmot ive
ĠB usiness
ĠR an
! )
Ġ5 00
Ġhurried ly
ĠRen ee
Ġfemin ine
G rand
d an
Ġst umble
ĠM ah
Ġunb ear
Ġsl owing
ke ys
Ġarm our
Ġfasc inated
Ġthe ater
Ġbu cks
Ġsub conscious
Ġprivile ge
6 2
Ġrenew ed
Ġrel iable
Ġlower ing
ic us
ĠSh it
Ġdraw s
' ?"
Ġhon ored
ĠWho ever
Ġst ressed
ĠS O
Ġsol ved
Ġa qu
E vent
alend ar
ĠT ess
Ġwe pt
ĠJ asmine
for ced
Ġh ier
R ead
S ix
Ġj agged
Ġtour ist
Ġri val
Ġcush ion
Ġli ar
Ġwa x
ĠSt ay
Ġcomfort ably
pe ople
Ġkn eel
ĠShe ila
oc ated
Ġener gies
Ġdis order
Ġpolic eman
ĠDa isy
c ia
ig ion
ĠLead er
F F
Ġo un
Ġsav age
ĠAr k
Ġb orrow
Ġpot ent
ust ered
Ġcons umption
Ġbast ards
ĠCol or
ud i
ment ed
Ġgo ver
Ġt ents
Ġmus ter
he ast
Ġcalcul ated
Ġcooper ation
Ġfid get
ĠCre ation
ĠS pencer
ĠH ence
ĠL izzie
Ġend ured
Ã¼ r
Ġvent ured
Ġm it
Ġpen is
ĠGet ting
Ġst ung
r ange
Ġbit es
ov an
ear ly
Ġexp ose
Ġwh irled
Ġstream s
ĠT all
ĠK ath
Ġgovern or
c ond
ĠC IA
Ġcon clusions
ĠTur k
Ġp itched
ĠO scar
Ġsp lend
ĠFrank lin
m el
at ches
ĠG us
Ġoff ensive
Ġvis ibly
ens ively
Ġter rain
Ġquant um
Ġl acked
Ġus er
uff y
Ġg aping
Ġgig antic
bl ack
Sim on
Ġs ipping
ĠS em
Ġgo at
um my
ov a
Ġb ully
Ġmon key
Ġins ides
ĠP and
ĠOr gan
l ength
Ġenforce ment
AN G
ĠH o
ut t
Ġprost ate
Ġtow ers
ĠH ou
ĠÑ į
Ric hard
r ust
Ġbo il
Ġlab el
Ġfl att
ĠD im
aul ted
g ments
ĠÐ µ
Ġinhib itor
Ġinher ited
L D
Ġbang ing
Ġinc ons
Ġsn akes
ĠConst itution
Ġacqu ire
P T
st op
6 1
ĠT at
Ġcool er
oty pe
S y
ke e
Ġ_ '
Ġart if
, ...
ĠHarr is
Ġisland s
Ġvolunte er
Ġste aming
Ġspl ashed
Ġconfirm ation
Ġreck on
ĠKore a
Ġto ns
Ġn aught
Ġpaus es
ĠP aige
Ġref lex
Ġse m
iam i
Ġseve rely
Ġb ureau
ru p
Ġsens itivity
ĠAct s
Ġvig or
ou st
le vel
Ġdisc arded
Ġsatell ite
ĠL ucky
Ġpu pp
Ġsmall est
Ġdis d
oo s
Ġtan ks
il ight
Ġfre aking
Ġwe ars
Ġfr act
Ġspr inted
nd an
ĠComm ittee
Ġscar f
Ġemer ald
Ġtow ering
ĠSp ain
0 3
Ġso da
ĠAl istair
ig m
ĠR oll
Ġregret ted
Ġmiss ions
Ġabst ract
Ġhuff ed
Ò ĵ
Ġcontrad ict
Ġdrown ing
ust in
ĠGover nor
Ġcas c
Ġmon st
ĠHar per
Ġg oose
ĠLe vi
d og
pl ing
Ġvac u
un s
ul ars
Ä ħ
T er
Ġfer oc
Ð¸ Ð¼
Ġcommon ly
T ra
Ġre nder
ĠN ations
Ġexec utive
Ġlow est
Ġintegr ity
Ġrespect ive
ĠHel ena
Ġappro ve
Ġin herent
Ġres ign
Ġbo iling
Ġto pp
ĠAnton io
Ġheav ier
ĠBra zil
Ġ199 0
Ġrebell ion
Î ³
áº £
Ġver tical
Ġraz or
ol an
Ġsupp ressed
Ġward robe
Ġliqu or
Ġbre ed
Ġrem orse
ĠRe view
ĠÃ ł
ing es
Ġst ink
Ġforward s
Ġmed ication
Ġbattle field
Ġband s
c re
Ġmet aph
Ġmor ality
ol is
Ġassoci ate
Ġcor rel
Ġdang ers
Ġbol ts
Ġpir ate
Ġfra gr
Ġcandid ates
Ġhol idays
ĠE ss
Ġta vern
P E
ĠTH AT
R ose
Ġthere of
ĠN umber
Ġsho ving
Ġvenge ance
Ġpur sed
ĠIn s
ĠS ho
Ġevolution ary
Ġl icking
Ġaim ing
Ġpo pping
Ġres igned
Ġinc idents
ant h
Ġelect ron
ĠL ind
Ġgl ove
Ġsuspic ions
Ġ è
Ġpre ach
ĠSo fia
Ġstair well
Ġbetray al
P C
Ġcl uster
Who a
Ġ198 0
Event ually
be it
ĠRick y
Ġcosm ic
Ġast ron
ĠG R
Ġch unk
ch ildren
ĠC ode
Ġadj acent
Ġrest rict
Ġreject ion
ĠLyn ne
Ġl ace
Ġaston ished
ĠCarol ina
ĠDun can
Ġst ability
ĠE in
Ġtact ics
ĠBab y
Ġtend ency
Ġdial ed
Ġknight s
Ġg ren
Ġv ile
Ġpl ed
Ġkey board
ale y
ĠWin ston
En ough
Ġun ic
ĠB ed
Ġscript ure
od us
Ġrum m
ĠH ig
Ġover d
pl ain
Ġp all
ĠB oss
ath on
R achel
ĠJ ude
Ġper mit
ĠZ ack
ll ie
l ena
al ysis
ĠBro ok
ĠWay ne
Ġabund ance
Ġdram atically
ĠS pring
Ġun in
Ġpre jud
ĠS weet
ĠZ o
Ġmes mer
Ġrev ised
Ġtra itor
Ġtr ance
Ang el
ach i
res ist
Ġin put
Ġgu iding
Ġten nis
Ġrul ing
Ġtr anqu
Ġdesign s
Ġp harm
ĠB attle
Ġpr one
Ġpass port
Ġp end
Ġhel m
Ġinf ilt
ĠAng els
Ġcup board
ir i
age ment
Ġte aches
ĠV i
n est
Ġver ge
C ons
ĠK o
ãģ Ħ
ĠDan i
Ġtrad itions
ĠLaur ie
Ò £
Ġsa iling
Ġcorrid ors
c Ã©
Ġdoub led
Ġ âĢ¢
Ġfool s
Jac ob
x x
c overed
he el
ĠY an
Ġstrict ly
Ġw ry
ist icated
vis or
ĠF ind
ĠNat asha
p ion
Ġawa ited
Ġwo ken
Ġfo x
ĠF A
Ġupd ate
C D
Ġstart ling
Ġrid ers
B rian
Ġsa iled
Ġinto x
ĠRe id
ask a
Ġvers us
lyn n
Ġbend ing
ĠRober ts
Ġpublic ation
Ġover s
c ause
ol o
ak able
Ġ' '
Ġkill s
Ġworth less
Ġpro x
Ġde emed
Ġelev ated
us cript
ĠI ce
Ġcon vert
w ick
Ġb anged
Ġh ushed
ĠAs k
ãģ Ĩ
reat ed
ĠS andra
ĠN ora
ĠY a
Ġsl aughter
ĠS ex
Ġcoff in
ĠM ich
ĠP ra
ĠCol t
Ġdescri bing
Ġdecl ine
E v
ĠC O
Ġtre acher
in is
Ġaud ible
Ġcan s
B ig
Ġ ÒĽ
Ġa h
ĠW atch
Sec ond
Ġsa ith
ĠJo han
ĠBe ast
ĠØ ±
ĠVeg as
pt on
Ġpe eled
Ġv ines
Ġcirc uit
ĠD ennis
Ġaston ishment
Ġhard est
Ġsway ing
Ġstat ues
ĠPal ace
ĠM AN
p hant
Ġimprove ment
ĠChan ge
em a
Ġclub s
app ropri
Ġep it
Ġmar ching
ĠJon ah
W atch
Ġd itch
row th
Ġl amps
ĠH ur
Ġtru d
Ġdef inite
ĠWin ter
ĠEx per
Ġcur sing
v ial
Ġr uth
Ġequ ipped
Ġfill s
Ġstat ic
Ġf ame
" âĢĶ
Ġver bal
Ġdread ful
ĠPhill ip
ĠHE AD
l on
Ġh ilt
Ġcustom s
ĠTom orrow
ri ot
Ġup coming
act ory
Ġsuper st
ĠCo ast
ve red
Ġsandw iches
Ġped est
L C
ĠEvery body
Ġcust ody
Ġb isc
Ġgl oss
Ġa le
Ġdis l
er ies
Ġdist ributed
P ar
ĠÙ ±ÙĦ
ĠLaw rence
Ġh ob
Ġgest uring
ĠGu ide
Ġviv o
Ġ200 4
Ġbill ions
Ġspec im
ĠJ unior
al ty
ad os
6 3
×ķ ×
Ġcr inged
sh ield
G reg
ĠWhen ever
Ġcour ses
Ġreg ime
Ġbo om
Ġkn ob
w l
Ġtrem ble
Ġm aze
Ġthirst y
am ous
ĠRos ie
Ġsuggest ions
Ġreward ed
is ure
ĠP enn
isf ied
á ¿
K ate
Ġcan cers
T hings
Ġfare well
ĠAb u
Ġ200 3
Ġcl amped
ĠHe ctor
Ġmult itude
Ġpro long
Ġspeak ers
Ġgle e
Ġar oma
ro vers
Ġnot ices
Ġmis chie
Ġdeep est
Ġsl ung
it ious
oo oo
ĠF itz
l ated
Ġsh ocking
Ġmil it
ĠGent iles
A my
Ġremem bers
Ġpath ways
Ġt ed
Ġb acter
bo at
ĠI ris
Ġobs er
op ard
ist ence
Ġgr asping
J ane
on er
Ġst ere
Ġadmir ation
ri or
Ġburst ing
is ons
ix on
ĠCha nd
ĠSad ie
a ire
Ġc yl
v ar
ĠG iven
Ġminim al
Ġcommand ing
ĠD allas
Ġfl ir
ĠChel sea
Ġvig il
ĠGriff in
oc us
ans as
Ġcalm ing
Ġconqu er
ĠS ter
Ġass umption
Ġbrief case
Ġm ound
ĠE xt
ren cy
El izabeth
Ð¾ Ñģ
h ift
Ġcur ves
ĠHen ri
Ġnap kin
Ġn ib
Ġobed ient
ill er
ÙĪ Ø§
Ġcivil ian
Ġsens ible
Ġblind ed
ĠJ ob
ail able
anc ers
Ġdi ary
Ġemploy er
Ġsp ared
ĠI ng
Ġbad ge
Ġsymp athetic
ab el
ĠStan ley
CT ION
ĠAustral ian
Ġtr am
Ġsarc asm
Ġred eem
ang ular
Ġthreat en
Î Ń
Ġtarget ing
Ġsla pping
n ormal
Ġdri pped
Ġphot ograp
Ġfund ing
r ast
Ġir rational
ĠZ en
Ġpar ade
Ġglad ly
Ġprolifer ation
Ġol ive
Ġgl im
l ove
ĠP ent
Ġesc al
Ġyawn ed
o pped
Ġde ception
Ġl oneliness
ĠI L
Ġbar r
P re
Ġbelong ing
Ġdef ence
Ġpack s
Ġfound ed
Ġin sec
Ġlimit ations
ud y
Ġart ists
T ING
Ġab ack
Ã© s
ard less
Ġrespond s
Ġrecru it
h igh
ĠB ush
Ġc ant
ower ing
as ters
Ġtiss ues
Ġto b
unt arily
ft ed
ĠSecret ary
Ġshut ting
Ġpin ched
ur ious
5 00
Ġfoss il
Ġbr im
Ġpro claim
Th us
Ġsitu ated
Ġas c
Ġspir al
ĠL as
Ġtom ato
ĠC old
Ġempt iness
ĠK am
te enth
ĠPast or
8 9
qu in
Rom ans
p m
Ġw ob
ĠIn spector
Ġher itage
ĠSt ra
ĠK l
Ġdiv isible
ost ic
Ġpl um
Ġbuzz ed
ĠØ ¯
Ġid i
Ġcateg ory
Ġlegit imate
Ġnur t
S it
ĠV amp
Ġover looking
Ġboo st
ĠE ff
AC E
Med ia
ĠD ig
ĠP ERSON
it ory
Ġca ves
d ri
Ġtast es
uz zy
A ren
Ġsw irl
J ere
ĠM ik
ĠGodd ess
Ġpl ac
os aur
Ġsin ister
Ġcost ume
Ġto ll
ĠL ess
ĠF eeling
Ġ200 1
ĠM oo
ph ones
ĠF E
Ġtrans mitted
ĠM iami
pt ure
Ġac ute
Ġwin ner
han g
à¯ Ĩ
bl ood
ĠO t
Ġqual ified
Ġpoint less
Ġinflu enced
Ġliber al
Ġdil ig
ĠM P
Ġed ition
Ġ197 0
Ġsub t
Ãª n
M er
Ġinter vention
ĠSc ient
onscious ness
Ġdomin ated
Ġcan n
Ġrob ots
Ġover fl
ĠRev olution
ie lle
ĠV ince
ÑģÑĤ Ð²
Ġha ste
Ġdiv or
Ġsing ular
Ġflick er
Ġm aps
R ay
he ro
Ġtit les
w oman
Ġwhe at
g od
Ġrad ar
ok o
Ġbeaut ifully
Ġse ldom
Ġp el
ĠP ay
og ene
Ġun not
Ġus ers
Ġbould er
Ġc ripp
Ġc ove
or ical
Ġrum ble
ĠCont rol
... _
ÙĪ ÙĨ
ĠD ee
Ġlo ading
ĠCom mon
Ġspeech less
Ġd ru
Ġtrans parent
ĠS ource
er ick
ĠSt orm
Ġbu gs
Ġactiv ation
Ġcompl aint
Ġapp ar
so ld
m aid
Ġtra gic
Ġcomprom ise
Ġdwell ing
Ġdisd ain
Ġjudge ment
Ġnever theless
Ġman ual
Ġrequ ests
Ġsmell ing
ĠJ ed
Ġcontem porary
ĠEv olution
Ġapolog ized
Ġsacrif ices
are st
Ġfut ile
Ġrestaur ants
ĠT et
Ġdes ol
Ġdo omed
Ġman uscript
à® ¨
Ġw ag
um ns
Ġcondem ned
Ġstal ked
Ġpup ils
Ġover se
Al most
Ġj ol
ĠCan adian
Ġper t
Bl ood
Ġsn uck
Ġmut ation
Ġanch or
B M
ĠC urt
oy d
Ġsand y
Ġabsor b
Ġgr ins
cer ity
Ġex ting
o ks
Ġret ail
ĠCl iff
Ġpsych iat
ĠHit ler
ri et
Ġtro op
Ġboard ed
ĠSen ator
j an
as ia
Ġcar avan
ä ¸
Ġcan opy
ĠPer fect
Ġse asons
Ġhand c
S l
!" _
Ġmanip ulate
Ġ Å
Ġentertain ing
es ar
ellig ence
nd ered
Ġtra uma
Ġsne er
Ġuncomfort ably
ard o
Ġdism ay
Ġext ension
F ar
Ġparticip ants
Ġcha l
Ġworld wide
Ġex quisite
Ġod or
L ong
Ġwheel chair
ĠLe ave
Ġdesign er
Ġwait s
Ġbe ats
Ġch ores
Ġsha res
Ġmark er
Ġstrugg les
% )
Ġz oom
Ġtri o
Ġh ord
Ġl amb
ĠMay or
ĠVeron ica
l ist
Ġcr iter
w ould
ĠBry ce
Ġpy ram
Ġagric ultural
AT ED
Ġreass ured
Ġde gr
Ġsw ive
Ġrec oll
Ġtre nd
ĠSe attle
ir able
con f
Ġfor s
as ive
Ġatt ributes
ĠH az
ĠS OM
Ġr umbled
ĠPri est
Ġact or
Ġpr ow
rodu ction
ĠL ion
Ġexpress ing
Ġf erv
Ġimpul se
per ing
Ġprov ision
ab outs
Ġcock pit
Ġret ain
Ġreason ed
Ġsp rou
ĠZ eal
S on
ĠC ro
Ġcryst als
Ġscal p
ĠP ak
Ġg y
m ma
Ġsatisf ying
o ons
ĠY e
ĠT el
7 9
Ġr ation
Ġtub es
Ġc alendar
T urning
ĠStu art
Ġbord ers
w ere
in f
ered ith
Ġtri ple
Ġpercent age
Ġty ped
Ġsince rely
ĠBen ny
ĠI gn
Ġdin er
Ġun pre
J ose
Ġas ter
ub by
all e
Ġvom it
Ġdawn ed
a ah
Ġinteract ions
g or
Ġlur ched
Ġhug s
Ġinter cept
Ġun ited
Ġw ires
Ġtu gging
Ġrepl acement
ĠT alk
ĠHe nd
Ġafter ward
ank ind
Ġappl ause
ĠK enn
7 3
Ġshimmer ing
Ġl ick
Ġus hered
ID S
Ġdetect ion
Ġv oy
Ġle isure
Ġmerc hant
Ġpar agraph
ĠO cc
m ay
umb ered
Ġdisc rim
ha st
Ġharm less
Ġapp lies
ogen ic
M in
or ic
ker chief
ac ie
ig ail
Ġindepend ence
ĠC SC
Ġenc han
Ġm und
á» ĳ
ĠV ers
ĠSt ew
Ġhyp oc
Ġha ck
Ġvit ro
Ġhun ted
Ġborr owed
Ġcommand ments
f its
Ġhar bor
iff any
F red
at on
G G
Ġtriump hant
ot al
ĠA ff
m aybe
ĠDevelop ment
L ittle
Ġan ts
ĠN am
iz ards
ĠJul es
Ġattend ant
Ġbar king
Ġadvert ising
Ġearn est
ĠC ertainly
o inting
Ġgest ures
Ġreception ist
Ġintro duc
" ?
ĠInd ians
Ġp umping
Me anwhile
ĠM itchell
K im
h m
ĠP iper
Ġgall ery
Ġcons ul
ĠL og
Ġcontin ent
Ġdiscuss ions
ĠAr n
Ġp aws
Ġcan non
L ance
ĠM aur
Ġmush room
Ġher bs
à® ļ
Ġalb um
Ġexpl icit
There fore
Ġsmo ked
Ġowners hip
ĠGerm ans
Ġpurs uing
Ġvolunte ered
Ġc ot
ĠS itting
at ar
id y
Ġtal ented
ĠN orthern
âĢĵ "
Ġd ile
ĠW a
. ]
Ġpil grim
r ator
L ady
Ġfl aming
Ġcha st
Ġche ating
ĠU l
Ġunw anted
Ġabdom en
Ġdef ending
Ġb ait
ĠS leep
Ġprogram ming
ĠTh inking
Down load
ĠÎº Î±
Ġmotorcy cle
ĠW ords
ĠHou ston
Ġpony tail
Ġreal izes
Ð» Ð¸
Ġunexpected ly
ĠN ice
Ġscript ures
an se
Ġgu ides
Ġsoph isticated
Ġchim ed
ĠDie go
ĠA w
ĠPub lishing
Ġg lyph
Ġwe eds
Ġmon k
Ġd ab
Ġtransport ation
Ġhyp not
min ist
ĠA RE
ĠC ullen
Ġal armed
ĠPal est
ere rs
ĠDou glas
Ġden ying
Ġaut o
Ġpe ers
se us
Ġund oubtedly
Ġsed uct
ĠAb d
Ġdecl ined
Ġhand kerchief
ĠAn nette
Ġalle ged
an king
ĠTur key
Ġrein force
Ġgreed y
ĠC ec
ĠB ird
Ġmouth ful
Ġstra ps
Ġsne aking
W ING
Ġsec re
bl ue
Ġtob acco
te gr
M aster
Ġfunction ing
ĠL im
0 6
ĠSav ior
p hy
ĠA ur
N ik
it ha
Ġn am
ĠS i
ĠS ong
st ory
ru ctor
Em ily
M ac
Ġrub ble
Ġfix ing
ick er
Ġh osp
Bl ack
v oc
Ġex clusive
Ġwom b
Ð½ Ð¸
ian cÃ©
c ro
Ġd ent
Ġfail s
Ġw retched
ank y
T O
Ġtri g
Ġra ped
iv an
Ġprec ision
Marc us
in ces
pl ane
red ict
Ġpay s
Ġremn ants
Ġtra ils
Ġb icy
P A
Ġtoler ate
ethod s
Ġadm on
Ġwrit ings
Ġcomp r
ĠAssoci ation
op ath
ĠM ak
Ġord ering
ĠTon ight
K ay
Ġpar aly
Ġbar ren
ĠFr an
Ġsmoot hed
at ers
Ġgener ate
Ġsque aled
Ġexter ior
Ġtop ics
Ġmel ting
ĠScot land
Ġund o
Ġfra ud
.... ..
Ġlong est
ĠI ron
Ġdraw ers
Ġsin ners
Ġwh imp
Ġaddress ing
ĠAdam s
Ġparan oid
Ġobs essed
Ġconsider ably
Ġr iches
Ġres olution
Ġer rors
T re
ĠWal king
Ġn om
uss ion
Ġed ged
Un iversity
Ġweek ly
Ġaud io
Ġm ama
ont al
Ġpat ches
Ġment or
ĠLou ise
Ġspraw led
Ġis t
Ġsur ged
ier ra
Ġang les
Ġengulf ed
h l
Ġdomin ant
Ġd azed
Ġha ired
Ġtr aces
ĠC ost
Ġev ac
p ool
Ġexpl ored
Ġcomp onent
Ġm oss
Ġunbear able
Ġun natural
D is
Ġproject ed
ver bs
Ġcol umns
m ons
Ġspl ash
Ġjam med
Ġexpans ion
Ġtrans cend
ĠAlf red
Ġconspir acy
B ob
And rew
Ġ {
Ġfrown s
ĠO cean
Ġneed les
Ġpir ates
ĠL amb
Ġpro ving
Ġshow ered
Ġnot ing
ĠB ox
Ġinvestig ating
Ġvide os
R yan
Ġdisc reet
Ġmiss ile
Ġpil ots
Ġisol ation
Ġmakes hift
Ġcell ar
id o
ĠK athy
Ġconfront ation
Ġamid st
Ġfl ipping
osh i
Ġcopy right
Ġdatab ase
Ġform ula
ĠR ES
w ife
ĠC EO
R ec
ĠR at
B E
Ġso vere
Ġpro claimed
ĠB ol
Ġexp anding
Ġno isy
ĠCh ild
Ġchar t
Ġgrow ling
on ies
ĠZ oe
ric ia
Ġv ow
Ġbell s
put er
Ġmill enn
ĠCo ach
Ġdeaf ening
w orthy
in oma
ross ed
Ġl inger
le en
ĠP salm
own ed
Ġhall uc
Ġingred ients
N athan
Ġjud ges
Ġtheat re
j ar
Ġsee ks
Ġinhib itors
ĠStan ford
ĠP A
Ġag encies
Ġglist ening
Ġe agle
M c
Ġfierce ly
Ġever lasting
Ġprof ess
ĠP har
Ġloss es
Ġmanifest ation
Ġdel usion
ĠEld er
Ġo v
b ath
ĠB urn
iz able
ĠNot e
ĠN em
ĠFrank ie
Ġtechn ically
Ġhum id
Ġbron ze
Ġcur l
ut ure
Ġdis ple
ĠAd em
Cla ire
ĠInt erest
Ġtrig gered
Ġdown load
Ġadequ ate
ject s
Ġ iv
op en
olog ically
Ġ @
ol ar
and s
Ġlet hal
Ġsun rise
ĠJe ho
ĠW itness
t ar
Ġ3 00
he it
ve ll
Ġprop ose
Ġex ert
U E
Ġeffic iency
Ġexpect ation
Ġfl ows
D ave
back s
ĠPl ace
Ġlog s
Ġinevit ably
Ġl uc
Ġsan ity
Ġd ot
Ġdiamond s
Ġpersu ade
Ġw rigg
Ġanaly zed
Ġman ic
Ġphys ician
n ell
Ġconf ined
Ġarrog ance
Ġgodd amn
ĠS erena
Ġremar ks
J am
Ġconclud e
Ġflee ing
Ġl ame
ur rent
J eff
o a
ab ama
Ġl ass
a an
ro gen
ol it
Ġmir rors
Ġapplic ations
Ġb usted
Ġattack er
Ġf isher
Ġper ipher
Ġcircumst ance
Don ald
6 4
h oles
o pp
Â ´
ĠE agle
Ġun im
Ġcor pses
Ġmo aning
ĠÃ §
Ġpict ured
Ġrep et
c har
B rad
T ony
Ġho arse
arn ation
ĠThom pson
Al ice
Ġdisappear ance
Ġd usk
Ġaut umn
gr own
f i
Ġe uch
App arently
Ġsol itary
ĠBern ard
Ġco y
Ġcap abilities
Ġsk id
ĠP ed
Ġrif les
ag a
d ale
Ġst ating
Ġconfident ly
Ġtr acked
OR T
Ġcle arer
Ġheal er
Ġreprodu ced
Ġp sy
Ġch oke
pro of
Ġunnot iced
Ġinterview s
9 2
Ġcolle ague
ĠME AT
Ġback up
ĠV ik
ĠU t
Ġboard ing
Ġpaus ing
ĠB rig
Ð¾Ð³ Ð¾
Ġkilomet ers
Ġgr inding
Ġc odes
Ġc ows
bor ne
ĠX avier
Ġfold s
Ã´ ng
Ġam using
Ġregion al
Ġste alth
Ġeduc ational
Ġde leg
Ġsw ings
Ġab used
ĠAll Ã¢hu
Ġhow led
Gen eral
Ġrust y
Ġmon ot
ĠEv il
ĠGl en
ot ers
Ġsl umber
Ð¸ ÑĢ
ĠÐ½ Ð°
ĠE conom
Ġadm iring
pen se
à¤ ¤
Ġwid ow
Ġun ner
Ġcont ribution
ĠB ase
Ġte ase
Ġrepent ance
Ġrehe ars
' ?
in able
Ġpad ded
Ġprepar ations
Ġrent ed
Ġoblig ed
ing o
Ġbreath less
nt hia
Ġun a
co at
Ġhide ous
Ġ9 5
re lla
Ġanal ys
am an
Ġpain ed
Ġsurpr ises
M ENT
Ġtechn ologies
Ġbenef icial
Ġform at
Ġstorm s
Ġpond er
S O
ĠAt hen
Ġbewild ered
9 3
Ġtrans mission
ĠOut side
Ġhis s
ĠSha y
Ġrelie ve
Ġev angel
Ġexpert ise
ĠTe acher
il ah
Ġst amped
ĠNa omi
Ġmot ives
Ġholog ram
j e
ĠB Y
Ġblank ly
Ġref erences
ship s
hes ians
Ex cept
Ġven om
st yle
Ġste ak
Ġwhist led
Ġout burst
AS T
E p
d ra
Ġconserv ative
us al
Ġpart ial
Ġplay ful
Ġthie ves
os ph
Ġmiss iles
ĠLyn n
Ġprom oted
Ġspirit ually
Ġmarry ing
Ø§ ÙĦ
Ġlast ing
ĠCom ing
Ġmin ing
Ġdish on
Ġp aj
ãĤ ĵ
Ġfashion ed
ĠM ove
Ġcontinu ously
Ġf oster
ab e
Not e
Ġdest ructive
Ġobserv ations
or ph
Ġstern ly
ĠMer cy
Ġcig ar
Ġkar ma
ĠN elson
Slow ly
I ES
ad i
Ġsm ugg
Ġinj ust
ĠMon ica
Ġfleet ing
Ġact ors
Ġcl own
Ġsens ations
Ġt umbling
Ġexerc ises
Ġres ume
Ġshell s
F riend
Ġwill ed
H arry
Ġres erv
Ġcol oured
ne ys
Ġsn ack
Ä± k
Ġones elf
Ġsweet ie
est one
ãĥ§ ãĤ¦
Ġs izes
ced es
ix ie
ajest ic
Ġkn ots
ĠW E
ĠE yes
Ġcourt esy
Ġreb uild
Ġnarr ative
M Y
ĠSh in
art s
Ġb ou
Ġpl ucked
Ġmeaning less
Un less
ĠEduc ation
Ġli vest
ub lished
ĠIm agine
Ġspark led
ĠN y
Ġvolunte ers
Ġb ows
Ġbeck oned
Ġguard ing
Ġenv ision
Ġhead lights
Ġnav y
D et
Ġrec o
Act s
Ġmour n
Ġo mn
Ġdist orted
Ġswe ats
Ġg rud
Ġlab our
ĠW itch
Ġframe work
Ġnin eteen
ÙĬ ÙĨ
ass y
Ġcur rency
Ġrain bow
R og
Em ma
k irts
Ġch orus
Ġsub mission
Ġsing er
Ġcons ists
ri ages
d aughter
s is
Ġwind shield
Ġunbelie vable
ors hip
W ant
d est
ak y
Ġdoor bell
Ġproduct ive
ĠBre nda
m itt
in ery
Ġà® ¤
Ġdecl ar
Ġdeliber ate
H H
d im
Ġhesit ant
Ġhesit antly
ĠCT Z
Ġpo ker
Ġsent ences
Ġhom osex
Ġmotiv ated
Ġh ust
ĠC hen
ĠP ath
Ġconvention al
on i
Ġf ried
Ġtow els
Ġdiagn osis
us ters
Ġapp lying
Ġprox imity
B oy
Ġpresum ably
ĠAll iance
Ġtransport ed
Ġperplex ed
h undred
Ġt ens
ĠT s
un n
Ð¾Ð ±
ĠMiss ion
cl oth
Al ways
ad ies
ĠR as
ĠF en
Ġfeed back
ent in
Ġhar mon
Ġde le
Ġ4 7
Ġclaw ed
Ġcar rier
o ir
ĠN ur
Ġent re
ĠK or
ĠColl ins
Ġwheel ed
Ġfatig ue
W H
p ur
Ġsin ful
Ġcert ific
ang led
Ġdep uty
Ġunm ist
Ġloos ened
Ġdem ise
Ġthank fully
Ġv ault
ĠU lt
el ines
Ġshru gs
ĠN i
Ġatt ire
P salm
Ġà® µ
Ġsacrif iced
Ġd ens
Ġsc ooted
ps y
ĠÐ ³
Ġpan els
Ġbe ers
Ġsket ch
S han
V er
ĠTr inity
au c
Ġapr on
Ġev apor
Ï ī
Ġreb els
ĠSim ilar
ĠN ina
u ity
Ġreason ably
ĠMel ody
hy d
Ġd azz
ĠE nergy
ĠOr ion
Ġmead ow
Ġp a
Ġrend ered
Ġvacu um
ĠK h
Ġpleas ures
Ġexc used
Christ ian
ĠMic ah
l ast
ed en
I Z
Ä ĩ
Ġra bb
c hel
ĠB right
et ics
ĠK ane
Ġins pected
Part icip
Ġtox ic
ĠRay mond
Ġrep orters
ĠV lad
ĠTw elve
Ġà®ī à®°
Ġfil ms
ĠP ick
ĠP reston
ĠP RE
pret ation
Ġdevast ating
-- -
s kin
ĠG ret
ĠRuss ians
Ġrot ting
Ġlo omed
Ġent ities
Ġcontempl ated
Ġbul b
t aking
8 3
Ġun lock
Ġg aw
Ġet ched
OR E
Tr ust
ph ia
Ġn our
is hers
Ġinvestig ated
ib i
Ġprogram med
ĠIm mediately
ition ally
Ġsuppl ied
Ġv on
rodu ct
ĠMa e
ĠD utch
Ġtem p
ed a
Ġ+ -
ĠTW O
R ev
Ġsign aled
ĠLe ft
AN CE
Ġdescend ing
Ġmanufact ure
f iction
ĠB and
Ġpl ast
ĠGr an
Ġsin cerity
am y
ĠCr own
Gab riel
Ġtre ad
Ġadv ise
Ġir ony
Ġf erry
Ġat he
Ġweak er
Ġlist s
Ġpsych ology
Ġble ed
Ġpet ty
wor king
m ers
Ġf iancÃ©
Ġpr ints
Ġ4 9
Ġevident ly
Ġb udd
Ġe rection
ĠZeal and
ĠI ss
pr ising
Ġomin ous
ĠJos ie
en er
Ġador ned
ĠGoo gle
Ġcomr ades
Ġfingern ails
ore an
Sure ly
v ice
ĠM oney
D ev
Ġa ven
ĠFr ances
m ine
qu er
Ġatt ic
Ġlic ensed
ahr ree
Ġobst acles
ĠC ook
ĠVan essa
Ġterror ists
al ai
Ġgul p
oc hem
ĠClear ly
Ġd ip
W r
ĠW onder
ĠHu gh
Ġpat ron
M ir
ĠM ath
ĠRe ed
Ġproduc es
G S
Ġso aking
P res
g el
Ġtim id
ag u
Ġsquir rel
Ġkick s
ĠEgypt ian
Ġintim acy
. [
Ġforb id
com p
ĠAl abama
Ġscra ped
Ġbon us
vers ion
Ġsal ary
Ġadj usting
Ġcount s
Ġag ing
ar ios
.' '
ĠThank fully
OS E
ĠTw itter
D a
Ġdiscover ing
ĠK id
se mble
am ma
Ġprof its
ĠColor ado
Ġpat rons
ĠMan ny
Ġbr icks
Ġchem istry
Ġp ots
Ġout comes
Ġown s
Ġp umped
he res
Ġdel ayed
ĠBr itt
Ġinterf erence
r idge
Ġback side
Ġinter section
lo ading
Ġgif ted
M mm
le vant
l est
r one
ĠChrist ine
Ġfest ival
un o
ater ial
Ġtre k
Ġdynam ic
Ġdis orient
ĠCl ara
Ġass et
ĠC ab
P ER
Ġblind ly
Ġenthusi astic
ĠP ain
Ġro gue
Ġagre es
ĠW ard
ĠRos a
b u
d rop
ens on
L y
S hall
ade qu
Ġgru ff
un ct
ats on
ĠL er
ĠL ost
Ġres erve
ĠAl ong
Ġcoinc ident
Ġl ush
Ġd iverse
ĠH ades
ut ting
Ġcat ast
Ġsex ually
Ġmerc en
th ought
Ġrele ases
adel phia
Ġcompet e
ĠLe ague
Ġredu ction
Ġchamp ion
Ġdun geon
ĠA ren
Out side
Ġpun ching
Ġl ittered
ĠL at
Ġcreat or
ĠÎ ±
ĠF ull
ific ant
g ate
ĠD re
à¦ °
d les
ĠA round
Ġf rig
Ġb ass
ĠSt aff
Ġenc ir
b uh
Ġflood ing
Ġor che
Ġser ial
Ġstri ve
ĠD OWN
Ġin appropri
Ġeng aging
Ġrul ers
Ġband age
Ġb ible
ac ies
w al
Ġf uzzy
ĠY ears
agg ers
Ġouts kirts
Ġoblig ation
A ss
ĠR NA
John ny
Ġ4 4
ĠR EL
p ression
Ġcl ad
Ġenvelop ed
Ġprevent ing
Ġshuff ling
ol ai
Ġcan yon
Ġfaint ly
Ġdispl ays
d in
RE E
Ã¢ t
Ġ200 2
Ġ é
ar ious
Ġpost er
ĠR ot
ĠPol it
Ġat oms
Ġpurs ued
ĠUn ivers
z ona
Ġinterrupt ing
Ġbat hed
ĠMount ains
Ġj olt
ĠĠ ĠĠ
G al
Ġdo om
Ġdeliver ing
ĠGreg ory
Ġche ering
Ġsuper f
Ġsw amp
Ġtreas ures
Ġfoot age
ĠLor i
Ġpat ting
ĠHon or
Ġt iger
Ġdis reg
ĠY ellow
Ġcy t
Ġsl ips
ĠPo or
uff le
Ġtor ches
De f
Ġrent al
h ol
Ġnet works
D om
Ġpill ar
he e
Ġspo iled
Ġdece ased
ĠL ic
Ġdesign ated
Ġun sc
Ġra ining
Ġspeed ing
Ġpill ars
Ġra id
Ġbitter ly
ĠM es
pl ant
Ġprot ocol
Ġbount y
Ġb og
Ġab road
in ished
ĠKim berly
ĠD aw
ĠO ak
Ġmag netic
L ight
Ġspo il
T Y
Ġor deal
Ġrej oice
Ġr asp
Ġmi R
Ġclot hed
Ġstra ining
Ġamb ition
Ġsubs ided
Ġoun ce
the ir
Ġwalk way
ĠNorm ally
Ġscur ried
Ġt aut
ĠUS C
ograph ic
mark et
Ġoverl ooked
Ġd iving
ap es
Ġhost s
gr ade
Ġawaken ing
g ently
Ġhow ling
Ġcons uming
Ġsust ained
Ġlur king
ile e
Ġportra it
Ġpositive ly
Ġreview s
ott a
cont rol
Ġin ability
Ġcontempl ating
Ġnon chal
Ġachieve ment
T able
Ġfrag ments
Ġb out
Ġ4 1
ĠT reat
Ġcl icking
th irty
Ġid le
Particip ant
N ic
ĠF ight
ĠW ow
ink les
Î¿ Ïħ
n ine
Ser iously
Ġty ping
Ġreg ulations
Ġoper ator
Ø ®
Ġdis respect
ur dy
Ġassess ed
ĠAfghan istan
H on
ĠKat rina
Ġcru iser
Ġsh ri
Ġfig uring
Ġevalu ate
Ġappe aling
Ġcur ling
ĠV as
Re ady
Ġth ump
Ġcl one
Ġb ooked
il ess
ĠS M
Ġcon form
ĠSam my
Ġse l
ĠM aking
Ġest im
is d
ne g
ĠSter ling
E than
ĠB ene
Ġbow ls
Hel en
Ġbur ial
Ġsm ack
Ġdisapp ears
ĠImper ial
OC K
AV E
Ġmoist ure
pr ot
ch ild
ĠAp ollo
Ġris ky
Luc y
v on
hat e
il o
ĠCl oud
Ġstream ed
um i
Ġske leton
ort ex
Ġclass ified
Ġshar pen
pl ic
ĠBet hany
Ġexagger ated
S oph
rian na
," _
ri um
Ġlike wise
Ġwar mer
Ġnest led
ĠH appy
ard ing
g ressed
Ġstro kes
resp ons
Ġpow ered
ĠP EN
ĠStew art
n ar
Ġsh rill
ĠX ander
B illy
Ġtr im
Ġsaving s
Ġcliff s
Ġbe ads
Ġdece it
Ġbitter ness
head s
ĠSqu are
W ar
omet ry
Ġarch way
Ġprosper ity
Ġthe ft
Ġem ails
Ġscen ery
ĠHall ow
ĠK ait
Ġexp anse
ĠL illy
Ġunf olded
Ġprogram me
F ollow
Ġexplos ive
Ġmod ified
w s
ĠO ften
Ġginger ly
ol ph
wr iting
Ġgrim ly
Ġexplan ations
ĠChan ce
fr ame
Ġfl own
Ġconcent rating
ash i
Ġ5 1
ĠTed dy
B ring
Ġs ul
Ġhar ass
Ġchemical s
Ġtravel ers
mo il
Ġribb on
Ġn iece
Ġsal ute
Ġdim ly
ĠJ ax
Ġfl irt
Ġam ber
ĠIn formation
the m
Ġgradu ation
sal ms
ĠBrad ley
E ve
ar ity
Ġgr id
Ġpre ached
ĠSy ria
Ġtra um
C are
Ġer rand
ĠGo ing
ĠMo ira
Ġrecept or
ĠS or
Ġh over
Ġun int
ĠL ang
m ph
Ġdescend ants
ãĤ ¯
Ġcamp ing
y ss
ri p
ĠD ane
ĠHar vey
Ġcard board
Ġevalu ated
J en
S ub
ĠCam bridge
Ġche f
br ush
I X
Ġoff end
Ġmin es
Ġsort ed
ĠBa iley
Ġro oted
Ġdial ogue
Ŀ i
Ġsc olded
uss ed
à¤ ¿
Ġpers istent
Ġl aced
ĠSing h
UC K
ĠBel ieve
à® ´
ĠF ern
ĠK irk
Ġcomplain ts
Ġbe es
ĠFel ix
Ġact ively
7 4
R R
Ġapp les
gl ass
ĠF reedom
Ġconst itution
ĠPl ay
rane an
ĠJeff rey
e pt
o ken
Ġqu oted
Ġrever ber
er als
is ive
ĠC ell
Ġsand als
Ġmas cul
Ġdig est
D ec
ĠA gency
Ġsp ur
Ġgl ided
Ġt el
Ġdepos it
Ġser um
Ġworks hop
Ġaccur ately
Ġme ek
ĠR u
Ġte e
7 6
Ġdisplay ing
em ic
Ġslipp ery
ĠC ow
Ġengine ers
Ġcont rovers
ĠTe resa
ISS IONS
Ġball oon
×Ļ ×
Ġtemper atures
Ġle ver
Ġflight s
Ġrecip ient
Ġbe aming
Ġsyn ch
Ġbrace let
oun ces
Ġanim ated
Ġmig ration
w ing
Ġinv aded
Ġweekend s
Ġinf rast
A dd
Ġgri ll
t oo
Ġsp ew
Ġd iversity
Ġp itcher
Ġneglect ed
port ant
Ġsa uc
ĠP ract
9 4
m ans
N E
Ġch rom
ĠTh ou
Ġshadow y
ĠRight s
Ġv owed
Ġpl ains
ĠMic key
Tw enty
vere nd
âĢ Į
Ġdisp osal
ĠBrian na
ĠNot es
Ġhy dro
ĠNorm an
Ġhow l
Ġfar ms
sc reen
Ð´ Ð°
á¹ ĩ
Ġbedroom s
g i
r ance
Ġdro ol
Ã ¯
i ology
le gged
ach ment
Ġscree ched
v ance
um ptions
ĠT iffany
Ġpe pper
Ġresent ment
al ion
Ġche mother
Ġrest ricted
ĠHarr ison
Ġsu cks
Ġr ans
Ġdist inction
Ġle aping
ĠBapt ist
yt hag
Ġpart ing
Ġpool s
Ġevalu ation
Ġhang s
Ġpack et
Ġpig s
ĠØ ¥
ĠMart y
Ġdisting uish
Ġhous ed
Ñĭ Ð»
Ġcr ate
Ġbutter fly
V E
Ġgrand ma
ension al
ĠT IM
Ġsp ies
Ġvib rant
ĠI zzy
ĠF ay
Ġcont ra
ĠMad die
aw ed
Ġw ages
O ld
Ġchild ish
Ġadv ancing
Ġdod ged
Ġcritic ism
S ara
Ġgl ued
ĠFR OM
Ġpubl isher
p y
Ġmut tering
Ġst up
Ġthe ore
ĠC HE
O OK
Ġbarg ain
Ġover sized
Ġins erted
Ġgigg les
Ġà® İ
Ġdecre ased
in qu
Ġintric ate
he a
io v
ĠDiv ision
on ge
ĠC ay
Re velation
Ġtur moil
st an
od ka
m outh
ĠThe ory
Ġple a
Ġnipp le
Ġun employ
Ġz u
Ġin adequ
Ġ5 5
ĠHaw ai
Ġb aked
se x
Ġbubb les
Ġb ounce
Ġeven ings
iff erence
Ġpuff ed
Ġst ables
ĠAl ison
Ġw age
See ing
m oon
p buh
ĠAl t
Ġele phant
Ġvoc al
Ġcere mon
E s
Ġbr ist
9 6
Ã¶ r
Ġfoot ing
i ations
Ġm outhed
ort ions
Ġund erest
Res ults
Ġt iles
ĠEd gar
Ġp ardon
ĠCall ie
Ġdet er
ĠPhil adelphia
Ġfe aring
ru ly
ĭ ãģ
ĠM t
Ġall iance
Ġdis like
ĠGree ce
Ġro oft
Ġbright ened
ĠJud y
ĠF ollowing
ĠRol and
Ġp osed
Ġstr ides
Ġmal ign
F L
Ġ il
Ġk ettle
Ġday dream
ne ed
Ġbi om
Ġab ide
Ġdile mma
Ġs or
Ġpip es
Ġb ri
Ġweak ened
Ġwerew olves
ĠN ash
ru ck
Ġpe as
Ġc yn
ĠÙ ĥ
ĠCent re
Ġpre occupied
ĠCh i
Ġmet abol
ĠP le
Ġx en
ĠÄĳ á»
not hing
Ġintense ly
V ictor
Ġadv ances
u ously
Ġmurm ur
Ġearthqu ake
ĠDist rict
bb led
Ġtender ly
ĠMoo re
ri en
Ġper ish
t ake
Ġlivest ock
Ġsub ur
II I
Ġcross es
Ġguarant eed
Ġobsc ure
Z Z
Ġd ots
Ġrec overing
Ġaut op
Ġg el
Ġchat ted
A bsolutely
Ġbe e
Ġimpro ving
Ġburst s
e at
Ġgrace ful
Ã³ n
Ġsire ns
St ar
et a
Ġmo ons
ĠLib rary
Ġund ers
ĠBar on
ĠAtl antic
Ġseve red
Ġsl aught
tt a
od ied
Ġle ant
Ġchuck les
Ġ4 3
Ġ196 0
at ivity
Ġco ats
Ġimpl ied
ĠScript ures
AG E
Ġb aff
Ġc um
Ġcra ving
Ġfair ies
Ġcover age
Ġd ys
Ġhor rific
tr ans
Ġgreat ness
Ġpro gn
Ġco ax
Ġnick name
Ġuncontroll ably
Ġpub lishing
ĠBro ck
Does n
D ou
Ġsweet ly
ĠStr ange
Ġlength y
Ġdart ing
Ġdisin tegr
g led
pl ate
Ã ¥
Ġb ail
Ġt ipt
B eth
Ġprec aut
ĠVol ume
Ġwhere abouts
ĠÐ »
Ġpet ition
Ġfra il
á» ¯
Ġ** "
hes is
Ġbo iled
ĠSt at
IN D
ĠâĢĵ "
Ġobs ession
ĠEng ine
hed ral
Ġarm chair
ĠBe a
osc ow
Ġroom mate
Ġimp ending
Ġl odge
Ġshe ath
ĠI vy
ĠAlex andra
Ġecst asy
ĠTor onto
Ġst urdy
Ġan th
Ġcr amped
ĠSha de
Ġlim o
Ġcomfort ed
Ġtr otted
Ġn igg
Ġbudd ies
Ġdiss olved
Ġstrate gic
ĠSen ate
ert ained
ĠJe ep
Ġdivor ced
Ġwh ined
ĠO UT
oll ar
Ġflo pped
Ġaccur acy
Ġencl osed
ĠAd minist
cri be
but ton
os o
Ġcons um
R a
Ġexasper ated
k ill
Ġc unning
ĠN in
ĠJon as
r owing
Ġsp ears
ĠT rying
Ġfellows hip
Ġdet ached
ha k
Ġ4 6
Ġpeace fully
Ġgar ment
Ġcell ular
Ġvib ration
Ġp uddle
see ing
Ġincap able
Ġmonth ly
Ġdeal er
Ġsens ors
ĠAri zona
ĠBless ed
Ġfrank ly
Ġmind ed
Ġobst acle
el ope
ĠP age
Ġcl ing
z ar
Ġn arciss
Ġpen alty
f olk
ĠW right
ĠReg ina
Ġtattoo s
ĠPhar ise
ĠW izard
7 1
Ġpop ulations
Ġhusband s
Ġaffect s
ic he
ĠR ita
Ġc it
r ac
ĠM OU
ĠL ore
ĠCl in
Ġinf erior
Ġins anity
Ġdev oid
Ġhood ed
mun ition
ĠCamp bell
Ġtreat s
Ġaccommod ate
Ġabs ently
p ot
Ġpl opped
Ġbi ology
Ġplain ly
Ġqu izz
Ġend uring
ĠCha ir
ĠT ucker
Ġconvers ion
G R
al in
ĠK urt
op ic
Be hind
Ġbutter flies
um sy
Ġal ign
ĠG ib
Ġ %
ĠEin stein
Ġal beit
ĠMus ic
s ub
Ġt i
ĠP y
Ġred emption
Ġh ue
ÙĲ Ùĳ
re ally
Ġpro ves
8 5
P lan
ĠM ick
Ġprob ability
ĠC ain
Ġflin ch
ĠE ye
S weet
Ġsp itting
ĠN ell
J inks
Ġga unt
Ġre wards
Ġrepl acing
Ġall y
Ġgra ves
ĠT enn
Ġsc ores
ĠHaw k
id al
ĠM ot
Ġsk irts
Ġreass ure
ig el
cl am
ag ain
Ġparticip ation
Ġsepar ating
bur gh
Ġathlet ic
ann ers
Ġagric ulture
Ġar se
hold ers
b ish
ĠEl ena
ilt ered
Ġliter ary
Ġhur led
ĠGr im
un ter
Ġcont ing
Ġstre ak
Ġw ins
ĠM use
ab ul
Ġch illed
str ong
ĠBrid get
ĠC ord
Ġbra kes
ĠC athy
Ġneighb ours
Ġspr ung
ĠÂ £
Ġvers ions
qu eline
ĠPet ers
Ġimprison ed
Ġs igning
ĠJ r
Ġcontain ers
Ġmini ature
Ġme nd
Ġun ra
Ġso lic
i ary
Ġharm ful
Ġsw elling
ĠR afe
ĠAd vent
Ġf athom
ĠE mb
m und
Ġcold ly
ĠMir iam
Ġb iblical
Ġtempt ing
Ġp iv
ĠW inger
Ġ199 9
ĠN ep
s ur
ĠH orse
Ġout right
Ġsil ky
ith ing
ian ne
Ġd ing
ou fl
Ġor al
I RE
Ġt ile
Ġprop hes
ced e
a ith
ĠAb el
Jose ph
, **
K ar
Ġhe ter
Ġfo e
Ġhair y
Ġas pir
ĠM ig
Con f
8 1
S al
an ic
ac iously
Ġl oses
Ġcur ses
mo ving
Ġgo ats
Ġpo ised
Ġà® ĩ
Ġapp oint
V D
ĠC ore
Ġgar ments
Ġrespect ing
ĠJer sey
ĠPand ora
ĠEn ter
Ġmetast asis
Ġple ad
Ġprov isions
cha e
ul ative
ann i
Ġr umbling
Ġcompet itive
ĠCons ider
Ġintu ition
Ġdep ended
Ġca ressing
Ġwe ep
ĠI R
Ġper se
ĠBr on
Ġrest room
ĠJeho vah
Ġcru ise
ĠGl obal
Ġsw at
Ġadv ant
Ġmyster ies
Ġproceed ings
Ġsm arter
Ġbro om
Ġam munition
ĠSome where
Ġcelebr ated
Ġjog ged
Ġbarr acks
Sus an
s er
Ġind irect
Ġrese ar
ĠRy der
uk i
st ore
Ġpower less
ĠIs lena
à¯ Ĭ
ĠBar n
C s
ĠMad ame
ĠRow en
ĠPr ayer
ĠQu ickly
Ġheight s
Ġmicro sc
ĠMich igan
p in
ĠHe ath
ĠE th
Ġmess ing
ĠAb ove
!! !
ĠG i
ĠKr ish
Char les
Ġtw itch
Ġswall owing
Ġske let
Ġg aped
Ġd ough
Ġwar fare
c ould
ĠL uther
Ġinst ructor
Ġconv ict
ĠC arson
ĠL ist
ĠSC RE
Ġ ib
Hal f
Ġgl immer
Ġeye balls
Ġsail ors
Ġst ale
Ġshar k
be fore
Ġpar ch
Ġcontract s
Ġunc overed
Gen esis
Ġtack le
Ġsilhou ette
Ġsnugg led
Ġdread ed
Ġveget ation
ĠC er
ĠShe l
Ġbre ach
ĠÎ ´
Ġplant ing
Ġjew els
h ouses
OU T
Ġple asing
Ġgrand son
Ġfee ble
Ġcar ving
T urn
ĠG arth
Ġany ways
Ġp oo
Ġwar ily
Ġant ique
Ġrest s
Ġem peror
Ġshove l
Ġwag ons
Ġre pt
ĠN ation
Ġleg acy
ĠApp le
ĠHind u
9 1
ĠM OT
Ġbod ily
ĠWall ace
Ġtele port
Ġd as
ĠR ory
Ġpublic ly
Ġsil enced
ell i
ĠVal erie
Ġintention ally
Ġrec y
Ġreg ulation
Ġcy cles
N ING
Ġting ling
7 2
Ġb umps
Ġlo oming
Ġmass age
Ġmark ers
Ġair plane
Ġrecip roc
ĠT essa
Ġund ead
Ġbat hing
ĠS old
ĠG or
Ġ ÅŁ
up iter
iss ions
qu al
Ġass umptions
à¤ ¨
Ä± l
Ġo rient
Ġgr ades
Ġass urance
Ġcr am
Ġcrad led
Ġcent ers
Ġarou sed
ĠS ection
Ġ7 5
Ex cellent
Ġrefres hing
~ ~
ĠT ai
Ġret ro
Ġind ifferent
Ġopp onents
ĠMist ress
ill on
Ġconflict s
ĠH olding
ra pped
Ġpredic ament
Ġreal istic
Ġsha ved
Ġg um
Ġchamp ions
ĠArab ic
ĠCON T
ĠIre ne
á»Ļ t
f ol
Ġch illy
Ġfl ap
Ġtra ins
Ġlab eled
Ġrequire ment
ĠMin istry
Ġgl int
Ġdry ing
ĠEst her
Ġapost les
pe are
ĠMil itary
ĠRel igion
Ġinfrast ructure
Ġmult ip
Ġinqu is
Ġeffic acy
Ġfar ming
Ġcriter ia
Ġrest rained
Ġimm inent
Ġrepresent ing
Ġdecre ase
id en
Ġcomp osition
ĠRe i
Ġrepresent ation
Ġ201 9
Ġstab il
Ġgl ittering
ĠMag n
lam m
Ġrep ay
ĠJul iet
Ġincon ven
Ġsh imm
Ġcher ry
Ġl av
clus ively
ĠL acey
ĠShan non
ĠKnow ledge
ĠS lo
Ġind o
Ġchan ting
oc aly
St anding
Ġhum med
Ġnuc le
Ġintru der
lic ting
ĠL iv
ĠIsab elle
er ting
Ġbe gg
Ġplay ground
ĠInt elligence
Ġequ ation
Ġtwent ies
ĠIsab ella
Ġhumili ation
Ġ_ _
ĠC rim
Ġper il
Ġuns po
Ġn ie
ave nder
Ġpur ity
Ġdisapp oint
Ġintimid ating
Ġsumm ary
ĠM ach
Ġgrim ace
ĠW oman
ĠOh io
Ġbroad ly
ĠMur ray
Ġdef lect
is en
Ġut ility
Ġmor nings
ÏĦ Î±
Ġdr ones
ĠC arr
Ġsarc astic
Ġf anc
Ġsk i
Ġpres erved
Î ²
Ġtele path
Rog er
Ġr ud
Ġgun fire
Ġest imate
Ġconsist ently
Ġmon itors
ract ed
Ġinterrog ation
ĠTechn ology
Ġatt itudes
au ld
Do ctor
G er
Ġsle ek
Ġmach inery
w art
se at
ĠH ong
Ġritual s
ĠSha kes
Ġsufficient ly
Ph il
al og
Ġgr acious
ĠEM ISSIONS
h um
Ġrem inis
K yle
Ġmon ks
ĠTan ner
Ġtent h
Ġforce fully
S ad
Ï ĩ
Ġw izards
ĠL abor
chan ge
Ġsn aps
Tom orrow
oss ible
Ġprocess ed
Ġa pt
Ġn icht
Ġcomple tion
" _
F O
Ġpay ments
Ġattend ance
Ġtw itching
Ġinjust ice
T ar
Ġch unks
Ġap opt
Ġart ic
Ġhe n
ĠTH IS
Ġcav al
Ġl ens
ĠH ung
Ġcreat ivity
ĠEl iza
Ġadvant ages
Ġwrest ling
RE AD
ĠM oscow
Ġex claim
I an
Ġm old
Ġl ashes
Ġcharacter istic
Ġrepresent atives
Ġstre wn
Ġcop ied
Ġeth nic
w y
Ġchick ens
ĠB od
v ised
ĠC reek
iv able
Ġsubd ued
int a
Ġgrace fully
ĠAtl anta
Ġw akes
ĠC art
Ġcal f
Ġboo ze
ĠDes ign
Ġune ven
p ose
Ġquant ity
Ġeru pt
ĠDark ness
Ġsa us
ĠSha ll
Ġà® ¨
Ġconce ived
Ġab ortion
Ġha unting
Ġ_ (
ĠCont in
Ġenthusi astically
ĠStud y
C OM
Ġl Ãł
Ġam ple
Ġsuper visor
Ġstill ness
Ġper m
Ġimp osing
Ġcre aked
F A
im us
Ġspe ck
Ġto dd
oy le
Se an
Ġwhimp ered
Ġsupport s
Ġto pped
Ġsp ied
Ø ©
ĠSh ir
itz er
ur bed
Ġdece ived
Ġscrap ing
Ġg ag
Ġflir ting
at hing
om er
Ġattach ment
ĠOx ford
Ġab yss
Ġende av
Ġresearc hers
Ġbas es
Ġumb rella
K y
Ġg aps
ĠM eredith
Ġname ly
Ġcl umsy
ĠTurn er
Ġd otted
Ġfre ight
Ġmer it
Ġb ak
st ill
Ġred ucing
Ġappre hension
Ġexcess ive
om ination
ĠDe b
en zie
Ġirre levant
ĠM ult
m ary
Ġpress es
Ġcelebr ating
ab elle
ĠK ong
ic ular
ĠMc G
sw er
ĠCha p
Ġover c
Ġveget able
Ġchap el
Ġviol ation
Ġsuccess ion
d ers
Ø µ
ĠM os
Ġpar as
Gu ess
K JV
ent ric
ĠG O
Ġwho lly
ric ane
Ġgran ite
Ġhis sing
Ġint ake
Ġmix ing
Ġpenet rate
Ġw oo
ĠEll iot
Ġstupid ity
ĠAn cient
ĠAid an
Ġsire n
Ġascend ed
ĠG ame
Sil ence
L A
Ġrece ipt
ist ical
Ġpen ny
ut able
Ġad am
Ġser ver
art hy
Ġtransl ate
Ġsymb olic
al er
Ġvar ied
ĠC row
et ry
Ġcol onel
Ġunus ually
ou ded
Ġequ ality
Ġnause a
ĠG ur
AS S
ĠLear ning
Ġcooper ate
ĠHallow een
Ġsl ashed
min ute
om ena
ĠF iona
Ġun for
Ġens uring
ĠCh ron
St art
Ġtent atively
Ġfast ened
Ġapolog ies
Ġmanif ested
ĠWould n
Ġg oo
Ġscen arios
Ġste ered
Ġind ec
ĠDar ius
hat tan
ĠH app
Ġsa ge
ĠG inger
ĠSil as
aster y
Ġ" '
Ġpleas antly
Ġopp osing
Ġinf o
ct ic
Ġghost ly
% ,
Ġwigg led
F eeling
Ġblack ened
ĠTra vel
ug ar
Ġhol ster
Ġacceler ated
ĠOr le
IS H
ĠK ir
u ana
Ġwarn ings
à¥ ĩ
Ġoccur ring
ythag orean
ist ance
Ġbl ushing
Ġgro aning
Ġpersu aded
ĠBar nes
Ġfl avor
Ġcondition ing
_ !
ic ism
ĠApost le
B ry
Ġloose ly
Ġsolemn ly
Ġtr unks
Ġoper ated
Ġcivil ians
Ġh ipp
ĠN ar
Ġbapt ism
R AY
o ise
ĠAb igail
Ġsubject ed
ic iency
Ġappear ances
Ġ \--
AR Y
Ġquiver ing
ĠDen ise
ot ting
uzz le
requ ency
Ġg ambling
ut ted
Ġfound ations
in ny
ha ke
ater al
Ġaccord ance
Ġe b
Ġst inging
Ġhum our
Ġbru ise
F igure
Ġmischie vous
ide on
ĠW ant
Ġcomplex ion
ot hel
Ġcam oufl
Ġsho ots
Ä± ÅŁ
Ġna ive
Ġhoo ves
id dy
ern al
Ġdetect ives
D ark
Ġy oga
Ġrecogn izing
n as
ĠE t
ĠF il
Ġchan t
Ġprior ities
Ġbud ge
S w
ist ine
Ġshar ds
Ġver b
Ġw rought
Ġb itten
Ġben ches
ĠC ed
Ġinward ly
ull ed
Ġe up
st ruct
OV E
Ġl atch
Ġpers isted
Ġinappropri ate
Ġthere in
Ġtend s
ĠIs h
ĠNo ble
ER E
Ġph oned
ĠLuc ian
ĠL ottie
b ad
ĠW ars
Ġman or
ĠS ame
ret ion
Ġexpect antly
Ġmention ing
ĠC osm
Ġv á»
Ġpl ug
Ġachie ving
ĠDoes n
ĠB M
Ġmund ane
ne ver
Ġr ides
Ġche ers
Ġoccur rence
ĠWar rior
Ġrub bish
ĠBry an
Ġsl ain
Ġpar lor
Ġreck less
ĠLil ith
th ink
Ġf u
ĠS age
ind uced
ĠSher lock
Ġpol es
Ġst adium
pr int
Ġmag net
Ġhelpless ly
8 6
Ġfe es
Ġbody guard
Ġprot ests
van ia
Ġrefuge es
ci ating
Ġpro gressed
am er
8 4
S eb
ĠP E
Ġclim ax
f ounded
ac cept
Ġse gment
AT ING
iqu ity
f uck
ĠT oy
Ġpass ive
Ġsimilar ly
M ust
int o
ich o
Ġ199 8
ĠRe ad
am ine
Ġscrut in
Ġjur isd
Ġconf ines
Ġst amp
Ġcomplex ity
Ġdin osaur
act ions
Ġt rench
ĠE b
ĠGar rett
ĠBuild ing
Ġsqu irmed
M uch
Ġdef enses
Ġlou ng
th s
Ġser mon
P et
uc es
ĠEl aine
Ġvigor ously
ĠP itt
ind e
Ġintegr ated
Ġmonst rous
Ġpartic le
ĠRe aching
Ġnew com
Ġreal ities
Ġsur m
J enn
Ġcont ributed
Ġste er
OL D
sec ond
ĠStef an
J enny
ĠPaul a
Ġrob bed
che m
C ertainly
Ġpl ag
al ted
oc ating
ul um
Ġr het
aff e
ĠB ald
Ġcom a
ump y
Ġb owing
Ġf iling
Ġpe an
ĠHigh land
Ġleg ally
Ġadm ission
Ġsuspect s
for ward
Ġhard ware
Ġha ts
ĠQu est
ett es
Ġk itten
agg ering
Ġdirect ing
Ġp rud
Ġfantas ies
ĠC ob
Ġt resp
Ġsc oot
av y
re ement
Ġin ched
ĠB reat
Ġsp orting
Ġsc andal
sh ould
L aur
Ġcook ie
Ġinv ention
ĠA G
ĠA NA
Ġra ined
Ġpod ium
Ġextract ed
ĠL IT
ĠE aster
oc ial
ĠYOU R
Ġlo ads
am ic
ĠG ulf
Ġcr ates
os itive
ĠLe v
ĠS we
our t
Ġtr aded
ĠRes p
Ġd uration
Ġsurre al
ag les
Ġear ning
ĠJ inks
ĠDan ielle
ask et
Ġstal king
Ġdis abled
Ġfl av
Ġfasc ination
Ġenlight enment
E ver
y et
al id
ĠW ade
ãģ Ĺ
Ġd ancers
ĠM un
Ġmar g
Ġtor rent
Ġscarce ly
ĠEl vis
Ġbin oc
Ġbacter ia
Ġsa int
Ġtrans mit
Ġarchitect ure
Y e
o val
Ġe ats
ĠÂ «
Ġprotru ding
Ġdevast ated
Ġf ret
ĠM n
Ġind ef
Ġcult iv
Ġgre asy
S U
Ġf ooled
Ġsn ickered
Ġwh ipping
Ġimp osed
t te
ĠS W
8 2
Ġa pe
Ñĭ Ð¿
ĠTor ah
c over
Jim my
ĠWy att
Ġearl iest
Ġwo ven
ri ke
han ts
ud a
Ġreal ms
ĠI C
Ġoccup y
Ġen abled
n in
let cher
kn owing
N a
b il
Ġratt ling
Ġhe aving
ĠL an
Ġcare less
M at
Ġg ains
Ġme mb
Ġdef ended
Ġrelent less
Ġtra ps
ĠT anya
ĠBr ing
ĠEx pl
Ñ ĳ
ow a
ĠD ru
Ġresur rect
ĠDem on
Ġimper fect
ne x
ĠCorpor ation
f ashion
b by
Ġnew est
ĠV el
Mart in
Ġen zy
Ġcr umbling
Ġd Ã©
ut or
ub en
ho e
ĠG ru
Ġdisc iple
Ġthr ong
ivers ary
Ġharsh ly
Ġflatt ened
he alth
Ġcruel ty
Ġconven ience
Y a
p ared
u let
ĠP hys
Ġecho es
Ġam end
IC AL
Ġstation ed
ĠCass andra
H oney
Ġtun ed
Ġaddress es
ĠRe ality
Ġvan ity
ĠR ee
Ġamb ush
** *
Ġinterpre ted
Ġlip stick
Ġs ane
ĠM ull
ĠP ulling
ract ys
Ġrece ives
Ġunre al
Ġcon sec
Ġband ages
Wh ite
Ġp ear
Con nor
vol ent
Ġt ails
Ġinter com
ĠT N
Ġsurre ndered
ĠA bs
Ġdanger ously
Ġiniti ative
ĠTet ractys
Ġweakness es
Ġn oses
Ġsub mitted
Ġinvest ed
gu ards
Ġdemonst ration
ĠD od
Ġsp ouse
Ġ ).
Isa iah
Ġf ict
ĠF O
Ġinc oming
Ġmis er
ĠM aker
ili ation
Un cle
Ġsniff ing
ĠAp art
Ġdischar ge
ĠÎ µ
Ġinha b
ĠAl ready
Ñĸ Ð½
Ġmel ody
pre ne
Ġdece ive
Ġmut ed
Ġvary ing
Ġur ine
Ġdelight ful
Ġunt ouched
ĠRid mark
Ġbar riers
ad ays
ĠDar ren
ĠSun ny
Ġinqu iry
Ġmild ly
________ ________
Ġ6 5
ĠInd ust
Ġfl are
Ġdisc ou
Get ting
Ġcheer fully
ĠH ills
Ġwhe e
ĠP olly
ĠJ un
ĠShakes peare
ĠI M
Ġeld est
Ġlad s
ĠTer ror
Ġrec ess
ĠÐ Ĳ
ĠRon nie
Ġhoriz ontal
Ġwe aving
Ġrec re
Ġjournal ist
G ar
arr ison
Ġà® ļ
Ġut most
Ġanaly ze
Ġremote ly
ac o
Ġshr ink
od ox
Ġf ri
Ġse et
Ġeth ical
han a
Ðº Ð¸
ĠRepublic an
Ġsc outs
Ġvic inity
Ġche ated
Ġexpl oding
Ġtechn ological
ĠGl oria
Ġfulf illing
ĠC ody
Ġd ual
ĠFall s
Ġsm ashing
Ġfrust rating
Ġexplos ions
Ġresist ant
Ġruth less
ĠC hem
im i
Ġsick ening
Ġcounter part
Ġgo in
ĠS ens
Ġsn ort
Ġfulfill ment
Ġexped ition
Ġpe aks
acha ry
ĠH ud
ĠG ro
Ġph osph
Ġbored om
Ġelim inated
Ġstim ul
Ġv odka
Ġsome place
Ġsent iment
Ġli ken
Ġcl ipped
Ġconf ig
Ġnotice able
Ġvol umes
ect s
ĠIS BN
ĠK ur
Ġdec ay
ĠA P
Ġnothing ness
Ġnervous ness
Ġconsc iously
Ġunp redict
ĠGl ory
Ġver d
r ators
Ġt attered
Ġst alk
Ġmort als
ĠMill ie
Ġpoison ed
ĠPier ce
ĠDon ovan
Ġdr ums
Ġra ft
Ġtreat ments
Ġident ifying
Ġoffer ings
m ie
Ġskept ical
P ythagorean
Ġgrass y
Ġb ic
ac er
ĠC op
ĠEm il
I AL
ĠPar liament
Int erest
O H
ĠGeoff rey
Ġtri ll
Ġblind s
Ġpul sing
S how
Ġun just
Ġrail way
Ġfr ames
Ġune as
Ġwe aken
Ġev olve
Ġtw ilight
s k
Ġj elly
b ly
Ġs izz
Ġass ays
ĠS aw
Ġkill ers
ri ft
xt on
ĠL l
Ġbould ers
Ġtour n
ĠEx ec
Ġchoo ses
Ġsw elled
ĠM ight
il er
ĠGu ild
Ġspect rum
Ġdeclar ation
Ġparch ment
ĠS it
Ġstri ps
rab bing
ĠL oki
Ġdimin ished
d ens
ĠBon nie
_ !"
em pl
Ġfail ures
á» ĩ
ĠF rost
Ġinter l
Ġje ep
ĠEv ans
Ġco ated
ĠV iol
ĠB elle
U s
ĠE ug
ĠA be
ĠA rist
g reat
llen ge
Sc ott
Ġcr ick
et ary
T ristan
Ġshri ek
ĠB at
id on
Ġur gently
Ġsum mar
dim ensional
ĠWor king
ĠMer cedes
ĠFed eration
right eous
Ġphen omena
Ġbar bar
Ġgrand children
add led
Ġtrans cription
R un
Ġbl asp
ad in
ĠK i
Ġhol iness
ĠRe verend
ĠGuard ians
Ġqu er
Ġplast ered
Ġbre eding
Ġretreat ing
Ġe pic
P retty
sm ith
Ġrat io
Ġunspo ken
Ġsl ot
Ġgro in
ĠMan agement
Sh ort
Ġdemon ic
Ġf iltered
Ġer otic
Ġdesp ised
ĠK ev
Ġatt ained
Ġmas ks
ĠServ ices
Ġcap ability
rit es
IS BN
Ġdis em
Ġdes irable
lim ited
Ġflat ly
Ġmess engers
Ġtight en
ĠS om
ĠA ce
Ġabund ant
Ġo vere
Ġcomp at
Æ ¡
Ġidi ots
Ġagree ing
Ġaccus ation
T ears
Ġcl ouded
Ġcateg ories
Ġinvent ory
Ġshe pherd
Ġ_ ._
Ġmotion ing
Ġfil ter
Ġco h
Ġspar se
Ġpenet rated
e enth
Ġpre st
Ġmid day
D ep
Ġdo cks
ĠP ink
Ġiron ic
iv ities
Ġtan ned
Ġphilosoph ical
Ġorn ate
Ġincor rect
S eth
Ġcomm itting
ĠN ut
Ġag gression
St one
Ġinvest ors
Ġprofession als
Ġrel ating
Ġdeep ened
Ġwill s
Ġapp ra
Ġfro g
F ind
ĠK ira
Ġvoy age
Ġman agers
Ġl ure
Ġrec ipe
ts u
Ġaccording ly
Ġmusic ians
Ġspr ings
Ġa uction
Ġsp iders
Ġnight stand
Ġf ished
Ġbatter ies
Ġit ch
Ġbul ging
ĠA F
ĠA j
Ġtight ening
Ġinsign ificant
ag en
Ġsw ig
Ġspl ashing
ach us
Ġflaw less
Ġauthen tic
re p
Ġoutl ined
Ġsw iped
ĠThanks giving
Ġrevers ed
Ġrep airs
Ġche at
ĠSab bath
Ġqu ad
ri ans
ie val
h ome
m ia
Ġcla pping
b ian
ĠM ons
ĠOrle ans
Ġse rene
Ġins ert
ĠD ame
Ġdown ed
All Ã¢hu
Ġinsight s
Ġh inges
Ġper me
Ġur ging
Ġdraw ings
sy l
Ġaffect ing
Ġle ak
Ġthr usting
Spe aking
Ġon c
cell ed
ĠDef ense
Ġd izz
Ġbinoc ulars
Ġc os
ĠW OOD
und ered
S M
Ġchuck ling
Ġha zel
Ġmour ning
Ġmathemat ical
ĠK ill
Ġsl ab
K evin
c ourse
Ġdo lph
ĠK ris
Ġcommun icating
Ġcompre hensive
Ġthread s
Ġ5 2
Ġorgan ize
Ġc ater
ĠH ilda
Ġmet er
Ġtrick le
ĠBe ats
Ġunderw ater
ĠM ine
ĠN ap
uff icient
ĠR av
ĠZ ane
t in
re f
Ġd renched
Ġdisp ute
Ġ5 3
Ġmis chief
Ġj ug
ĠANA D
Ġan onymous
Ġcomp ass
ĠAlex is
AK E
Ġexhib it
Ġout ta
S har
st age
Ġground ed
Ġlay out
Ġcomm od
ĠRe agan
Ġsens ual
Ġsal v
Ġprec ip
Ġinit iated
ĠCar la
Ġdear ly
ro e
Ġwise ly
p ad
other apy
Ġgrocer ies
ĠClaud ia
r ide
an im
Ġexpl oration
ĠBrother s
n ap
ĠK ansas
Ġbrisk ly
Ġ199 5
S elf
Å ¼
Ġeyel ashes
Ġresign ation
and e
Ġgi ants
Ġc á»
ent on
Ġsurge on
Ġm aker
H ard
Ġbl at
r ings
Ġheart h
sc ale
Ġvan ish
V in
in ne
er d
Ġhang ar
h ur
ĠArab ia
Ġfin ance
Ġ199 6
ĠB aker
Ġcra z
Ġsal ty
Ġbicy cle
Ġrec ur
Ġaltern ate
Ġclass mates
il ated
Ġreview ed
Ġneck s
Ġorig ins
do ors
ver b
Ġunmist akable
W alking
Ġc ack
og raft
sequ ently
ĠT as
Ġprotect or
ĠSha w
Ġwid th
oss ibly
Ġjab bed
ĠS ie
Ġhost age
Ġmart ial
Ġwa ver
Ġmo ans
ry s
ÃŃ a
Ġw its
Ġcontempl ate
Ġbut ler
ĠJ od
ĠCy nthia
Ġl ymph
." **
Kn owing
Ġgau ge
Ġpyram id
Ġsp i
Ġsy nd
id ences
Ġd ancer
Ġunder g
Ġche ss
Ġwra ps
Re al
ab b
Ġmean ings
Ġ15 0
I mp
ĠR af
Ġtim ber
Ġpred ator
Ġcoincident al
t ically
Ġorgan isation
Ġcharacter ized
ĠMe aning
Ġdu pl
Ġright ly
al on
Ġdisc ourse
ĠÐ Ĵ
Ġcent ered
ĠG age
Ġm ute
Ġsequ encing
Ġsubsequ ently
Ġtrop ical
Ġacquaint ance
ad ar
Ġcheck point
Ġbound ed
ĠHebrew s
ĠAr c
Ġin cess
Ġorgan ism
ãĥ Ħ
Ġenlight ened
Ġro ast
Ġsn oring
Ġimpl ies
ĠRe ese
Ġdisob ed
ily n
Ðµ Ð³
Ġoccup ation
Ġcont ented
Ġrum or
Ġexh ilar
D R
p owered
Ġm ocked
th ose
i ator
ĠMo ving
Ġlege nds
Ġdream t
Ġbapt ized
ĠM ans
Ġbuck led
p itched
iction ary
ant on
ag s
Ġfl uttering
Ġsol o
j or
Ġb aking
Ġp as
oc a
Ġapart ments
Ġfulf il
Ġaster oid
Ġcurrent s
ĠT had
ra ved
Ġfe nd
áº §
Ġcr otch
Ġhall ways
Ġris ked
ĠGal actic
ĠB ond
Ġmetast atic
Ø Į
Ġwell ed
Ġrun ner
Ġtit led
Ġve in
Ġemp athy
Ġrust ling
Ġsoc cer
Ġexec ute
Ġpropag anda
Ġunic orn
Ġse mes
qu ito
Ġbound ary
ĠEd dy
Ġbold ly
Ġobsc ured
Ġw ad
ĠB rett
Ġmission ary
Any one
F air
ple ase
ĠArt em
Ġdef iance
Ġpriv ately
Mor ning
m or
St an
Ġsm eared
Ġdisting uished
ĠR io
Ø§ Ø±
Ġelect ions
Ġeas iest
Ġwilling ness
Ġadop tion
Ġschol ar
Ġy acht
Ġc in
ĠF em
Ġcha otic
áº ¯
Ġobser ver
g rand
Ġd uct
Ġm ah
Ġg ull
Ġl ob
ĠH at
ĠD ear
ĠQu ite
Ġri pe
ĠA ch
Ġbo omed
Ġble ak
Ġcourt room
Ġpra ised
áº Ń
A W
Ġrecall ing
ĠO tt
Ġqu ot
Ġaw ait
Ġmanip ulated
He brew
ĠM and
ĠH AND
Ġrun way
het ically
azar us
ru it
Ġarm ored
Ġfren zy
o z
Ġp ry
Ġener get
ĠA K
ĠMar x
Ġshat tering
V EN
Ġdark est
ĠRep ort
spec ific
OT H
Ġapprent ice
Ġne on
Ġv otes
ĠBer lin
Ġbut cher
Ġlay s
Ġprom oting
oun cer
Ġcold er
Ġfor ged
You ng
Ġbright ness
Ġid ols
k u
Ġsm old
ĠNo v
Ġunc ond
Ġhed ge
c orn
hy l
ĠJud ith
ĠTurk ish
ĠD irect
isha ble
Ġmaid en
if ix
Ġcont am
ĠPer rin
ĠNathan iel
ĠW atson
Ġfre aked
or ig
EN CE
Ġinflu ences
O ff
id ad
Ġar ises
h on
ĠB ak
Ġtang ible
ib les
B ay
Ġpend ant
F ur
ĠMost ly
m aker
ĠC onsciousness
Ġret al
Ġinc ent
Ġdevelop ments
Ġc ape
An ne
ĠÙ Ĥ
Ġscree ching
ad der
Ġref uses
Ð¸ Ð²
Ġclass ical
Ġent ertained
Ġunf olding
Ġvib rations
ĠJill ian
Ġsa p
Ġco zy
un ci
ĠG n
ress es
Ġinvest ments
ĠStr ong
Ġsecre cy
Ġr ay
Ġd aggers
ĠPhil os
Ġst ains
ĠL ooks
Ġsin ner
Ġcompassion ate
Ġtou g
ĠBro ad
Ġreapp eared
b ones
ĠG PS
ĠL oren
Dad dy
Ġtid y
o king
ave l
Ġrandom ly
ĠN iger
Ġalt itude
Ġbarrel s
Ġsorce rer
ĠVik tor
ĠB rent
ĠP el
Ġsheep ishly
Ġcompet ing
ĠCar a
Ġrespect ful
Ġnegot iate
Ġcha ined
Ġlegend ary
Ty ler
Ġspect acle
ld a
fashion ed
Ġp ha
Ġant agon
Tr ans
Ġhe ating
ce ans
Jul ia
er ia
Ġv oll
Ã¡ n
Ġjol ted
Ġtrans action
Ġobject ives
Ġscar red
Ġtoler ance
ĠO pp
Ġbl uff
Inter pretation
S un
ur ous
As k
Ġn ude
ĠLe vel
ĠPr ice
Ġmembers hip
ĠZ one
oc key
Ġmeas uring
ĠSa udi
os er
Ġfault s
Ġstab bing
pect ing
Ġ19 50
ĠKenn eth
Ġoccup ants
ĠHay den
Ġbreak down
EM ALE
Ġhypothes is
ĠEric a
Ġconqu ered
H appy
ĠF ew
hant om
Ġweigh ing
T M
Ġe in
Ġ Ïĥ
ĠP retty
ĠMom ma
be an
syl vania
b out
u ber
Ġl ashed
C alm
Ġad oles
ĠChe ck
Ġa z
ĠO bs
Ġgl am
Ġdet erior
Ġpun ches
at ians
im ir
Ġeight h
Ġgloom y
Ġtex ted
b uild
ra ught
Ġorgan isms
Ġth umping
Ġcon ceded
ĠL t
Ġbo ast
Ð¸ Ñı
Ġeven ly
Ġintu itive
Ġ5 4
ig ation
ĠPri vate
Ġplum met
Ġv oting
Ġliter al
Ġcelebr ity
Ġorder ly
ĠW OR
un ches
ĠV ice
Ġcr ust
Ġh ike
Ġhar b
ĠDec lan
we ed
Ġtast ing
Ġpolit ician
Ġcabin ets
ĠD ak
Ġpo ems
Ġ 01
N or
ĠG y
Ġterror ism
C oll
im o
ĠH us
á¹ £
m ath
Ġspec ulation
Mar ia
Ġmas ked
ĠL una
ĠK ee
ĠC raw
ĠE qu
Ġpres ume
Ġst uttered
ri ad
Ġkingdom s
Ġcond o
Ġcho pped
Ġthr ott
Ġso fter
Ġwor ms
and ro
Ġre hab
ĠCir cle
Ġimpat ience
l ay
Ġhosp itals
Ġmoment ary
ĠBe au
Ġmed itate
Ġmascul ine
n en
Ġp agan
Ġsupp lement
Ġreb u
Ġsque aked
ĠMan hattan
ĠIsrael ites
Ġenjoy s
Al an
Ġcro c
C over
Ġtrick y
ĠRow an
Ġo g
az er
De ath
Ġcush ions
d f
v id
Ġf res
Ġp ins
L iam
Ġw ist
Ġspray ed
ind ex
For get
ous y
Ġdiscon nected
Ġtrud ged
Ã ²
Ã¯ ve
on so
Ġde ple
................ ................
ĠE GFR
Up on
ĠB ru
Ã´ i
Ġle ash
reg ular
ĠLuc ius
Ġrevol ver
et erm
by es
B ad
Ġsol itude
ĠBab a
Ġcomp elling
Ġassoci ates
ien na
Ġjer king
Gr ace
ĠPharise es
Ġb il
op ia
Ġstead fast
m ic
us c
Ġde ity
irt ies
Ġch ronic
Ġcirc us
Ġpl ung
Ġpop s
Ġexception al
Ġch op
Ġpassage way
ĠChan nel
Ġprev al
D A
Ġbrief ing
Ġtick led
ĠLor io
ĠF inding
Ġpro c
Ġman iac
Ġcou pled
ek iel
Ġmirac ulous
Ġm á»Ļt
ĠC ait
Ġcomp ly
ĠAll ie
ĠE c
Ġpl ump
Ġfo am
ĠL ots
à¦ ¿
Ġclut ch
ie ur
ol er
Ġstre aked
ãĥ ¥
ec hes
Ġcr unch
R en
Ġse ize
Am anda
ĠN AS
Ġhy brid
Ġlos er
Ar thur
ĠAthen a
Ġ9 9
Ġtri vial
ĠAr chie
ĠBl aze
Ġcool ing
ĠBre ndan
Ġpro be
Ġdemocr atic
Ġsm ash
t able
ij uana
Ġcertific ate
h irt
ĠNew ton
l ined
ĠR ing
IN T
Ġjo ints
Ġaccompan ying
Ġaccum ulated
Ġm g
/ *
ĠE arly
Ġassign ments
ĠBeat rice
Ġchemother apy
P sych
Ġpres cribed
Ġunle ashed
es ide
ĠBr ady
Ġsl ur
ĠR unning
Ġhi king
ĠT roll
res ent
Ġvac c
ĠF und
Ġsubst itute
Ġgle am
" ;
Ġm are
Ġl avender
ĠS af
Ġreal ising
Ġunst able
Ġscr atches
. -
Ġreflect s
Ġsp ins
Ġdis k
mer c
à®µ à®°
pres ent
M ethods
ul ent
ie nd
Ġp otion
a ud
is se
Ġgo gg
il ot
ĠP iny
Ġaccount ing
ĠSy mb
Ġbank rupt
Ġcon co
Ġsc ored
b elt
ĠMas ters
bour ne
ell ar
Ġattack ers
Ġmetaph or
ĠFr ont
Ġann iversary
ĠNat ural
ĠFred erick
l eness
ud o
ĠAM A
ru ciating
Ġpresent ing
Ġver ify
Ġgle amed
Ġting le
ĠRac hael
C oming
Ġmut ant
C ent
Ġtreat y
Ġvar iation
à¥ ¤
Ġador able
elt a
Ġpin ch
Ġal erted
Ġbr un
ob i
Ġparaly zed
M u
Ġco ven
Ġdev oured
pl us
Ġstret ches
ĠG uru
Ġcan oe
Ġbob bed
Ġbisc uits
Ġapp la
Ġquick ened
ET HING
ĠB arr
ĠF oot
ĠK ali
ĠCom pan
a que
Ġpar ish
as i
Ġmet e
Ġenjoy able
yn n
ber ries
irst y
Ġkidna pping
Ġsail or
á ¸
Ġrespect s
Ġspiritual ity
ĠProphe ts
AL K
Rel ax
ĠPiny in
S ame
te xt
Ġat om
ab et
Ġmat urity
ĠCommun ity
Ġfre ck
Ġcruc ified
Ġex clusively
ig ible
Ġunderstand able
am ily
per t
Ġcrew s
Ġp ac
Ġh ose
Ð¾ ÑģÑĤ
Ġdoor step
up on
Ġsub mer
A aron
ĠLay la
Ġsp ying
Ġoverse as
N ight
P oor
ĠBill ie
Qu ite
ans w
Ġest eem
ĠD IS
ĠV oice
Ġstri ving
> >
ord ers
Ġt ying
Ġcomple ting
amp ered
Ð¾Ð º
Ġremark ably
ĠB og
iss ance
ens itive
Ġmult ipl
Ġsubst ances
Ġp ige
ĠD R
id able
Ġst ocking
ĠS ak
ul k
Ġfore most
Ġbureau cr
ag netic
Ġjurisd iction
Ġn un
Ġc ass
Ġsh ipping
Ġestab lishing
Ġnut rition
Ġrad iated
Ð°Ð ¿
Ġsustain able
A p
Ġst acks
Ġun button
oth s
ian ces
ev ent
d el
Ã¢ h
oly n
ĠãĤ ³
Ġso ared
Ġall er
ĠGab ri
Î ´
p roduct
Ġag gra
Ġacqu ainted
% .
ĠB ax
Ġtest ify
ĠF oster
Se ven
ĠThor ne
o qu
Ġcomple ment
Ġhor rors
Ġdev our
Ġru gged
Ġsa ils
Ġtw irled
Ġcollap sing
Ġfab ulous
ĠVill age
Ġuns uccess
Ġworsh ipped
ĠJen kins
Ġ** (
ĠLet ter
Ù ĭ
Ġdang led
Ob viously
ĠIn it
Ġ199 7
Ġstif led
C ole
Ġp es
Ġblood ied
ĠPenn sylvania
Ġenc hant
Ġcy cl
Ġg er
Ġins pire
ER T
N N
Ġwh ine
ĠShe lly
ĠSh ield
ĠGer ry
Ġhonor able
Ġp awn
ĠY ang
ĠMOU TH
Re b
Ġcom o
our ces
umb s
Ġo s
Ġmanip ulation
c ence
ĠCon nect
ĠF uture
ah n
Ġstall s
Ġnat ives
Ð¸ Ð·
Ġaccess ible
Ġstat ure
Ġtri angle
he us
Ġtri bal
Ġreve rence
ĠReg ardless
Ġcompre hension
Ġout door
asion ally
Ġwhist ling
Ġliken ess
Ġc uffs
Ġp ets
Ġlive ly
ĠW AS
ĠE cho
ĠMark et
Ġfeat ured
Ã¢ y
ĠJ upiter
Îµ Î¹
Ġl ent
ĠWell s
Ġin eff
... ?
Ġmolec ule
k g
Ġf ries
Ġthere after
Ġspl itting
Ġpaj amas
m ont
Ġcomp aring
Ġcount enance
ĠK ier
Ġdra ining
Ġcommun ic
Ġyouth ful
ĠShell ey
W hether
Ã «
Ġd iam
M ind
it iously
ĠM C
Ġass isted
ĠBrook lyn
Ġdec ipher
ĠTh y
M use
Ġcall er
Ġhill side
ĠHar vard
Ġwis er
ĠCelest e
Ġover power
Ġthan king
Ġcontent ment
Ġdoct r
Back ground
Ġha unt
ĠY esh
Ġcons isting
Ġunc han
ĠAll aah
C le
Ĥ ãģ
OL L
d em
Ġvill ain
inds ay
Ġac res
Ġ Ã¼
ĠRe yn
ĠK iss
F requency
ĠU nd
OU G
off ee
Ġripp led
Ġv ial
ia o
s uch
Ġl ions
ur ities
Ġpat ri
Ġann ih
Ġrob ust
ma el
Ġwa iling
Ġacc using
ĠCo venant
Ġo val
Ġout standing
Ġsol ving
ĠMur phy
Ġch urning
Ġpond ering
Ġcalcul ations
Ġlit ter
AB LE
Ġm ajesty
Ġcrack ling
Ġantib ody
ch t
rat ulations
ĠH op
Ġstraight en
Ġstair way
ĠCurt is
um ented
mar ked
Ġhaw k
ĠFre q
Ġapopt osis
Ġsupp orters
Ġunf old
ort ment
Ġ2 50
Ġsuperior ity
Ġide ology
Ġcorpor ations
Pro f
Ġsemes ter
D ra
Dom ain
od a
Ġneed y
Ġfeed s
Ġrecru its
ut o
Ġdem ol
Ġcock tail
Ġpee king
Ġdesol ate
It s
Ġign ition
ĠBudd h
ĠK enny
Jess ica
Ġscrut iny
A unt
es pecially
Ùİ Ù°
in cluding
Ġdes ks
Ġsur g
ĠLou ie
L ie
l og
Ġgener ator
Ġencoun ters
ĠFL U
ch i
Ġfl uffy
Ġtrick led
ĠFred die
E le
ain a
od ore
Ġ5 6
Ġbab ys
Ġcoord inates
ĠCent ury
ĠPet ra
Ġgr ind
ung al
Ġe aves
B a
Ġg ee
Ġeffort lessly
ĠA br
Ġcons umer
Ġnur s
Ġexc ruciating
Ġse aring
Some how
S itting
Ġf i
Ġcons iders
Ġnaught y
Ġslaught ered
Ġdro ple
Ġaccus ations
prising ly
ĠNaz i
Ġha zard
Ġcou p
Ġfla pping
Ġbubb ling
U AL
ed e
it ations
Ġsl ices
Ġsu llen
Ġatt ributed
Ġexp end
Ġunc ons
Ġmel an
pro f
reg on
ĠHig her
d ead
Tom my
J er
Ġ199 4
Ġtrump et
Ú ©
Ġform ally
Ġeman ating
I gn
Ġv apor
ne ck
igh ing
ĠS ide
ĠL iter
Ġsp ons
oc yt
ill ery
Ġr ushes
Ġembr acing
ĠHug o
ro red
ĠW atching
ab a
Ġtra it
Ġxen ograft
Ġwe e
Ġinter vals
Ðµ Ðº
Josh ua
Ġsc orn
Ġinterview ed
ĠSt acey
Ġscan ner
ĠSm oke
Ġintroduc ing
roll er
ac re
Ġf iber
ow ell
ĠBry n
Ġpron ounce
Ġprocess ion
Ġrect angular
Ġpenet rating
Ġt icked
ĠE lement
Ġexper imental
ĠK han
Ġintens ified
Ġtwent ieth
Ġext rem
Ä ĥ
ĠSe vent
Ġpet als
Ġinst ances
i age
Ġvirt ues
op hy
vey ard
Ġupd ated
ĠZ ak
ĠViv ian
Ġsett ings
Ġwitness ing
cons ciously
! !"
t ale
Ġp anted
be y
Ġdist raught
Ġfert il
ĠDal ton
Ġimp art
Ġscar let
br ance
bb les
Ġr attle
Ġlength s
ject ion
ony a
ivid ual
Ġloving ly
AM E
Ġha zy
aus ible
Ġo ct
AC T
ĠMar ina
Per fect
Ret urn
ĠRe ading
Ġinf licted
Ġparad ox
f ull
Ġsc hem
Ġref resh
sp ace
ĠA riel
Ġclean er
Ġflu ids
N umbers
Ï į
ĠHigh ness
Ġan at
ĠÃ ¶
Ġdism ounted
ĠAm en
Ġcompet ent
ĠRand all
T on
ĠF arm
Ġ5 7
Ġtum ble
friend ly
Ġconstit u
Mag gie
Ġb ikes
Ġm uff
ĠS K
Ġstat istics
Ġsal uted
Ġcustom ary
ĠEz ra
E nd
om es
ĠFor ces
zz le
or ian
O F
um mer
d ish
Ġemphas ized
L ily
ĠPer cy
Ġwreck age
O ct
Ġnew born
pr om
Ġmerc iful
Ġreun ion
Ġwr ithing
ĠOd ys
Ġ199 3
Ġmyst ical
K rist
Ġindivid ually
Ġb ared
ĠF ab
Ġform idable
Ð°Ð ±
Ġinex plic
c ount
Ġn it
ĠJo anna
ĠD VD
M ars
ian ca
Ġgobl in
K K
Ġwa iled
Ġfig ur
Ġpar able
Ġpartners hip
ir c
ĠO wn
ĠK az
Ġra ged
Ġjud gments
Ġd uke
Ġinf ur
Ġdeb ts
Ġpo ke
Ġfol iage
hearted ly
ĠA C
Ġacc idents
ĠMad dy
Ġfal tered
ĠF ish
ĠPr im
Ġpet ite
X T
Ġin ad
Ġper ch
as se
Ġwater y
ĠNe g
ĠF ine
Ġer ase
wn y
Ġsn arl
Ġcons ensus
Ġblur ry
ĠM ey
Ġfur ry
Ġbas k
ĠH oney
Ġsupport ive
Ġintrig uing
Ġcr umbled
up e
ĠAll y
ĠColumb ia
a is
p ers
id ated
Ġra gs
Ġha il
Ġind uce
Ġhom eland
N eg
Ġfav ored
Ġbid ding
Ġcommand ment
Jam ie
Ġmagn itude
Ġunpredict able
v at
oc al
B o
oo ps
ĠD ays
Ġqu art
ĠMy ra
Ġri ot
Ġperpet ual
Ġbest owed
ĠEll e
ĠF letcher
Ġdistinct ive
umin ous
Ġsl icing
Ġobs ess
Ġrad iant
Ġne aring
Ġhor ribly
ĠLex i
ĠEr nest
Ġalcoh olic
Ġkh Ã´ng
ĠBre ak
Ġc res
Ġbe acon
Ġsn atch
Ġrespect able
Ġrestra int
ic ent
Ġun att
Ġra ins
ĠOr ange
mm m
Ġsquat ted
Ġhorm ones
f ar
Ġauthor ized
Ġhistor ic
Ġval ued
ĠAlex and
Ġwicked ness
Ġle verage
ren ching
Ġkeep er
r ut
Ġovere x
T C
ĠT ax
Ġafter life
Ġprop osition
Ġsp acious
p read
Ġi P
ĠPier re
ENT Y
Ġc akes
Ġmor ph
ĠCap ital
p op
ĠD ro
Ġl umber
Ġsa bot
ĠL ine
g ian
Ġspark le
ĠMuse um
ot ox
Ġgrand daughter
Ġfac ulty
Î¿ Î½
M ove
ĠGu ards
Ġmort ality
Ġpersonal ities
Ø ¶
rum s
Ġdwar ves
Ġrem oval
Ġball room
Go ing
end o
rop he
ur o
Ġover he
Ġmir rored
Em blem
ĠÐ¾ ÑĤ
ou rable
Ġhord e
M o
Ġguid elines
Ġpredict able
ĠGr ad
ĠRock y
Ġpref erence
Ġslipp ers
Ġex ile
Ġfin ishes
Ġstre aks
Ġentre prene
G irl
N O
Ġh ints
Ġst aggering
Ġind ifference
Ġdecl ares
Ġvib rated
ur rection
ĠC ape
Ġdev ote
ĠLic ense
W ARD
ic eless
op a
EN S
Ġna Ã¯ve
Ġinnoc ently
Ġm u
ru de
ĠBenn ett
A ustin
Ġsp ikes
Ġwr inkles
ĠAR RAY
ĠEl s
ãĤ Ĭ
ĠAur ora
Ġtr acing
Ġfl utter
Ġpassion ately
ĠCham ber
ob el
Ġtrans cript
Ġtourn ament
u ating
ĠN ear
Ġgro ans
Ġcrad le
Ġbe m
Ġhar med
ĠOpen ing
Ġan om
op l
Ġret ained
Ġass im
ĠWill ie
ĠArn old
A v
Ġ5 8
ogen esis
hens ible
Ġhar bour
Ġcorrespond ing
ĠB ee
Ġun cl
abul ary
ĠI F
Ġch is
ĠF ollow
ĠPort ug
M ill
uc lear
Ġconv oy
Ġcred its
F if
Ġwh ining
Ġshow ers
Ġbuff et
Ġze al
ĠOd in
Ġly rics
har t
ĠB os
m id
ĠPat ricia
Ġholl ered
W or
Ġdev ils
Ġhyster ical
Ġun rel
Ġsens ory
rif ice
Ġje opard
Ġminor ity
Ġwh ites
Ġang led
IL E
Ġow l
Ġass aulted
Ġdynam ics
b ble
Ġp est
ĠGu ess
ĠWin nie
U P
Ġgood night
Ġpurpose ly
Ġdiagn osed
Ġflour ish
ĠC ond
Ġdoubt ful
Ġre ared
ĠAs her
ĠSuper man
Ġvel oc
omet er
Ġmort gage
ĠHam ilton
Ġrevel ations
Ġgobl ins
ides pread
B rand
Ġn as
ĠC andy
Ġgar g
ha lf
Ġcom ic
Ġbo oming
ores cent
ĠW ald
Ġbl ed
Ġtruth ful
Ġspont aneous
IC ES
Ġwh oles
ĠFor get
Ġart istic
Ġfast ing
ĠS hip
Ġincom pet
Ã ¾
Ġc elest
Ġfull ness
ĠSCRE WING
At t
Ġgar lic
Ġinterf ace
ĠL uk
Ġm umbling
Ġre arr
Ġcorpor ation
Ġbehavi ors
Ġreluct ance
B aby
in ters
ĠJ aden
Ġsecure ly
Ġde cept
ĠL ive
Ġspend s
Ġshield ed
Ġroyal ty
Ġrein forced
Ġre per
Ġback seat
Ġphr ases
Ġoptim istic
ight s
ract ion
Ġmer ry
ĠRic o
Ġins ists
ĠãĤ ¸
Ġcasual ties
Ġnavig ate
Ġunsett ling
ĠG ill
Ġsy ll
Ġdepos ited
s i
Ġb ots
Ġscreen ing
ĠAra bs
Ġst ubble
Ġv ows
Ġdisc ount
alm on
Ġactiv ate
Ġast ray
iter ranean
Ġdistract ing
orm an
ĠBel inda
Ġnegot iations
ĠSOM ETHING
il ian
Ġsy ring
Ġpublic ity
asc ular
red it
ĠC opyright
Ġout put
Ġobject ion
' _
Ġmic row
ĠCount ry
Ġexasper ation
ĠBern ie
C ool
ĠG ideon
ĠP ere
Ġdiff er
ĠMor ning
N As
Ġgl azed
ĠKar ma
ĠYesh ua
ha y
Ġch ron
Ġrout es
Ġshy ly
s upp
ĠBr ick
Ġhot els
Ġve t
! ?"
ĠF ried
Ġman ages
Ñĭ ÑĢ
Ġapost le
p ie
Ġr ally
Ġserious ness
ON T
ĠF ac
Ġeth ics
Ġvari ations
Ġd wind
Ġjoy ful
Ġi Ã§
ĠSo ft
Ġaccept s
Ġdist ressed
ĠScott ish
ĠStud ies
Ġcrack led
c us
ĠKnight s
new s
ous ed
Ø ·
ight ed
ey e
Ġsymp ath
Ġparam eters
Ġbar ric
ĠÎ ¿
Ġbrun ette
Ġlo ans
Ġso d
pass ing
Ġà®İ à®©
Ġdo s
Ġprolong ed
Ġwa vy
Ġcere al
Ġbe f
Ġy o
ĠG areth
ĠS ut
Ġpub lish
Ġprof use
Ġ Ñĸ
ĠZ ion
ĠFle et
L L
am us
uper t
Ġw renched
Ġd y
Ġdis ad
Ġrep aired
if iable
AS E
Ġo st
Ġcompl ied
Ġbond age
Ġass ail
Ġacknowled ging
ĠAud rey
Ġv oted
Ġmon astery
ĠVen us
ĠÙ ĩ
Ġtrans m
Ġfa e
Ġdisgr ace
od ding
Ġelement ary
ĠMont ana
Ġlaz ily
Ġcompens ation
Ġlegis l
Ġflex ed
Ġspraw ling
K now
ate red
R ick
Ġfl icking
Ġnurs ery
cess ion
Ġdep ressing
b ott
Ġr idden
Ġz ipped
Ġ !
her ry
Ġv iolet
Ġn agging
un al
ĠO dd
Ġopt ed
Ġdod ge
H igh
00 00
St and
ĠAmb assador
A round
ĠS ounds
ĠO P
Ġgener osity
ĠSw ord
ĠLes lie
Ġover th
Ġopp ression
Ġinv alid
ĠGl enn
re rs
Ġpar amed
ĠTh under
air y
Ġpol ar
Ġanal ogy
C ra
Ġadminist rative
Ġthrob bed
Ġfav ors
ĠWes ley
S ally
Ġconf irming
gg ers
C y
Ġspar ked
Ġjust ification
Ġspecial ist
o i
ĠFal con
P s
d ependent
Ġl ava
Ġbrand y
ĠW W
Ġpass ions
Ġpres umed
Ġsat in
Ġcivil ized
nd el
Be ck
D un
Ġtw inkling
Ġtr immed
Ġaw fully
ĠDep uty
Ġtw ists
ĠMod ern
fall s
Ġpoison ous
ĠPak istan
Ġli zard
ĠSt re
Ġsat chel
Ġbl aze
Ð° Ñħ
Ġm op
ĠCa esar
re a
Ġh ides
ĠHar mony
N eed
s ky
ĠA ub
ĠP ack
Ġqu ir
Ġrem oves
Ġinn ate
E ll
ig ma
Ġadm itting
unt ered
Ø ¥
ĠSome body
Ġdescri ptions
B est
L isa
ul sive
sl aught
ot ent
Ġen raged
Ġsec ular
Ġsick ly
cer pt
Ġchar red
Ġcoll ided
For give
Ġpersec ution
n amed
Ġbl ah
Ġworth while
ĠMar ilyn
p aper
umb ing
ĠRe iss
Ġcyl inder
Ġa ug
Ġth ugs
Ġdoor kn
ang es
ĠSt ock
ĠS ah
th ird
ky o
Ð¾Ð ¶
Ġmission aries
Ġaccess ed
Ġemp hat
Ġhast y
Ġmiser ably
ĠD ol
Ġr ue
Ġstr icken
ĠCl ive
Ġimmort ality
Ġdisappro val
Ġmag ically
Ġinf irm
Ġemb ro
ĠC ade
ink er
Ġpar ap
m us
Ġal arming
ither ing
Ġst ump
ĠSt ories
Ġbag gage
ĠS ierra
ĠP I
Ġqu ivered
Ġun z
Ġbuck le
Ġimplement ation
in ence
Ġg ears
ĠSab rina
Ġchat tering
Ġlo af
Ġmed ieval
ĠHigh way
Vin cent
ĠWh is
p ace
ĠH undred
Ġspeed s
Reb ecca
Ġsa untered
Ġsqu inting
Ġsec uring
Ġpack ages
Ġrob bery
Ġloo sen
ĠClint on
Ġsal iva
Ã§ Ã£o
ĠRob inson
Ġbe et
ĠAd v
mar ks
H um
ĠF eel
og s
Ġth umped
Ġbunk er
it he
Ġbas in
Ġrecommend ations
A pril
m g
Ġv ase
Ġrest rain
Ġuncle an
m os
ir ies
Ġv antage
ĠF ant
Bl ake
Ġdumb founded
Ġhand les
Ġadapt ed
L ev
Ġh ub
Ġcontribut ions
M T
st ained
ĠA res
Ġcas ino
Ġmod erate
Ġthick er
if ted
ĠMom my
D NA
st ones
Ġam ate
An nie
Ġmel anch
Ġflex ible
S D
p ical
Ġref usal
Ġpossess es
Ġdisgu ised
ĠAl b
Ġcheer le
E ight
bet ween
B R
H urry
Ġsk ipping
reg ulated
co al
Ġincred ulously
ĠD AY
ĠEld ers
Ġglim ps
E asy
om atic
ĠN ixon
b able
Ġpr istine
br own
ĠIraq i
Ġdazz ling
s pl
Ġgri ps
le men
Ġread ings
Ġhost ility
Ġ199 2
ĠSel ena
Ġd ia
raph ic
Ġdis he
Ġinflu ential
u u
ĠH ob
Ġon ward
Ġprem ises
Ġtel esc
1 01
Ġport able
Ġtur key
Ġw idespread
ull ivan
Ġuncom mon
Ġadv ocate
Ġn uzz
im ented
Ð°Ð ³
E ng
Ġref rain
az ine
Ġdist aste
ĠL is
Ġsw itching
Ġ4 00
Ġobliv ion
Ġl air
Ġill usions
Ġgro ve
Ġmerc iless
Ġmerc hants
Ġcamp fire
Ġpre lim
ĠHer o
im ore
Ġse eped
Ġref ined
Ð» Ñı
ĠE k
Ġda is
er k
Ġmin isters
ĠMed iterranean
Ġmos quito
Ġgru esome
j u
Ġg urg
Ġso ak
ĠK ra
Ġp ang
are z
Ġpres ently
ĠSub jects
at ics
ĠDe x
Ġaim s
Gl ad
ick ers
von ne
ĠCar ly
ĠDam ian
ATION S
Ġexpect s
Ġblast ing
Ġch ore
Ġsl acks
ĠFair y
Ġmar ine
C ase
ĠH ir
St u
Ġt icking
ĠS ER
ĠN OW
Ġrec ited
Ġlux urious
Ġde ft
ĠFore ign
z an
ĠG ert
ĠF ate
ort on
Ġemphas ize
Ġdeal ers
Ġcomb ine
ec c
Ġinter medi
ĠGen er
ĠMaur ice
Ġmust ache
ĠImm ort
3 00
ĠBe hold
Ġprim al
inn amon
fl ower
Ġl ords
ĠM ethod
Ġsc oop
Ġbusiness man
ĠT hal
ist ant
Ġcan al
Mar ie
Ġfoot prints
ĠWitness es
Ġspi ked
ĠF lynn
at ement
us a
Ġmurder ous
F OR
and ering
ĠL one
Ġac ids
Ġtherap ist
Ġm uzzle
Ġdim med
Ġ199 1
Ġinadequ ate
Ġsoc ially
Ġhighlight ed
Ġpit iful
Ġcaf e
ĠC ly
AN S
Ġpercept ions
Ġsl ash
ĠD ue
unt il
Ġgren ade
Ġass ortment
Ġcart s
Ġtact ic
ĠFort y
ĠScarlet t
Ġmy riad
v ag
Ġre inc
Ġter race
Ġacqu is
Jere my
Ġpsychiat rist
Ġmar veled
Ġw ow
Ġd uel
Ġtr actor
Ġimp ly
not e
ĠEv ie
Ġmechan ics
Ġ6 6
F ort
ĠB ul
Ġinsul ted
clam ation
c op
Ġste ward
ĠHar ley
Ġcleans ing
Ġcorrel ation
f elt
Ġb ony
Ġpl ush
Ġund one
Ġban ana
che ck
Ġtact ical
Ġblend ed
Ġinterven e
ab ling
Ġbrid ges
ool s
Ġpass word
Ġord ained
Ġglist ened
Â Ń
ure l
Ġpe eling
Ġhold er
ĠE U
ĠU rs
Ġrequ iring
Ġorig inated
Ġassass ination
Ġp salm
Ġv iable
Ð¸ Ðº
ĠCher yl
ĠPen elope
Ġp ud
Ġknowing ly
Ġrese mble
Ġ Ñı
Ġhurry ing
ĠSpr ings
ab olic
Ġmathemat ics
ĠDe vin
an es
am ar
ĠOn es
Ġhit ch
Ġtorn ado
ĠTe le
Ġfragr ance
Ġsimpl er
M ur
Ġopp ose
Ġdis par
Ġetern ally
B A
Ġacc use
Ġer ad
Ġincred ulous
Ï Ĩ
ĠW alk
Ġmet ic
ĠDen ver
ĠA less
R y
U gh
p df
Ġcruc ifix
d r
Ġwid en
H ot
pha lt
Ġhomosex ual
Ton ight
Ġup s
av age
ĠW ren
end ix
ĠJer icho
Ġconfident ial
ĠB uff
ĠE ND
Ġmagic ian
Ġpul sed
j ack
Ġaud itor
Bel ieve
Ġsom ber
Ġsc am
Ġtri pping
Ġming led
Ġhus ky
M ia
Ġb rig
ex cept
ãĤ ī
Ġproject ion
oc used
iped ia
le igh
W il
Ġgrate fully
Ġon slaught
inc o
Ġded ication
Ġv Ãł
Ġpsych o
Ġbak ery
h oul
ĠC AN
ĠW on
ob ic
ĠDor othy
irit ual
Ġdisp osition
Ġartif acts
Ġsqu eal
ĠB att
Ġquiet er
ĠBudd hist
Ġpl ugged
ĠO regon
cept ible
Ġview point
ĠÐ ľ
M um
Ġp int
ĠãĤ Ń
_ ...
ĠT rou
Ġend lessly
es see
Ġab duct
Ġber ries
Ġr ash
Ġadvis or
F ree
ĠD ata
ast rous
Ġmind set
ĠCur rent
Ġpl aster
Ġfl ustered
Ġmarking s
I OUS
an as
Ġgl oved
ano ia
f inger
Ġm ating
Ġsoot hed
Ġseduct ive
cy cl
Ġcarc inoma
Ġcy ber
Ġrestrict ions
Ġchal k
Ġscramb ling
is ers
eless ly
Ġsn acks
OW ING
E st
Ġsp ike
Ġbra ke
li hood
S R
ĠUnivers al
Ġm ajestic
Ġmor p
Ġscr unched
ĠBrother hood
Ġh ilar
Ġsub ord
par able
Ġpul s
Ġcr ater
Ġdiscover ies
ĠVir gil
S et
Ġcommun ion
ĠMic ro
ĠSpirit ual
S I
erm aid
Ġsubject ive
Ġvib rating
ĠL ulu
ĠSim pson
Ġscrew ing
Ġmanufact uring
Ġuncons ciously
Ġg ash
Ġwith stand
ĠD ance
Ġch á»
iz ers
ĠVal eri
ĠM ale
Ġby e
Ġdistinct ly
UR R
Ġpoll ution
b ank
Ġint ending
ĠFriend s
Ġse ating
ĠD iamond
Ġcomprom ised
Ġno is
b ud
Ġ_ .
Ġcaval ry
Ġsil very
ĠS ent
ĠB iblical
anc ies
Ġbur ying
out heast
Br other
Ġen ables
Th ought
Ġgaz es
P ublished
ĠW ILL
Ġco herent
Ġban ished
Ġfe ud
Ġmut ter
ĠAsh ton
iron ments
Ġa verted
ĠH IV
ĠH aley
Ġpost ers
ĠEmer y
H ome
Ġvict orious
Ġcon ception
ĠUn it
ĠPer ry
Ġho isted
Ġirrit ating
Ġgr unts
c ard
Ġplun ge
ens en
U se
Ġfo oth
Ġprob able
ann ie
Ġanalys es
P erson
Ġviol in
Every body
Ġr uffled
Ġfore arms
Ġspr int
Ġoblig ations
o kes
Ġc ens
Ġab er
ĠKay la
Ġdiplom atic
H uman
n ia
ane y
ĠJeff erson
Ġup ro
Ġlim ped
ĠEle ven
all s
Ġsie ge
ĠB ree
pic uous
Ġdisturb ance
Ġperipher al
Ġban ner
Ġsl o
W O
Ġab l
ĠBro dy
Ġvolcan o
ĠCom puter
ri ah
Ġsh ined
Ġd ances
Ġmur ky
on gh
ĠZ ero
gen er
ĠQue ens
Ġregret s
Ġb ile
Ġresemb ling
Ġthe ology
is ations
Ġout doors
gu ided
Ġgra veyard
Ġillum inating
Ġprem ature
C hase
Ġconf use
Ġbas ics
Ġscrib bled
C a
Ġstr ung
t urned
Ġc er
ak in
angu age
Ġcho pper
Ġfinanc ially
Ġb ats
Ġintimid ated
Ġbound s
ab il
pl aced
ĠSt ars
ĠDer rick
s un
Ġknock s
Ġsneak ers
Ġhamm ered
ĠO z
Ġp ens
ĠShe m
ĠSam son
Ġkilomet res
ĠØ ³
Ġlog o
Ġmal ice
Ġgre ase
Ġbar b
Red acted
Ġt ending
Ð½ Ð°
Laur a
Ġess ay
ra wn
ĠCl osing
Ñĥ Ð»
Ġhospital ity
Ġfrag ment
k ah
orm s
Ġscul pt
Ġfire works
Ġban king
ĠÑģ ÑĤ
Ġprof itable
Ùħ Ø§
Ġfrig id
ri ka
ĠNick y
Ġsexual ity
ĠLeon ard
every thing
EL Y
Ġas phalt
Ġle veled
t ry
ĠValent ine
Ġadul tery
augh ing
ĠSimilar ly
Ġ ä
Ġw atered
Ġwa il
Ġir regular
wr itten
Ġa uf
ĠF est
ern o
ĠJoy ce
n ames
s chool
Ġp ork
ĠB irth
Ľ i
ater n
ĠWas n
ĠSp ider
Ġic on
Ġmisunder standing
x ed
ĠT A
ĠH osp
Ġsc ans
Ġun limited
ĠK u
G A
ol ics
ure n
Ġinvestig ator
= =
i our
ĠM is
ĠHe m
Ġpur red
Ð¸ Ñģ
ĠPers ian
ĠJ ak
Ġfamiliar ity
Ġplat oon
Ġambit ious
Ġscree ch
Ġairl ock
AT H
Ġimpl ant
A z
ĠA im
ift ies
B L
Ġt ilt
it us
rou ded
apt ure
rin th
Ġwond rous
Ġd ice
Ġun av
ĠRob bie
Ġenter prise
Ġfl ank
Ġins ults
Ġcram med
ĠEug ene
Ġspot light
à¤ ®
Ġregist ration
Ġjog ging
ĠS ty
ĠC ave
ĠK an
ĠC ris
Ġ- "
Ġgra pe
ĠWill y
c ott
it ous
reat ic
Ġcont orted
Ġdis astrous
Ġshield ing
J ud
Ġins istent
ÅĤ em
ened ict
ĠLaw s
skin ned
ci pl
Ġunc har
Ġdisp ersed
cl ip
Ġun rest
Ġque ue
Ġb atch
Ġse eping
Ġlook out
ĠS end
Ġdoorkn ob
ĠE L
Ġco ke
Ġindul ge
w atch
Ġo ceans
ĠT ak
bre aking
F ire
ĠCh ip
K elly
m ac
it utes
Ġn ort
ĠRe ggie
ĠB rain
ĠLord s
Ġstuff ing
Ġfarm house
Ġcro aked
Ġtorment ed
Ġcogn itive
E P
Ġno b
Ġm ugs
Ġbl ues
Ġred und
Ġsurf aced
Ġfl urry
Ġgra pp
Ġimper ative
Ġm un
Ġpar ks
UL L
Ġsuper hero
Ġann ouncing
Ġhost ess
ĠDam on
ou ri
Ġswear ing
Ġstead ied
Ġbob bing
Ġhand bag
Ġatt ribute
ĠFA O
Ġro aming
Ġid ly
Ġproceed s
P assed
Ò ±
Ġex iting
ĠBel ie
Ġhoney moon
T alk
Ġheight ened
Ġth orns
E ither
Ġin jected
ĠM age
ĠB ased
Ġsub way
L ee
ĠM ahrree
rom agnetic
ĠEx am
Ġprod ded
es a
Ġdist ances
Ġpanc akes
Î ¸
Ġb ishop
IT ION
Ġd aze
le i
Ġde arest
ject ive
ĠAndrew s
Ġecst atic
m ag
Ġcorrupt ed
ood le
B less
ĠB ureau
Ġclar ify
Ġhier archy
ĠC it
g as
Ġwas t
Ġbl aring
Ġrel ied
b us
Ġinhab ited
Ġg oof
Ġdry ly
Ġmel od
n u
ur ated
Ġdon key
Ang ela
IK E
ĠR ae
Ġsweet ness
ĠJ T
Ġcan cel
Ġorgan ised
s erv
Ġins isting
t il
Ġ \
Ġliber ation
Ġbaff led
ell o
Ġbl and
u ly
ic on
Ġfore ns
Ġwing ed
Ġdelic ately
Mor gan
in ty
Ġsu ic
Ġcomp ounds
Sur ah
Ġveter an
ĠT i
ro ads
Ġsigh ing
ĠÐ¾ Ð±
ĠCher ry
ĠTIM E
n ah
Ġh iring
og ical
Ġcu be
Ġstrang led
ĠFif teen
ĠE ternal
ink y
Ġcre aking
ĠE lf
ap a
ĠEn vironment
ĠMad eline
Ġfacil itate
Ġlod ged
Ġgogg les
- )
ĠGr acie
Ġfert ile
Ġlist ens
AR K
Ġgloss y
F ollowing
Ġbr ink
oles ter
Ġenerget ic
m and
og any
ĠZ ac
Ġproduc er
he im
Ġal iment
Ġgu ild
Ġimp ass
Ġaut on
ĠMar ion
Ġpret t
ĠCl an
ĠConf ed
id ian
acher s
Ġoper ational
Ġst itches
ĠThe ss
ĠAr cher
Ġide als
with out
Ġsl ut
Ð° ÑĪ
à¯ ĭ
Ġnic er
ĠC yn
ĠBe gin
Who ever
a pped
ĠG is
ÑĢ Ñĥ
reg ulation
Ġa u
Ġrad iating
ĠCould n
hh h
ĠD illon
Ġdet on
achel or
Ġlegis lation
ĠC ou
Ġprejud ice
Ġtreacher ous
Ġbeha ved
Ġmonit ored
Ġn Ã£o
ĠW ang
f lo
Ġsl ing
du ction
ĠBro oks
ĠSyl via
Ġspecim ens
Ġst a
Ġ6 4
en vironment
Ġprospect s
Ġord in
ĠDes mond
Ġwe arily
iet er
fort une
Ġsplend id
Ġf usion
Ġfl ailing
Ġmor als
Ġcomment ary
Ġen lar
Ġexcept ions
ĠL azarus
Ġment ality
semb ly
W E
Ð¾Ð ·
zz led
Ġover grown
Ġdivers ion
Ġhor rid
Ġg agged
ĠC ana
Ġpe asant
Ġhe ft
ĠMax well
Ġphotograp her
Ġbl aming
Ġquer ied
Ġdisc ont
00 1
Ġex its
Ġcolon ies
I d
Ġb osom
c ore
Ð´ Ñĭ
ocr acy
ĠSan ct
Ġdomin ion
Ġcler gy
ĠB ou
Ġdown stream
Ġmount ing
udd les
Ġto ken
Ã¢ d
ĠAng us
M M
Ġcloud y
th odox
Ġar bit
i ably
it ri
Ġ1 01
Ġguard ians
Ġha ting
ve lled
ab lo
Ġsum mit
Ġtext ure
Ġd ashing
ĠIN TER
Ġ198 8
ĠMig uel
S upp
Ġl akes
ke eping
Ġrub s
ĠEn ough
Ġban ned
ĠVictor ian
T T
Ġc od
Ġment ions
Ġsa gged
à¯Ī :
Ġextend s
Ġrans om
ith s
ĠCourt ney
d ark
ĠS kin
Ġfl ask
Ġinc ense
ĠR ene
g am
Ġro am
Ġcarn age
Ġhand gun
Ġcre ations
ĠHam mer
pe ace
ĠTr ade
Ġinad vert
S an
ĠK as
ĠDor ian
Ġwork out
Ġha cked
Ġbl adder
Ġgood byes
Ġ5 9
Ġpop ulated
Ġcelest ial
Ġa kin
ĠG w
Ġrecoll ection
he y
Ġne c
ĠLeg ion
pt uous
Ġcoc aine
ĠCar ib
Ġport ions
Ġcounsel or
Ġmarvel ous
ĠDel ilah
Ġgirlfriend s
Ġbe an
Ġsimpl icity
b as
ay ers
br other
ĠZ eke
C ong
ĠE hl
hel p
Ġtent ative
Ġoverfl owing
ĠHe aring
ĠCommun ist
Ġhandc uffs
Ġprofuse ly
l ich
Ġund en
T ube
Ġc Ã³
Ġbe ige
Ġscholars hip
ĠRap hael
ĠJ es
ĠAg nes
ĠBre thren
ĠGree ks
Ġdef ensively
Ġet here
Interest ing
Ġt ad
B ra
Ġvol untary
ĠRon ald
ĠAut umn
Ġinterrupt ion
Ġbeard ed
P ol
t alk
Ġcontempl ation
ĠD rive
ĠP on
Ġobl iter
Q ue
Ġbr ute
ann on
ec han
Re f
ĠHa iley
F ear
Ġexam s
d ec
ĠA ction
ĠP ir
C r
Ġpr iceless
lic ia
ĠKrish na
Ġautom ated
Ġglimps ed
Ġh obby
ino is
ĠL ester
cer y
Ġed iting
ĠEm press
Ġexhib ited
ut eron
ob y
ĠGl ad
ĠLu is
Ġpsy che
Ġwh it
Ġadj o
Ġdomin ance
ĠTal ia
ĠGirl s
gor ith
ĠJ ab
Ġen l
Ġfree zer
ĠHere after
Ġune ase
ĠRog ers
Ġrabb its
Ġout n
ĠK le
Ġbra very
Ġtow ered
Ġselfish ness
L i
Ġoper a
Ġsk ins
Ġimpact s
ar ians
ĠO w
Ġact ress
ĠLar ge
ĠBeaut y
Ġz oo
Ġris king
ĠF iction
Ġband its
ĠCla ude
Ġglyph s
Ġ1 000
Ġdissip ated
Ġtresp ass
sel s
Ġgate way
ĠHud son
Ġconv icted
Ġpal p
T ed
ĠT ia
Ġt aped
ĠRet urn
Ġfore b
und y
ri ls
do ing
ubb a
ĠProt est
B S
Ġp earl
ir us
ĠN G
Ġunbelie vers
ĠAlf ie
Ġf ont
Ġsh itty
ĠJud as
ĠRog ue
Ġcalcul ating
ĠMar vin
Ġpe ep
Å į
Ġst am
ĠThe resa
est e
Ġbreath taking
ĠHol mes
w ait
ber ing
Ġbul ky
y en
ĠB ast
ig ator
Ġgra zing
Ġdep icted
ĠVamp ire
Ġlike lihood
ĠBl ade
Ġupd ates
Ġmant le
ĠT iger
Ġimp ose
rah im
s at
Ġsub mar
Ġdomin ate
Ġphilosop her
Ġa er
Ġs ow
ri ana
Ġer ased
Ġincom pre
lah oma
gr in
Ġinf lamm
Ġdeb ated
ĠShir ley
ul ates
Ġgr am
de us
L ogan
Ġp aved
Ġprov ince
Ġimmig rants
Ġpled ge
Ġt aps
reg n
Ġaston ishing
Ġse cluded
Ġheart y
Ġtopp led
Ġmemb rane
u gging
ĠW ake
ĠT un
Ġflag s
Ġdep rived
Ġforth coming
Ġ ....
li ked
ĠF EMALE
Ġlight en
Ġt á»
ad ia
Ġpract ition
Ġinvol untarily
ĠCon sequently
Ġfright en
Ġreass urance
Ġplatform s
Ġtranqu il
C lear
Ð¾Ð» ÑĮ
T or
ĠS alem
Ġu l
ĠG le
Ġinspect or
accept able
Fur ther
so ft
Ġra pt
ĠV era
ip ing
Ġrem edy
Ġprivile ged
" :
Ġcl ap
ĠSe ems
Ġnumb ered
W ay
Ġhero ic
Ġmemor ial
Ġam ulet
ipp ers
Ġrot ation
Ġconvey ed
ĠGab by
rous al
ha v
ast or
op ened
Ä± z
ĠMar issa
Ġjo ins
ĠTH R
ĠD in
Ġear rings
ĠR EC
Ġtra ject
Ġir resist
Ġwed ged
ĠI g
Ġsha m
Ġplanet ary
Ġprev ail
Ġdeterm ining
Ġtwe ets
ĠRe alm
Ġcoo led
Ġk i
Ġj ost
Ġemb ry
Ġc ured
ik ipedia
á½ ¶
EE P
ĠAly ssa
uteron omy
Ġse ren
Ġco arse
Ġwhim per
t ub
ĠChair man
Ġrec ite
ant is
Ġread ied
ĠTer ra
abet es
Ġbus es
ĠKat y
Ġcompr ised
il ib
Ġ7 2
Ġcl it
ĠAb bi
Ġprost itute
s ac
Ġg or
Ġshred ded
Ġkn otted
ĠB ec
ich rist
ĠAlex a
ĠW elcome
Ġresist ing
à§ į
Ġscrub bed
Ġdiscou raged
are l
Ġear shot
Ġho pping
Ġremem brance
HE D
Ġrecord er
Ġdiscrim ination
Ġenchan ted
ĠT itan
ĠB ess
ĠMe eting
Ġrail road
Ġal igned
Ġright ful
Ġind is
lic ation
Ġlan es
ĠHawai i
S leep
ĠA qu
Ġyear ning
ĠTo kyo
ĠAgain st
Ġdru gged
y ah
Ġbl azed
Ġmyth s
Ġsh ivers
ĠE D
Ġing en
ĠS ep
d ep
ĠC oke
we alth
Ġfurn ished
Ġsort ing
Ġtim eline
ason able
Ġdens ity
ĠE RE
Ġcam el
Hebrew s
Ġh ooks
Ġre eling
ion ed
ĠM ord
Ġprogram mes
Ġ ï
Ġg ems
ĠPol icy
Ġv oters
ĠSav annah
Ġsuperf icial
Ġst ooped
Ġshel tered
ĠKeep er
Ġs all
Ġgr otes
Ġran king
Ġconst ra
Ġspecial ized
S ent
ĠR ak
Ġhur ricane
Ġadd icted
ad as
ĠBy ron
ĠB io
ĠChrist ina
ĠBel ow
am el
Ġtw inkle
Ġgun shot
ed uc
Ġcry pt
Ġstiff ly
ĠFour th
Ġam mo
ĠBr an
Ġb umping
ĠH unt
Th or
ĠTW ENTY
Ġchar coal
D oc
ĠS ire
ag ar
are ly
Ġobject ed
Ġscra pe
ĠSH AF
Ġqu otes
et ch
ĠS od
Ġdef iantly
Ġgrow ls
Ġconduct ing
Ġrevolution ary
Ġrebell ious
U TH
Ġunder way
Ġsc attering
Ġorc hard
Ġrel ates
land o
Ġpin ning
ĠTru ly
Ġh ush
Ġint est
Ġsy lph
Ġrot ating
Ġ- +
Ġacadem y
ĠH ab
ĠãĤ «
ĠJud a
Ġdod ging
fol io
Ġland lord
Ġlunch time
Ġalter ations
Ġwha le
Ġpr inces
Ġsha ve
m atic
ro it
ĠÎ ³
Ġmesmer ized
if ier
ĠM aj
ust ain
ĠAt hens
Ġbur ger
à¤ µ
Ġlist ing
st ered
Ġsqu aw
Ġsent ient
ĠS hen
Ġunt h
Ed ward
Ġdiam eter
Ġd ans
Ġth irties
ĠAg ric
Ł ãģ
Ġd ived
Ġsu nd
Ġign ited
Ã¢ z
Ġcho ir
Cass ie
ar o
Ġspread s
Ã¼ k
D ude
Ġin ert
ĠC amb
Ġhigh lights
Ġsed an
Ġnarr owing
Ġsquare ly
ĠC het
Ġj ets
Ġexplos ives
ĠS uccess
Ġsp erm
Ġpop corn
Ġorient ation
Ġmad ly
ĠCall i
Ġyel ped
th ood
Ġass es
Ġtang le
A k
e lect
Ġs idel
otion al
Ġf el
er red
et ts
ĠRos al
ĠSav age
Ġreserv ations
Ġrep rim
Ġsin ned
Ġgra zed
Ġeng rossed
ĠEx p
iat ric
Mus ic
iche ver
it ra
Ġsn iper
Ġinf amous
be e
Ġblack mail
Ġa us
ĠB oo
Ġtast y
Ġribb ons
ĠBax ter
V A
ĠC ut
Ġcoll ision
Ġblast s
F ore
G ING
Ġdo in
ĠRichard s
Ġslam s
Pat rick
Ġn ailed
ur ia
ĠLe aving
it is
Ġbegin nings
Ġwid ening
Pro verbs
aly st
ĠL un
Ġfe igned
à¤ ¯
Ġ198 9
Ġbutt ocks
Ġa rousal
Ġno bles
Ġcroc od
? ...
Ġcross bow
Ġsepar ately
Ġvo iced
Ġat omic
ĠH i
ĠAl aska
ĠR az
ac i
aw ing
Ġdesp ise
ĠC itiz
Ġmain stream
Ġpred ators
Ġiv ory
Ġbra id
Ġafter math
cel ain
Ġefficient ly
Ġripp le
ĠT ib
let t
Ġprogress ive
lar Ä±
Ġneighb oring
Î½ Î±
ĠId ent
Ġsovere ign
Ġindign ation
te e
Ġsy rup
ĠMed ia
Ġduck s
Che ck
Ġwhere in
H y
ging ly
Ġpointed ly
ĠGl ancing
ĠM inn
ĠChar ley
Ġimmense ly
Ġso aring
Ġdef ault
cha nd
Ġult ra
P a
Ġg iddy
asc al
ĠZ achary
Ġbrain w
rit ical
g art
Ġfast est
ĠSw iss
ĠGr anny
P rom
st ant
Ġwat ering
Ġtur bul
Ġincom plete
N on
P K
Ġrooft op
g ia
g ically
ĠMan ager
Kat ie
Ġende avor
Ġbatt ling
Ġplag ued
Ġan ew
ĠB UT
Ġrot ated
Ġentire ty
ES H
ĠSen ior
Ġstrengthen ed
Ġpl ausible
ĠSc out
l orn
Ġle aps
Ġsp heres
ĠK hal
T A
Ġnow adays
ell s
Ġpolic emen
uc ent
Ġpred omin
F ace
Y up
ĠW u
Ġinv ading
Ġexp elled
ĠMist y
Ġunf inished
f if
B ull
f ed
Ġbar rage
het ti
Ġperspect ives
Ġy anking
Ġgo ble
S u
il ate
Ġwatch ful
Ġpor celain
ĠMon roe
Ġmicrow ave
Ġanticip ating
Z ach
ĠP ART
Ġem itted
ĠTim my
Ġapolog etic
Ð°ÑĤ ÑĮ
Ġsurg ical
Ġpl ight
atic an
ĠMan uel
Sc ar
est ab
ĠGrand father
Z e
ood les
rie ved
Ġchest s
Ġf ug
ĠBor is
Ġprelim inary
il and
## ###
Ġimm ac
ĠNe al
ipp i
ĠÑ Ī
Ġrel inqu
Ġroll er
Ġforg iving
ĠB ir
Ġinf l
ez vous
Ġveloc ity
ing le
Ġd re
Ġdis asters
we ek
ĠBow l
Ġmelan oma
S k
as el
Ġin mates
ion al
ĠC OP
Ġret ribution
Ġred head
Ġstall ion
Ñ Ħ
Ġg ad
Ġevolution ists
ĠâĢ ı
t elling
Ġre ap
ĠOF F
Jon athan
Ġus age
Ġscr amble
Ġtrad em
tw itter
f act
Ġp ension
Ġtrou bling
Ġcro ok
Ġwe ave
Ġmean while
Y ea
ĠCh in
Ġfound er
ĠEd win
Ġaward ed
c ur
Ġcher ished
Ġprofess ors
com mun
ĠWr iting
ĠTon i
M od
ha an
health y
Ġprop os
Ġshimm ered
Ġha cking
Ġearn estly
Ġtodd ler
ĠEhl ana
U U
Ú ¯
ĠM ate
ĠJ ase
ĠKe eping
ĠT ay
Ġsuper market
Ġmeasure ment
ill ac
ĠN ames
pt y
Ġp its
Ġpar anoia
Ġbl oke
Æ°á» Ŀi
ĠP assed
Ġfl aws
ĠJac ques
f o
Ġst ash
ge nd
ĠP ic
Ġad ored
Ġbur dens
e ffic
Ġcoun se
Ġmusic ian
ĠF ra
all a
ĠG iving
uc he
Con clusion
W in
Ġe er
anth rop
Ġg ushed
Ġout fits
Ġpro bing
ak u
Ġthr ashing
Ġviol ated
es cend
ĠIb n
c oll
ı ãģ
Would n
L or
Ġwh ir
Ġtrust worthy
Ġdoc umented
Ġvoll ey
Ġtender ness
Ġreco iled
let ter
Ġenv ironments
ĠGl ass
Ġalley way
Ġfurn ace
Ġmal icious
interest ed
alle ys
Ġschem es
le te
Ġpast ure
Ġco iled
Ġhot ter
Ġexceed ingly
Ġsomet hin
Ġperson a
ĠT iny
Ġtherap ies
ĠP ER
ĠSil ence
ĠKore an
K aren
ĠN ative
Ġstill ed
Ðµ r
ik er
Le on
ĠTenn essee
Ġh inted
ĠJ as
Ġsn ug
Ġinvestig ations
Ġexplo it
H aw
Ġmind less
Ġsk im
Ġimplement ed
ĠDest iny
Ġe Book
ĠO mn
Ġstraight forward
Ġstraw berry
s u
Ġmer ged
Ġimpress ions
Ġkin ase
ĠD J
ĠR upert
ĠRel ations
Ġgrotes que
Ġsense less
Ġlad en
SC LC
ĠAir port
ĠIsland s
Ġres erves
Ġuniform ed
Ġauditor ium
i ological
ĠPe ggy
ĠIn v
Ġstar ve
Ġlow ly
Ġspec ially
Ã© e
Ġban quet
ĠIll inois
Ġu ma
Ġinspect ing
Ġso ckets
Ġar ist
Ġp ads
Ġtrans gress
amb oo
Ġhands hake
Ġcock y
Ġwrest led
ĠB il
oc he
ather ing
ĠAre a
ĠS ey
Ġcra ved
osp els
By e
Ġconce ive
Ġar chers
ĠMic hel
Luc as
K ill
Ġhum ankind
Ġcommun icated
Ġaf ar
verse ly
ĠMack enzie
Ġsun s
H ang
Ġsc aring
Ġmis le
Ġstom ping
ĠHoll and
Ġsubmer ged
S pec
Ġr anc
Ġro amed
Ġ20 20
Ġsweats hirt
j in
ĠK ha
Ġdisc retion
Cam eron
in ous
ĠM am
Ġinquis itive
b org
al so
ĠSpe aking
ic ting
ĠS ound
ra ine
Ġsp uttered
Ġcar r
Ġinv ade
Ġnonchal antly
ĠP oly
ĠE ly
ĠV ance
ĠJud gment
Ġsoot he
Ġp umps
Ġnot hin
Ġle aking
h s
Ġab ol
Ġresident ial
l iving
Ġc Ã¡
Ġch illing
Ġtre pid
Ġstock s
Ġrhythm ic
Neg ative
ro ck
un ty
rist ol
Ġprophe cies
Ġreven ue
as ms
ĠS ven
Ġachieve ments
Ġfl anked
Ġad here
Ġsne e
ĠBritt any
pp ings
Ġdeal ings
yl um
ĠPro gress
Ġh unch
J une
Ġov arian
Ġsl iver
ĠMiss iss
Ġrumm aged
Ġst out
Ġsyring e
Y ear
l ig
Ġamb assador
Ġnot ep
Ġlim ous
Ġkn e
Ġemb ar
Ġr usted
Ġkind er
ES US
S W
Ġt ainted
Ġren ov
âĢ ķ
Ġdoll s
Ġindepend ently
Ġassass ins
Ġbe ak
Ġwe athered
ĠF isher
Ġw oe
ĠL O
Ġmushroom s
Ġhome made
ĠConf erence
H olly
L ess
ĠA is
ĠCl ose
Ġab usive
Ġalleg iance
Ġscra ps
Ġsaus age
ĠReyn olds
ĠA er
Ġfour s
Ġhand writing
Ġjournal ists
ĠHon estly
ĠNet work
Ġfore cast
S olution
Ġ+ +
ĠL ud
pen et
Ġt ucking
ry stal
Ġskid ded
orm ally
ĠI de
ĠW ing
ĠW ales
Ġtrans pired
Ġinform s
sc ience
ĠDarwin ism
Ġethere al
ent ing
Hmm m
Ġinnov ation
Ġf ainted
Ġbl u
ĠEd na
ĠWH AT
Ġsmold ering
ĠMc Donald
Ġrang ing
Ġbr ushes
ĠL em
ĠIsrael i
C at
ĠÑ ķ
Ġmin ist
h os
Ġvan illa
ha p
ĠRe uben
d ollar
p assed
ĠS ham
Ġcle ars
Ġunra vel
ĠL odge
Ġsw ooped
Ġmis fortune
ut ical
Ġcomm enced
Ġrac ial
im als
ĠD ax
Ã ¹
Ġab normal
Ġseat belt
Ġdam aging
ĠM I
Ġle v
ĠL illian
Ġclo aked
A licia
S el
Ġgas oline
Ġobject ions
m em
one ment
ĠMag i
Ġassoci ations
Ġselect ive
Ġtoler ated
Ġp unk
Ġdisreg ard
Ġbl ot
Ġextra vag
ĠCarib bean
un ned
ced ented
Ġvill a
Ġbed time
ãģ ¨
ĠCha os
ĠPam ela
merc ial
Ġl il
Ġfore s
Ġbum per
ap olis
ĠOcc asionally
Ġimm ersed
Ġsl ime
V ol
Ġsha man
Ġset up
Ġt its
ĠG ol
ĠT ang
Ġskin ned
UL T
Ġe ard
Ġtable ts
Ġsimilar ities
Ġpupp et
thing s
IN K
Ġcondition ed
Ġl ull
.' _
ri ents
Ġgra pes
at ories
Ġst ats
est ing
ĠSc iences
Ġbody guards
Ġsque ak
ĠN im
ĠFl aming
Ġangel ic
Ġcart oon
Ġcollabor ation
l av
ĠR V
Ã¢ b
bor ah
ÐµÐ» ÑĮ
C re
Ġclar ified
ond e
Ġgr aciously
Ġspaces hip
W ater
Ġdi agram
Ġsc aven
Ġmin us
ĠAny a
Ġacknowledge ment
G ET
Ġwa fted
Ġlearn s
ĠSuz anne
ĠA IDS
ick ering
Ġchar ts
Ġv ortex
ĠJul ius
Ġquar rel
ograph ical
ĠH R
Ġsmo ky
ĠPEN IS
c het
ĠDe borah
Ġscru ff
Ġw ince
ĠV iew
Ġforeign ers
Ġpopular ity
ĠV on
Ġvar iable
ĠLiber ty
Ġc unt
Ġsurf aces
ĠThe l
alth ough
ĠDon ny
ĠU m
osy stem
Ġsc iss
read ing
S ch
Ġli vel
ary n
ĠCha l
Ġnew found
ĠSw itzer
Ġbreath lessly
Ã® m
ĠD odge
ĠCh r
Ġshad owed
Ġreply ing
ĠNad ia
R iley
Ġaband oning
A uthor
ĠLe ban
C I
D D
Ġtechn ician
n ox
ĠP arent
Ġsl ate
ang ers
Ġwave red
g os
m ake
work ers
Ġsav ior
Ġsnar ling
Ġsw ipe
Ġdam pen
ĠClar ity
Ġal gorith
St r
L ay
n als
s in
Ġcapt ains
ĠC ool
Ġup hold
Ġspl attered
A ugust
Ġcond om
Ġslim y
ult an
Ġcond escend
ĠSP E
Ġpuff y
Ġhammer ing
P ete
in ement
ĠAs ked
ax ies
ĠH av
Ġinf initely
Ġstri pes
Ġintrodu ctions
Ġyield ed
Mus lim
Ġon coming
Ġk er
Ġsh ines
Ġcre ased
Ġz ip
irming ham
Ġc ents
Ġblood s
Ġrav ine
ĠOk lahoma
ĠSh iva
Ġl ids
Ġcor rection
Ġpost p
Ġsew ing
ĠSw an
g own
Ġcl ones
lo ving
est hetic
epend ence
Ġwh iff
ĠCub a
Ġdoctr ines
ak o
Ġbang s
Ġmelanch oly
em y
Ġh ij
Ġfiction al
Ġsynt hetic
Ġinter tw
ĠDe ck
Ġf ences
Ġcab les
Ġshore line
or o
miss ions
f y
Ġp se
Ġor nam
Ġar k
á» į
Ġpurpose fully
M ama
Ġnight fall
de ath
Ġcomb inations
Lou is
Ġreck oned
ĠST RE
Se ems
Ġfoolish ness
H unter
Ġy ank
Ġequ als
ĠIran ian
ĠR over
Ġmaterial ized
Ġcomp act
anc ial
ĠSp ark
Ġportray ed
Ġtap est
W orld
ĠNat urally
Ġdistract ions
ham med
ĠGray son
Ġclen ching
p age
ro b
ĠQu art
Ġoff ence
ĠMiss y
Ġal umin
Ġmed i
ON D
Ġstress ful
Ġpean ut
Ġha voc
ĠT u
Ġjack ets
Ġtransform ing
Ġshudd ering
Ġrestra ints
ĠSac red
N OW
ĠL ola
Ġel usive
T rying
ĠL indsay
ĠAl vin
Ġelectron ics
Î ®
Ġst akes
ĠR hod
har ma
E arth
ĠQu ick
201 3
Ġapplic able
Ġ á½
ĠT X
Ġtre ason
Ġbr at
Ġdun no
S a
ĠSal vation
Ġconqu est
Ġs ill
ant o
Ġad en
Ġdec ree
Ġsens or
Ġreprodu ction
Ġsoft ness
ĠK os
ĠUn able
Ġinsist ence
F el
H A
ĠF ae
ham ber
Ġquiet ed
ĠT rey
Ġpolit ically
Ġrepe ats
Ġshat ter
Ġp ione
E dd
ĠÐ ļ
Ġbefore hand
Ġprop hetic
Ġproduct ivity
S ho
t em
Ġst agn
ĠM ol
ĠR idge
ĠE sc
Ġgod ly
v ious
io x
Ġeffect iveness
Ġconf licting
Ġclear ance
Ġexha le
D rew
ap ore
Ġemer ges
Ġdub ious
Ġd rought
ib al
Ġmemor able
Ġenvision ed
Ġsel ves
Ġantib odies
Ġstrength s
Ġepit hel
J esse
ĠC ald
ĠG arc
Ġcover t
ul sed
Ġ8 5
Ġadjust ments
Ġancest or
ĠAc ross
V is
ack er
Ġch urned
Ġaccompl ishment
ĠCorpor al
Ġst ony
ĠW heel
ĠH ilton
ĠK on
oh l
Ġsc iences
ĠRo x
Ġball ed
Ġan gered
Ġnew er
Ġp us
Ġp aired
Ġtrepid ation
Ġsp awn
per haps
Ġcr unching
Ġreact ing
ĠG L
Ġth undered
ĠT ol
Ġj an
Ġpe ach
Ġsand s
Ġãģ Ĺ
Ġwithdraw al
Ġprogn osis
Ġpat ent
Ġstraight ening
ĠJan ice
ĠMat ilda
se nd
me al
Ġquar ry
Ġtre nds
Ð¸ Ð¹
Ġripp ling
Ġaccommod ation
Ġtransl ucent
Ġshuff le
Ġb orne
ate ful
ste ady
ĠLand on
Ġha ught
Ġcl ans
Ġtw igs
Ġpe el
Ġent w
Ġunpre cedented
ĠV icky
Ġãģ ĭãģ
ĠHy p
b oth
Ġqu ipped
Ġbel ts
Ġfoll y
Ġgang s
ĠChron icles
Ġun ite
ĠPro duct
Ġ198 4
Ġoptim ism
Ġsty les
Ġleisure ly
Ġany how
Ġcons ervation
Ġferoc ious
st rom
Ġspe eches
ur as
Ġdark ening
A CH
Ġher ald
Ġfam ine
Ġgrand pa
Ġgraph ic
Ġtransf ixed
Je an
Ġpear ls
J ew
Ġcont end
ho ly
Ġp iped
Ġsh ipped
. ).
er ro
Ġgra vit
A f
Ġan ten
Ġgre ens
Det ective
Ġl ousy
ĠHe aling
Ġcont ag
Ġbu ckets
Ġbar red
Ġassist ants
s im
ĠP it
Ġib n
Ġdef ining
Ġdisp atched
oe uv
Ġmechan ic
iy an
ĠWor ks
j our
Ġweight s
ĠBeaut iful
Â ®
A va
N T
an ium
Ġgrave ly
Ne il
Ġbeha ving
Ġtil ting
E z
Ġfin ances
ĠAng er
Ġbear ings
ĠFrey a
Ġaccident al
or c
ĠM ET
Ġex alted
Ġrun g
Ġpol ish
Ġpar liament
gr ad
Ġstar ved
F aith
S ol
Ġvari ants
Ġ12 0
Ġcal am
ĠR ule
Ġplate au
Ġhard ship
g ard
Ġe pid
Ġrecommend ation
P M
our ge
Ġbroad er
h ttps
Ġche aper
Ġdef ines
ĠSte ele
ĠMc K
Ġcle avage
ĠL ock
Ġwhere by
ĠSer iously
ĠMississ ippi
d ate
g om
Ġtent acles
ĠHaz el
ĠD rug
Ġcripp led
M il
ad an
Ġpr inting
Ġprop elled
ĠMil ton
Ġn im
ĠS EC
ĠYou Tube
xt ies
Ġext inct
t urn
Ġc uff
et on
Ġred dish
ĠTe aching
Ġsharpen ed
ĠV ision
Ġadjo ining
Ġmon keys
ĠAngel ica
201 2
X X
Ġbou quet
omet own
Ġinc arn
Ġinit iate
ĠTab itha
Ġunsett led
ace utical
C e
m ak
Ġ6 2
Ġconcent rations
ĠCreat ive
V an
Ġimp ecc
Ġlot tery
Ġattent ive
Ġrest oration
Ġlab ored
Ġinqu ire
Ġbik ini
w ed
Ġsqu ared
Ġfree ing
Ġcre eps
D en
Ġp aled
pr ised
Ġpanc reatic
Ġst aining
ĠStand ard
Ġunim ag
Ġa fore
ĠWe ek
ĠClay ton
Ġblasp he
k ily
Ġg Ã¶
Ġland sc
Ġwhis ky
ĠEd mund
Ġfinger prints
Ġglor ified
Ġdep ict
Cl ose
lar Ä±n
Ġoverc ame
ĠM oss
ĠV ict
Ġwip es
ĠArtem is
U sing
ad ic
c ra
ram an
Ġl atched
ĠW ahr
Ġsl opes
Ġmar riages
Ġcat alog
Ġdefin itions
b earing
Ġm uck
act ing
Ġcomp os
Ġunder go
Ġmar ijuana
Ġlun atic
Ġplot ting
Ġlea ked
Ġafford ed
ĠIn quis
Ġhar p
Ġlif el
Ġtempor al
Ġomn ip
achus etts
P O
ĠS ud
Ġob nox
Ġuncle ar
Ġ× Ķ
Ø ¡
ĠMal achi
ĠEM T
Ġmaneu vered
ĠS au
aph ne
Ġsl ugg
Ġimposs ibly
ĠCam ille
Ġawa its
Ġrecru ited
Ġpe pp
ĠY vonne
ĠEl sa
Ġens ured
iv ating
Th inking
Ġresurrect ed
Ġdrople ts
) ?
ore ct
Ġhouse keeper
Ġconf irms
ien ced
Ġd ass
ĠA rianna
Ġsear ches
ĠSher ry
ĠH ost
ĠD oll
Ġparticip ating
Ġchar ism
Ġin iquity
Ġst inking
vel t
than k
Ġerect ed
p uts
Ġha irl
Ġtw inge
ĠSqu ad
igen ous
ĠDa ily
Ġambit ions
ĠJ et
Ġeconom ics
e be
ĠQu ant
ĠSlo an
Ġdis ability
Ġ6 8
ĠTom as
Tr uth
- '
Ġrend ezvous
Ġdark ly
Ġmiss es
Ad rian
Ġmillenn ia
Jenn ifer
Ġmete or
oc y
ĠTra ining
Ġpant ry
c ap
Ġt am
had ow
yl ie
Ġdorm ant
Ġrefres hed
ĠCru z
Ġp omp
t les
Ġmurm urs
Ġgad get
Ġres ervation
Ġdiv ul
Ġhumili ated
N ame
Ġp ans
Ġ9 11
ĠFred dy
Ġexhib ition
u ers
z ards
ĠChar ity
ĠEll is
C ur
ã Ģ
on ian
Ġanaly st
ĠWood s
ĠBal ance
Ġwield ing
Ġinstitution al
M oving
ĠS ave
Ġab ode
ĠRe ason
ĠCom plete
Ġmetabol ism
Ġgl ares
Ġnot ions
Ġli ability
ĠJ azz
ĠAd ela
Ġformer ly
ĠSwitzer land
Ġsw itches
ran ny
in na
Ġevapor ated
Ġo ri
olester ol
Ġbust ling
Ġadvers ary
Ġl ac
No ah
Ġcomp ose
Ġmet ap
ĠMom ents
Ġcamoufl age
D ead
ĠB irmingham
at able
Ġsuff ice
Ġfla pped
Ġcondemn ation
Ġrever ie
Ġy og
Ġsynch ron
Ġpist ols
in ator
Ġr ins
is an
Ġinf lict
ĠPot ter
w estern
ph rod
for ter
Ġjoy ous
Ġmeasure ments
Ġremn ant
Ġf eral
Ġur ges
ĠMan or
ocaly pse
Ġsimpl est
F ortunately
** **
RE AT
Ġbuy er
Ġunderw orld
Ġsh ores
Ġhaul ing
orect al
× Ķ
ĠEll i
oty pes
ĠVi king
Ġted ious
Ġmos que
S ection
ow l
ĠG ail
Ġinv inc
Ñĥ ÑĢ
M ight
Ġover weight
ĠEd ge
Ġlab y
ĠBalt imore
n ik
ĠS ons
Ġtrans p
Ġexha usting
Ġl aps
Ġgra ins
Ġchar ms
ĠMic ha
Ġimper ial
Ġwob bled
Ġfl ute
Ġcra zed
Ġadvert is
N ational
Ð¸ Ñĩ
m akers
Ġqual ify
Mic helle
od s
ĠNur se
is ance
Ġv ind
sh ots
Ġ6 3
Ġvari ables
Ġdeploy ed
haw k
Ġ6 1
Ġped al
Ġf ades
on al
Ġclip board
Ġintr usion
' ,"
H aven
er ce
Ġl enses
Ġrub y
Ġtend rils
Ġwebs ites
O Y
ĠSad ly
Ġting led
sell ing
Ġinha le
ĠM ina
ĠN igel
cer ned
Ġinadvert ently
Ġpoison ing
Ġdecor ations
Ġ- --
Ġhost el
Ġanticip ate
Ġvulner ability
ĠJac queline
H ay
Ġgen etically
Ġ6 9
hold er
t umor
Ġmir th
Ġwit hered
R id
Ġbe aches
Ġpro verb
Ġbare foot
Ġãģ Ħ
Ġindust ries
Ġmant ra
ĠAch illes
ar ound
Ġcra b
Ġlow ers
ĠEn joy
f ig
Ä± m
Ġprop ortions
Ġfavor able
ĠKe in
AM ING
Ġcav ity
Ġdischar ged
ĠP O
ĠVer se
á¹ Ľ
W est
nt y
ĠF ail
Ðµ Ð²
ĠLe aning
ĠTh irteen
ĠDor is
Ġfocus es
× ľ
e i
ĠPalest ine
Ġf ifties
as er
Ġsmell y
v oice
ĠD RI
ĠTer ri
ld er
ĠP ant
ĠP ul
Ġsc ant
Ġmor bid
ĠMyr tle
Ġamate ur
O ffic
Ġgl iding
A y
ĠS ullivan
ĠSam ar
Ġexception ally
M aking
Ġdown right
Ġmin ions
k h
Ġf itness
ĠMel bourne
Ġemb ers
Ep hesians
el o
Ġdon ned
Ġrecogn izes
EL F
ilib rium
' ...
S L
Ġm oust
ĠK il
Ġsleep s
Ġappre hensive
ec on
Ġver ified
ĠDis ney
ĠCard inal
ĠSign s
ĠG ard
ousand s
t z
Ġban ter
es ota
Ġh unk
em ail
Ġorphan age
Ġthem es
Ġcraft ed
man y
Ġart illery
à¦ ¨
Ġcontract ed
Ġw il
ĠT asha
Ġla unching
Ġverd ict
id ate
Ġse mb
âĢĶ âĢĶ
umb o
rest rial
ĠPrinc ipal
ĠLind sey
ou ver
Ġbond ed
Hon estly
Edd ie
Ġ Û
ĠG and
ĠR EM
ĠÑĩ ÑĤÐ¾
Ġsa pp
cl ad
Ġexchan ging
ĠNem o
Ġdisorient ed
D erek
U H
chn ology
201 4
Ġconj ured
Ġagon izing
Ġr amb
Ġdist rust
f le
Ġel oqu
l ied
ĠW orse
Ðµ Ð·
Ī Ĵ
ap se
Ġg ib
Ġmen ace
ĠÐ ¡
Ġwh irling
ĠB enedict
Ġdis se
ĠZ eb
Ġfa Ã§
Ġsol ace
Ġpres cription
B D
ĠAnt i
Ġtut or
Ġmah ogany
ĠF inal
Ġtr icked
Ġbi as
Ġreflect ions
Ġdart s
Ġbliss ful
ĠAn alysis
de ep
Ġcheek bones
ij ing
ĠBoy s
Ġra ked
st re
Ġbuild s
ĠC air
Ġt et
Ġfor lorn
Ġsc um
ob ia
OT HER
Ġcorn ered
Ġst ip
ĠLib by
Ġcollabor ative
G ary
ced ing
Ġwar ns
ĠDub lin
Ġst rolling
Ġfor ge
Ġz ipper
Ġstruct ural
Ġaim lessly
sm all
Ġcompar able
Ġcontribut ing
B obby
Ġcub icle
ĠNaz is
Ġre e
Ġdo pe
Ġfuck er
á½ ¸
Ġdecl aring
Ġne ural
os ie
D iv
ĠG as
any thing
Ġsoft en
ĠWH O
Gab e
Mel issa
W onder
if ts
Ġbrew ing
e Book
av al
ĠAl one
Ġretrie val
Ġdefin itive
Ġanch ored
Ġun acceptable
Ġskull s
Ġvoc abulary
Ġunner ving
ĠP ict
Ġun qu
He ather
Ġunt ied
Ġprev ents
Ġcant een
Ġc iv
Ġbro oding
Ġsuper iors
ĠCana an
y ears
Ġman hood
cl in
ĠAdd itionally
G reen
Ġfresh man
Ġtrain er
Ġgrie ving
Ġun moving
Ġgrad ual
Ġax is
Ġabsor bing
Ġshred s
ĠAdminist ration
Ġre lying
cell ence
Ġrear view
Ġw ig
Ġp rying
Ġev olving
Ġcare free
Ġ... '
Ġden im
Ġcarc ass
Ġ198 5
Ġeer ily
ft s
Ġmin ers
Ġripp les
Ġacquaint ances
Ġoutrage ous
Soph ie
Ġall ev
Ġpl atter
Ġneighbour hood
Ġj ars
um per
ĠSus ie
ĠCons idering
M em
Ġintegr ation
b ig
Ġg erm
ĠAs sembly
Ġbreat hes
Ġdepart ments
att a
Ġproceed ing
Ġnud ge
Ġnavig ation
Ġfoss ils
ĠLl oyd
Ġcat hedral
á» ģ
pent er
ow ard
ich i
M olly
o ices
L ear
Ġcom bed
Ġun har
Ġtheore tical
ĠI bid
ĠO llie
Ġmom my
Ġoutl ook
Ġplung ing
Ġsl ay
Ġa venue
Ġn i
Ġbal ancing
bird s
Ġcom edy
Ġlast s
ĠØ ´
orr ows
Ġpout ed
Ġfr y
Ġpe w
Ġund es
AP P
C aleb
s ure
Ġdef iant
Ġconv ent
ĠH AVE
Ġz ones
Ġarr anging
Ġlibr arian
G ent
g t
Ġdisc ourage
R ub
Ġfr anch
Ġfine ly
Ġb amboo
Ġm ermaid
Ġmin eral
ĠST R
ĠHe in
ĠK itty
ocr atic
Ġven ue
P ray
U mm
Ġbe nds
ĠGr am
Ġbrill iance
Ġindo ors
o pping
Ġmast ered
Ġc innamon
Ġin human
ĠB ianca
br inging
ĠBuddh ism
Ġadminist ered
Ġinsul ting
Ġhob bled
Ġand roid
art an
Ġprov oke
ĠX i
Ġirresist ible
M B
Mar g
Ġutil ized
k an
Ġd usted
ĠJ or
Ġshoot er
Ġcre ak
Ġquant ities
t ains
Ġinf inity
Ġcrit ics
ĠC ustom
ag hetti
Ġbur ly
Ġmod ule
Ġthunder ous
Ġrel ayed
ĠAg atha
Ġthrott le
ĠB orn
ul us
ĠL ark
Ġpr at
Ġcha riot
Ġtra vers
Ġh ive
ĠR ena
Ġrel ish
Ġtraject ory
en c
han e
ec ost
Ġconsequ ently
ri ots
omet ric
Ġra ils
ĠMar io
Ġuns us
oso ever
c ulation
Ġv alleys
ĠSt rate
sh irts
rit ers
t ell
ĠL acy
Ġcor ro
ĠS isters
Ġno stal
Ġcrou ch
Ġsucc umbed
Ġnight gown
Ġtr ays
ĠV atican
Ġclos eness
ĠAn ge
Ġins piring
ote in
Ġsett les
oose velt
ĠLike wise
ĠOl ga
fe it
ĠTam my
Ġpeas ants
Ġslo ppy
Ġh ometown
Ġfl ing
ĠCol ton
áº¡ i
Ġc asket
Ġun armed
ax on
Ġconst itute
Ġper ked
Ġpers ist
aff ected
ĠCy rus
om o
Ġsp out
Ġintern ally
Ġillum ination
Ġprofound ly
s ided
le ments
Ġse min
Ġgl itter
ĠMe et
Ġcosm os
Ġcl ich
Ġeas ing
Ġsmir king
ĠPort land
Ġconsol ation
ĠAdvent ure
d ress
Ġbed ding
Ġher b
Ġmass aged
ĠQu in
ĠExec utive
Ġhad Ã®
Ġsink s
Ġsales man
Ġdump ster
Ġres il
Ġinform ing
Ġdirect ors
i ad
ĠAn ita
Ġde w
in clusive
Ġsa ves
ĠD ary
Ġexc av
Ġholog raphic
Ġcon e
Ġ198 7
Ġon look
is i
Ġsh in
ĠBy e
Ġãģ Ĭ
Ġimprove ments
UST ED
ident ly
Ġbreak through
Ġelect ro
Ġlab els
Ġp enn
ĠO mar
Ġdis pens
ession al
Ġens la
Ġlect ures
Ġal arms
and ered
ĠTe ch
Ġelev ators
Ġha lo
Ġmain land
Ġhang er
Ġexting uished
Ġm int
ĠB ath
th ouse
Ġstri ped
Ùĩ Ø§
Ġmurd erers
Ġlimous ine
Ġra iny
ĠT E
Ġbul ge
Ġadam ant
L aw
Ġimag ing
ĠGrand mother
201 5
! âĢĶ
in ib
ĠS ig
Ġgal axies
M arch
ĠA W
Ñĥ Ð´
ĠBud dy
ĠP as
Ġun h
Ġline age
ĠSim ple
ĠCor a
ĠPal mer
ha il
Ġf umbling
ll i
Ġat roc
Ġrel ay
rif e
ĠØ Ń
Ġstation ary
ĠAbr am
Ġdia lect
Ġth á»
Ġnot orious
ĠY am
Ġmag es
Ġdict ators
af ia
ĠJe b
Ġcha ndel
Ġident ities
Ġbow els
Ġconsum ers
Ġpar cel
ENT S
er ment
Ġgl ue
Ġi h
Ġkneel ed
Ġexert ion
Ġdown hill
pr ises
Ġquarter back
Ġex uber
Ġprohib ited
ĠFl int
ern acle
ĠSur v
Ġshr ank
Ġassess ing
Ġu b
ĠB ent
Ġj i
Ġblack s
Ġcapt ives
Ġman gled
Ġtw irling
Ġnot able
Ġhead line
Ġtravel er
Ġdefend ant
Im agine
ĠM ut
uct antly
Ġdeb ating
Ġc ages
Ġha gg
anc ouver
Ġimm oral
Ġspl int
off s
Ġentr usted
ĠWorld s
ĠC elia
Ġwild life
m ens
u gh
Ġj ugg
Ñĥ ÑĤ
Ġwre cked
Ġhilar ious
ar an
at ile
us er
K ind
Ġv ale
Ġch ided
ĠD ise
Ġthin ner
Ġcrou ching
Ġstere o
Ġfl im
Ġext inction
Ġve ered
Ġtar p
ĠFl ore
Ab d
p are
ig or
Ġkid ney
Ġ197 8
Ġappropri ately
ĠJuda ism
P ri
o in
Ġplan ks
Ġshru gging
ĠØ ®
) ."
Ø³ Øª
Ġcur ric
Ġant ics
ĠSing apore
Ġsc ents
O s
Ġa ide
Ġshif ter
Ġinject ion
ĠS N
Ġun answ
Ġpsych opath
d ated
Ġa wards
Ġwar ped
ĠRad io
ĠO nt
Ġhelm ets
Ġzoom ed
p ol
u eless
ĠSt upid
Sha king
Ġo re
Ġfund ament
Ġcoc oon
ĠWa iting
Ġwonder fully
Ġta unting
Ġjer ks
nd or
Just in
ĠFel icity
ĠMerc ury
Ġcomr ade
ĠR AND
M et
l ime
ure en
ĠCon c
Ġimmig ration
H annah
ÅĤ a
ĠMerc iful
Ol iver
M ajor
Ġw ired
ul ator
ĠD ry
ĠG ates
Ġimp erson
b t
u in
Ġmanifest ations
L inda
Ġlim iting
á» ĵ
Ġta unted
ĠSP READ
Ġrac ist
b eth
Ġd umping
ĠTh orn
ĠTr ish
Ġaltern atives
Ġtrem or
Lie utenant
Ġs ings
ĠS ou
ĠL ara
ret s
ĠDrag ons
ĠM ika
Ġcraft s
ong s
ĠV ern
Ġshru bs
est eem
ig nty
olog ic
Ġreview ing
Ġash ore
ĠORIF ICES
Ġme ll
ĠE pic
ep r
ee ly
Ġopp ressive
Ġcirc ulation
Ġnotep ad
Ġun steady
Ġcalcul ate
ide red
ĠJ ESUS
Ġcal mer
ul king
Ġbegg ar
ha ge
ien ne
Ġenc ry
Qu iet
Ġwithd rawn
Ġh uts
Ġen for
ĠProm ise
d ressed
Ġth ru
over nment
Ġpl ank
reat ing
ĠHighland er
Ġorgan izing
Ġdisple asure
Ġhit ched
Ġphot oc
Ġnight ly
Ġspec ified
Ġ6 7
Ġball et
udd ling
Ph one
ĠVers ion
Ġappoint ments
Ġass erted
ĠShad ows
Ġcrad ling
R AS
Ġrec ount
Ġme ager
ĠR out
ĠKath leen
Ġcl asp
Ġdisc er
Ġbun ny
vet te
aver ing
F in
ĠT our
ĠPut ting
Ġsy mm
all ion
Ġnot ch
Ġrelent lessly
ri ver
ĠMinn esota
s ent
ĠD ifferent
Ġsc atter
ĠN ak
Ġcare ers
Seb astian
Ġst ashed
ĠB us
Ġem issions
Ġdevast ation
v ieve
id d
Ġsh oo
Ġgr it
Ġmanic ured
F rid
Ġmus cled
J a
R ome
Ġdis liked
Ġrec ons
Ġcompl iments
Ġbom bing
Ġh ockey
els h
á¹ĩ a
Ġpalp able
Ġm asc
Ġg houl
bl ock
ĠMer rick
Ġmurd ering
'' ''
ĠAuthor ity
! ?
Ġgovern ance
ĠApp ro
Ġintox icating
E arly
W S
IT E
Ġs ib
Ġsp ook
Ġsk immed
the se
Ġp am
Ġfire ball
Ġcost umes
Ġenqu ired
Ġorche st
Ġt ame
ĠBur ke
Ġintr ins
N G
à¤ Ĥ
Ġgreet ings
k t
w ich
Ġen abling
ĠNo a
Ġprotect s
f at
ĠHe x
ĠAm os
ĠDar cy
!! !!
ĠT ag
ĠG ust
Ġqu aint
Ġdash board
ĠThought s
W ake
ĠP owers
Ġins in
Ġsad dened
Un like
ĠFlaming o
ar iously
Ġse iz
Ġwell ing
Ġmirac ulously
id ly
oc ols
And y
Ġclean se
201 1
Ġspecim en
ãĤĵ ãģ
ar cer
ĠR uf
ang les
Ġ197 9
Ġsubt ly
Ġspect ators
ĠNon etheless
ur ate
Ġhang over
ĠH od
Ġcl icks
ĠBr ay
Ġcompl iance
Ġbet ting
Ġbu oy
à¯į .
ĠEx odus
as a
har ine
Ġpred iction
what ever
Ġamb ig
ĠEm ploy
Ġbat he
Ġmol ten
ĠOdys seus
Ġc ed
Ġkn it
Ġar d
ĠMart ine
Ġdiscon cer
c ross
Ġcast e
Prof essor
Ġbox ers
Ġad ept
Ġens ued
Ġmilit ia
ĠN ether
ai us
ĠCath olics
ĠArm strong
ast s
ĠPl ato
uche ss
ĠC ulture
ĠRe y
Ġmist y
Ġhorse back
Ġfortun ately
oy a
W on
ĠWe alth
ĠQu entin
Ġspo kes
ĠW ise
Ġapp end
Ġcol oss
Ġepis odes
Ġmand atory
ĠE ph
Ġinform al
Ġtrad ers
Ġmum ble
Ġtroll s
ĠSwe at
Ġs almon
ield ing
iov anni
Ġs led
Ġeyes ight
?" ,
Ġmanip ulating
Ġhor rend
Ġshar ks
ĠLuc ia
Ab by
Ġsubur bs
Ġa ver
Ġf umes
ĠM ira
ĠN ay
Ġtruth fully
r ans
Ġh oof
Ġclam bered
m ut
ĠCol by
Ġt ipping
Ġun heard
Ġst unt
Ġroof s
l iction
Ġhard wood
ĠSat urn
Ġn ull
ĠM aid
ĠMo hammad
áº¿ t
Ġsynd rome
Ð¸ Ñħ
Ġcommand ers
Ã» l
Ġcomp ulsion
D em
O uch
ĠB ristol
ĠK in
Ġru ining
Ġdemonst rates
Ġclaw ing
Ġunder cover
ĠMag azine
ĠTri p
Ġqu i
J ill
o ed
Ġport folio
Ġphilosop hers
Ġhor ny
Ġsun ken
ĠMon ique
ĠGem ma
Ġconsul ted
Ġc uddled
ĠS HE
Ġmad man
Ġstrand ed
Ġha n
olog ne
Ġprom otes
ĠBl iss
Ġcirc ulating
Ġbud s
ĠTr ina
Pe ace
in st
Ġth Ðµ
ub urn
Ġblunt ly
Ġbask ets
Ġ7 8
id an
Ġon ion
st atus
Ġj est
ĠK ale
Ġunc over
Ġmicro environment
OS S
Ġtomato es
Ġapp alled
Is lam
ĠCon n
ĠWat ers
ĠSupp ort
Ġexclaim s
g ins
Ġrel ented
.... ...
Ġencir cled
unci ation
T am
Ġdeterm ines
Ġdi pping
ĠSky e
ĠLi u
ĠJ al
R oman
t ight
W al
p ions
Ġpe ck
ĠUnder stand
Ã¬ nh
Ġend urance
Ġdel ir
ĠÑ ħ
Ġeager ness
d al
ĠT ate
ĠBut ter
ĠCon vention
Ġprivile ges
Ġmisunder stood
Ol ivia
Ġc ited
ud ic
Ġc ac
ĠOr acle
Ġconj ure
Ġmis guided
Ġpriest ess
ĠL ars
Ġfore finger
ĠT ul
Ġspace craft
Ġcourage ous
Ġcoast al
Bet ween
Ġdishe veled
N ove
Ġinfant ry
Ġoo zing
Ġas semble
Ġcapt ivity
ĠRem y
Ġprud ent
ĠAst rid
og ged
Ġass holes
Ġnarrow ly
Ġsl urred
Ðµ Ð¿
Ġdepart ing
Ġ198 6
Ġsyn ag
ĠLion el
Ġlaby rinth
ld on
ke it
!' '
Ġpad dle
Ġmon op
ĠMem orial
ĠThess alon
ĠRod rig
a o
Ġt uck
Ġsh rouded
ĠG rabbing
IS E
s ize
ĠC ash
Ġun gr
Ġsna ked
US E
ĠFer gus
ĠY uri
ĠL yle
ĠN olan
aut iful
Ä± ÄŁ
ĠAff airs
Ġp and
St range
Ġo u
Ġco als
Am ong
Ġbubb led
ĠMod el
Ġunhar med
ar ks
Ġbar ge
Ġdev ised
[...]
