{"<s>":0,"<pad>":1,"</s>":2,"<unk>":3,"<mask>":4,"!":5,"\"":6,"#":7,"$":8,"%":9,"&":10,"'":11,"(":12,")":13,"*":14,"+":15,",":16,"-":17,".":18,"/":19,"0":20,"1":21,"2":22,"3":23,"4":24,"5":25,"6":26,"7":27,"8":28,"9":29,":":30,";":31,"<":32,"=":33,">":34,"?":35,"@":36,"A":37,"B":38,"C":39,"D":40,"E":41,"F":42,"G":43,"H":44,"I":45,"J":46,"K":47,"L":48,"M":49,"N":50,"O":51,"P":52,"Q":53,"R":54,"S":55,"T":56,"U":57,"V":58,"W":59,"X":60,"Y":61,"Z":62,"[":63,"\\":64,"]":65,"^":66,"_":67,"`":68,"a":69,"b":70,"c":71,"d":72,"e":73,"f":74,"g":75,"h":76,"i":77,"j":78,"k":79,"l":80,"m":81,"n":82,"o":83,"p":84,"q":85,"r":86,"s":87,"t":88,"u":89,"v":90,"w":91,"x":92,"y":93,"z":94,"{":95,"|":96,"}":97,"~":98,"¡":99,"¢":100,"£":101,"¤":102,"¥":103,"¦":104,"§":105,"¨":106,"©":107,"ª":108,"«":109,"¬":110,"®":111,"¯":112,"°":113,"±":114,"²":115,"³":116,"´":117,"µ":118,"¶":119,"·":120,"¸":121,"¹":122,"º":123,"»":124,"¼":125,"½":126,"¾":127,"¿":128,"À":129,"Á":130,"Â":131,"Ã":132,"Ä":133,"Å":134,"Æ":135,"Ç":136,"È":137,"É":138,"Ê":139,"Ë":140,"Ì":141,"Í":142,"Î":143,"Ï":144,"Ð":145,"Ñ":146,"Ò":147,"Ó":148,"Ô":149,"Õ":150,"Ö":151,"×":152,"Ø":153,"Ù":154,"Ú":155,"Û":156,"Ü":157,"Ý":158,"Þ":159,"ß":160,"à":161,"á":162,"â":163,"ã":164,"ä":165,"å":166,"æ":167,"ç":168,"è":169,"é":170,"ê":171,"ë":172,"ì":173,"í":174,"î":175,"ï":176,"ð":177,"ñ":178,"ò":179,"ó":180,"ô":181,"õ":182,"ö":183,"÷":184,"ø":185,"ù":186,"ú":187,"û":188,"ü":189,"ý":190,"þ":191,"ÿ":192,"Ā":193,"ā":194,"Ă":195,"ă":196,"Ą":197,"ą":198,"Ć":199,"ć":200,"Ĉ":201,"ĉ":202,"Ċ":203,"ċ":204,"Č":205,"č":206,"Ď":207,"ď":208,"Đ":209,"đ":210,"Ē":211,"ē":212,"Ĕ":213,"ĕ":214,"Ė":215,"ė":216,"Ę":217,"ę":218,"Ě":219,"ě":220,"Ĝ":221,"ĝ":222,"Ğ":223,"ğ":224,"Ġ":225,"ġ":226,"Ģ":227,"ģ":228,"Ĥ":229,"ĥ":230,"Ħ":231,"ħ":232,"Ĩ":233,"ĩ":234,"Ī":235,"ī":236,"Ĭ":237,"ĭ":238,"Į":239,"į":240,"İ":241,"ı":242,"Ĳ":243,"ĳ":244,"Ĵ":245,"ĵ":246,"Ķ":247,"ķ":248,"ĸ":249,"Ĺ":250,"ĺ":251,"Ļ":252,"ļ":253,"Ľ":254,"ľ":255,"Ŀ":256,"ŀ":257,"Ł":258,"ł":259,"Ń":260,"Ġt":261,"he":262,"Ġa":263,"in":264,"Ġs":265,"Ġw":266,"Ġthe":267,"re":268,"Ġo":269,"ou":270,"nd":271,"ed":272,"ha":273,"Ġb":274,"er":275,"ing":276,"Ġf":277,"Ġc":278,"Ġm":279,"Ġto":280,"is":281,"it":282,"on":283,"en":284,"Ġd":285,"or":286,"Ġand":287,"ll":288,"Ġp":289,"es":290,"Ġl":291,"Ġhe":292,"Ġof":293,"an":294,"as":295,"ar":296,"Ġh":297,"Ġin":298,"at":299,"ĠI":300,"om":301,"Ġn":302,"Ġg":303,"Ġha":304,"hat":305,"Ġbe":306,"ow":307,"le":308,"Ġy":309,"Ġe":310,"ut":311,"id":312,"ot":313,"ve":314,"ic":315,"Ġyou":316,"ac":317,"ld":318,"us":319,"Ġwas":320,"al":321,"Ġth":322,"im":323,"et":324,"Ġon":325,"gh":326,"Ġre":327,"ly":328,"ay":329,"Ġthat":330,"Ġst":331,"ĠT":332,"ion":333,"Ġit":334,"ent":335,"ver":336,"Ġher":337,"ir":338,"ur":339,"ad":340,"Ġas":341,"ith":342,"Ġwe":343,"Ġhis":344,"Ġfor":345,"ro":346,"ĠS":347,"'s":348,"se":349,".\"":350,"st":351,"oo":352,"Ġwith":353,"Ġ\"":354,"Ġu":355,"ĠH":356,"ght":357,"ke":358,"ri":359,"ould":360,"ĠA":361,"am":362,"Ġan":363,"Ġis":364,"'t":365,"Ġme":366,"her":367,"Ġat":368,"all":369,"if":370,"Ġhad":371,"ce":372,"Ġshe":373,"Ġk":374,"ĠThe":375,"ill":376,"Ġse":377,"ter":378,"Ġmy":379,"Ġwh":380,"ĠM":381,"ct":382,"il":383,"Ġnot":384,"ra":385,"pp":386,"ch":387,"Ġfr":388,"red":389,"Ġdo":390,"el":391,"Ġli":392,"Ġne":393,"ĠC":394,"ore":395,"Ġhim":396,"Ġsa":397,"ked":398,"ome":399,"ĠB":400,"ĠW":401,"ain":402,"Ġsh":403,"rou":404,"ant":405,"Ġbut":406,"ack":407,"Ġhave":408,"ust":409,"Ġfrom":410,"ĠHe":411,"out":412,"ess":413,"Ġout":414,"Ġup":415,"Ġso":416,"ge":417,"un":418,"..":419,"Ġj":420,"Ġkn":421,"ation":422,"?\"":423,"Ġde":424,"Ġcon":425,"Ġthis":426,"ul":427,"Ġab":428,"Ġthey":429,"op":430,"Ġall":431,"hing":432,",\"":433,"art":434,"ind":435,"od":436,"Ġare":437,"Ġint":438,"um":439,"ers":440,"Ġal":441,"ight":442,"one":443,"Ġle":444,"king":445,"Ġex":446,"ie":447,"ĠD":448,"Ġwere":449,"hen":450,"qu":451,"os":452,"Ġsaid":453,"Ġwould":454,"Ġr":455,"Ġsu":456,"est":457,"and":458,"ard":459,"Ġor":460,"ist":461,"ab":462,"ĠG":463,"ol":464,"Ġwor":465,"em":466,"Ġsp":467,"Ġv":468,"han":469,"ide":470,"ell":471,"ĠP":472,"ĠJ":473,"ĠL":474,"ood":475,"ig":476,"Ġgo":477,"Ġthem":478,"res":479,"own":480,"Ġone":481,"Ġwhat":482,"Ġcould":483,"ate":484,"ally":485,"Ġloo":486,"ast":487,"hed":488,"Ġdid":489,"Ġcan":490,"Ġcom":491,"nt":492,"Ġback":493,"The":494,"Ġyour":495,"ry":496,"ĠR":497,"Ġby":498,"Ġfe":499,"ĠE":500,"Ġlike":501,"Ġus":502,"ven":503,"Ġinto":504,"ive":505,"ace":506,"Ġabout":507,"ong":508,"ĠN":509,"ck":510,"very":511,"ĠShe":512,"You":513,"Ġpl":514,"ĠF":515,"Ġcl":516,"ake":517,"ort":518,"ous":519,"ect":520,"Ġtim":521,"Ġknow":522,"Ġtheir":523,"pt":524,"ame":525,"Ġag":526,"Ġman":527,"Ġpro":528,"Ġany":529,"ep":530,"way":531,"Ġthere":532,"Ġwill":533,"Ġwho":534,"ther":535,"lf":536,"Ġjust":537,"Ġno":538,"ĠIt":539,"ity":540,"Ġif":541,"Ġro":542,"Ġover":543,"Ġsome":544,"ice":545,"Ġbeen":546,"ag":547,"Ġget":548,"Ġtime":549,"ĠO":550,"Ġwhen":551,"Ġbl":552,"our":553,"round":554,"ost":555,"urn":556,"Ġsm":557,"Ġdown":558,"ine":559,"Ġhand":560,"Ġoff":561,"are":562,"th":563,"Ġmore":564,"ies":565,"Ġqu":566,"ure":567,"Ġwant":568,"Ġtoo":569,"ak":570,"Ġen":571,"Ġother":572,"Ġthen":573,"reat":574,"Ġun":575,"ond":576,"ink":577,"ru":578,"âĢ":579,"pl":580,"ment":581,"ose":582,"ved":583,"Ġthou":584,"Ġsee":585,"ff":586,"ear":587,"ick":588,"ile":589,"Ġar":590,"end":591,"other":592,"ove":593,"ass":594,"Ġfl":595,"here":596,"fore":597,"ull":598,"ered":599,"Ġey":600,"ving":601,"Ġagain":602,"itt":603,"right":604,"ud":605,"Ġtw":606,"ound":607,"'m":608,"Ġch":609,"Ġsc":610,"act":611,"self":612,"ip":613,"Ġpe":614,"ap":615,"...":616,"ich":617,"ĠK":618,"Ġway":619,"aus":620,"Ġ(":621,"Ġour":622,"'d":623,"Ġnow":624,"Ġpr":625,"Ġim":626,"fter":627,"ire":628,"ble":629,"rough":630,"Ġbec":631,"led":632,"Ġdon":633,"Ġonly":634,"iz":635,"Ġthan":636,"Ġhead":637,"Ġsay":638,"Ġdidn":639,"ite":640,"ings":641,"Ġbefore":642,"Ġ_":643,"able":644,"Ġsl":645,"Ġdis":646,"ress":647,"ated":648,"ach":649,"ade":650,"pped":651,"oc":652,"Ġthrough":653,"Ġhow":654,"Ġcont":655,"Ġ1":656,"Ġac":657,"Ġneed":658,"omet":659,"ree":660,"ans":661,"Ġevery":662,"Ġeven":663,"ife":664,"age":665,"ft":666,"Ġaround":667,"ks":668,"Ġeyes":669,"He":670,"Ġco":671,"ward":672,"ence":673,"'re":674,"ious":675,"nder":676,"Ġtr":677,"ople":678,"Ġwhich":679,"per":680,"Ġhas":681,"Ġright":682,"ber":683,"Ġhere":684,"ves":685,"ew":686,"wn":687,"ĠYou":688,"Ġgoing":689,"Ġad":690,"ions":691,"Ġturn":692,"ause":693,"Ġday":694,"ave":695,"ance":696,"Ġthink":697,"Ġlooked":698,"Ġgr":699,"Ġam":700,"Ġshould":701,"Ġthought":702,"'ll":703,"Ġpeople":704,"ted":705,"ord":706,"Ġsha":707,"Ġ'":708,"Ġtwo":709,"Ġsomet":710,"Ġlong":711,"ere":712,"au":713,"irst":714,"og":715,"ting":716,"ng":717,"Ġbr":718,"ia":719,"thing":720,"iss":721,"ĠTh":722,"Ġres":723,"uch":724,"ild":725,"ue":726,"Ġcomp":727,"Ġunder":728,"Ġwat":729,"oy":730,"Ġapp":731,"ark":732,"Ġrem":733,"Ġstill":734,"Ġgl":735,"Ġgu":736,"ather":737,"ning":738,"!\"":739,"Ġaway":740,"ne":741,"Ġgood":742,"Ġbet":743,"ĠAnd":744,"Ġafter":745,"ĠThey":746,"ied":747,"Ġpo":748,"Ġdoor":749,"Ġke":750,"Ġasked":751,"Ġwhere":752,"ath":753,"ĠWe":754,"âĢĶ":755,"Ġpre":756,"Ġmuch":757,"Ġmade":758,"pen":759,"Ġsomething":760,"ec":761,"Ġgot":762,"Ġsw":763,"te":764,"Ġfirst":765,"**":766,"ase":767,"orm":768,"Ġfeel":769,"Ġcha":770,"Ġnever":771,"Ġte":772,"Ġmake":773,"ĠBut":774,"ough":775,"Ġface":776,"ared":777,"Ġlife":778,"Ġper":779,"ary":780,"ah":781,"ish":782,"side":783,"ady":784,"ily":785,"Ġpart":786,"ial":787,"ittle":788,"ign":789,"Ġdes":790,"Ġfo":791,"Ġhapp":792,"Ġcall":793,"ook":794,"Ġlet":795,"It":796,"iv":797,"'ve":798,"Ġ2":799,"ise":800,"ĠGod":801,"Ġroom":802,"Ġatt":803,"ps":804,"gg":805,"Ġbel":806,"ĠIn":807,"ody":808,"Ġlittle":809,"Ġtake":810,"ob":811,"Ġwa":812,"Ġhel":813,"Ġbecause":814,"Ġstart":815,"Ġcar":816,"ried":817,"ss":818,"oth":819,"ched":820,"Ġem":821,"Ġwal":822,"Ġyear":823,"so":824,"ful":825,"aking":826,"Ġopen":827,"ty":828,"Ġche":829,"Ġcome":830,"ness":831,"Ġvery":832,"ang":833,"Ġlook":834,"ory":835,"be":836,"Ġtell":837,"Ġra":838,"ens":839,"She":840,"av":841,"What":842,"Ġact":843,"Ġcou":844,"Ġnew":845,"ĠV":846,"Ġbeing":847,"cl":848,"Ġits":849,"Ġtook":850,"Ġarm":851,"Ġown":852,"Ġsur":853,"ical":854,"hy":855,"Ġreal":856,"elt":857,"ons":858,"old":859,"Ġknew":860,"ub":861,"ced":862,"Ġcr":863,"Ġseem":864,"iff":865,"ĠU":866,"xt":867,"ian":868,"Ġfind":869,"Ġhar":870,"Ġwell":871,"Ġmo":872,"Ġwr":873,"Ġhelp":874,"oss":875,"Ġsec":876,"int":877,"Ġleft":878,"Ġfew":879,"hes":880,"Ġcame":881,"ations":882,"Ġwhile":883,"ĠSt":884,"ont":885,"Ġchan":886,"Ġbeg":887,"ult":888,"Ġmay":889,"Ġimp":890,"Ġtal":891,"ĠCh":892,"riend":893,"Ġrel":894,"Ġthose":895,"ail":896,"Ġturned":897,"Ġent":898,"ever":899,"Ġmom":900,"owed":901,"Ġfelt":902,"Ġwork":903,"Ġanother":904,"igh":905,"Ġthings":906,"Ġwom":907,"vel":908,"ened":909,"Ġput":910,"Ġtry":911,"pect":912,"get":913,"Ġend":914,"ouse":915,"we":916,"ĠHis":917,"Ġnight":918,"Ġreally":919,"Ġalso":920,"ower":921,"oice":922,"Ġunt":923,"Ġword":924,"Ġmost":925,"Ġrec":926,"ents":927,"Ġmind":928,"âĢĵ":929,"Ġsure":930,"ool":931,"ors":932,"Ġwasn":933,"Ġfin":934,"les":935,"Ġtold":936,"Ġthese":937,"Ġwent":938,"Ġdoes":939,"Ġpers":940,"Ġlast":941,"ways":942,"ross":943,"ible":944,"Ġold":945,"Ġside":946,"Ġbu":947,"ĠThere":948,"We":949,"ating":950,"ple":951,"Ġworld":952,"Ġlight":953,"air":954,"Ġtra":955,"ĠThis":956,"ee":957,"Ġtoward":958,"Ġ-":959,"Ġhands":960,"Ġplace":961,"Ġfound":962,"Ġmany":963,"Ġstr":964,"ition":965,"ual":966,"ling":967,"ict":968,"Ġass":969,"Ġlove":970,"Ġret":971,"Ġfriend":972,"##":973,".'":974,"ually":975,"Ġsk":976,"Ġpull":977,"Ġmight":978,"ince":979,"Ġmat":980,"Ġbelie":981,"Ġcle":982,"ĠIf":983,"cess":984,"Ġsame":985,"Ġser":986,"ib":987,"vers":988,"ner":989,"Ġagainst":990,"Ġdiff":991,"Ġwanted":992,"Ġev":993,"uck":994,"aw":995,"Ġmust":996,"ĠâĢĵ":997,"Ġyears":998,"Ġdec":999,"Ġsaw":1000,"à®":1001,"Ġcomm":1002,"az":1003,"Ġeach":1004,"Ġbody":1005,"ock":1006,"uc":1007,"Ġhome":1008,"Ġset":1009,"Ġwar":1010,"ream":1011,"Ġrep":1012,"ren":1013,"hind":1014,"Ġkeep":1015,"ned":1016,"ĠAs":1017,"Ġmin":1018,"ert":1019,"Ġthing":1020,"Ġnext":1021,"Ġanything":1022,"Ġwait":1023,"Ġenough":1024,"Ġel":1025,"Ġgra":1026,"Ġfoll":1027,"Ġob":1028,"Ġboth":1029,"ction":1030,"Ġhard":1031,"Ġbehind":1032,"Ġalways":1033,"ded":1034,"irl":1035,"Ġhum":1036,"owing":1037,"Ġpass":1038,"ces":1039,"Ġfam":1040,"Ġsmall":1041,"Ġperson":1042,"less":1043,"Ġuntil":1044,"ĠThat":1045,"Ġvoice":1046,"cept":1047,"ised":1048,"Ġear":1049,"med":1050,"Ġmen":1051,"ged":1052,"00":1053,"Ġsuch":1054,"Ġwithout":1055,"Ġrest":1056,"ĠWhat":1057,"Ġcouldn":1058,"Ġgreat":1059,"Ġwhy":1060,"Ġgi":1061,"na":1062,"form":1063,"aught":1064,"rew":1065,"Ġbo":1066,"Ġmoment":1067,"ny":1068,"Ġnothing":1069,"Ġchild":1070,"ĠY":1071,"Ġhouse":1072,"Ġsat":1073,"Ġthough":1074,"Ġhimself":1075,"up":1076,"Ġfar":1077,"Ġever":1078,"No":1079,"den":1080,"ater":1081,"iet":1082,"ret":1083,"Ġlooking":1084,"Ġinst":1085,"Ġsound":1086,"bed":1087,"Ġbed":1088,"sw":1089,"Ġclos":1090,"And":1091,"ching":1092,"ined":1093,"ows":1094,"ale":1095,"Ġdri":1096,"Ġind":1097,"Ġrun":1098,"Ġfront":1099,"ier":1100,"Ġstand":1101,"Ġinv":1102,"Th":1103,"Ġunderst":1104,"ween":1105,"ix":1106,"Ġsupp":1107,"Ġheart":1108,"Ġdark":1109,"Ġgirl":1110,"uth":1111,"rist":1112,"att":1113,"Ġcontin":1114,"aring":1115,"Ġinter":1116,"Ġthree":1117,"Ġacc":1118,"Ġmet":1119,"Ġhop":1120,"Ġsmil":1121,"Ġcare":1122,"ank":1123,"mer":1124,"Ġcor":1125,"ount":1126,"Ġbetter":1127,"Ġcour":1128,"Ġconf":1129,"Ġste":1130,"Ġcons":1131,"Ġwoman":1132,"day":1133,"Ġbetween":1134,"Ġgive":1135,"Ġheard":1136,"ĠAl":1137,"Ġansw":1138,"Ġph":1139,"That":1140,"Ġmean":1141,"Ġquick":1142,"Ġbre":1143,"Ġquest":1144,"ering":1145,"Ġcur":1146,"Ġexpl":1147,"ason":1148,"oke":1149,"ins":1150,"ped":1151,"Ġtru":1152,"outh":1153,"Ġdisc":1154,"Ġ*":1155,"Ġkill":1156,"Ġhu":1157,"ĠWhen":1158,"ject":1159,"Ġbreat":1160,"ense":1161,"Ġwind":1162,"Ġspe":1163,"ĠMy":1164,"ably":1165,"Ġdiffere":1166,"Ġstarted":1167,"Ġplan":1168,"Ġonce":1169,"ĠAll":1170,"Ġdra":1171,"Ġseemed":1172,"ention":1173,"ished":1174,"ung":1175,"Ġplay":1176,"Ġwater":1177,"ready":1178,"ĠHer":1179,"Ġnod":1180,"ized":1181,"most":1182,"Ġdr":1183,"Ġsecond":1184,"Ġstood":1185,"Ġbit":1186,"Ġfather":1187,"Ġinc":1188,"ike":1189,"Ġdist":1190,"ully":1191,"Ġlau":1192,"Ġhold":1193,"Ġread":1194,"to":1195,"der":1196,"Ġflo":1197,"Ġmother":1198,"ient":1199,"Ġsil":1200,"Ġalready":1201,"ars":1202,"Ġsim":1203,"But":1204,"ĠSo":1205,"ĠÐ":1206,"Ġinside":1207,"ached":1208,"Ġwalked":1209,"Ġlo":1210,"Ġtrying":1211,"Ġreturn":1212,"ott":1213,"Ġbegan":1214,"Ġsomeone":1215,"Ġmon":1216,"Ġgave":1217,"Ġbus":1218,"ĠHow":1219,"Ġdone":1220,"Ġposs":1221,"ident":1222,"Ġdoing":1223,"Ġkind":1224,"ates":1225,"pr":1226,"Ġcalled":1227,"Ġsince":1228,"Ġelse":1229,"Ġwond":1230,"Ġmor":1231,"Ġeverything":1232,"har":1233,"Ġair":1234,"Ġname":1235,"Ġunderstand":1236,"Ġpain":1237,"umb":1238,"Ġsle":1239,"Ġref":1240,"Ġacross":1241,"Ġple":1242,"ately":1243,"Ġbig":1244,"Ġremem":1245,"Ġwords":1246,"Ġused":1247,"Ġhair":1248,"ided":1249,"row":1250,"ger":1251,"oh":1252,"ash":1253,"Ġmar":1254,"Ġwall":1255,"Ġreg":1256,"Ġlot":1257,"Ġuse":1258,"Ġseen":1259,"pping":1260,"anc":1261,"Ġnear":1262,"Ġdeep":1263,"Ġpower":1264,"its":1265,"Ġide":1266,"ither":1267,"ene":1268,"ax":1269,"ired":1270,"Ġminut":1271,"Ġpres":1272,"Ġbest":1273,"ĠThen":1274,"man":1275,"als":1276,"gether":1277,"Ġtogether":1278,"Ġstay":1279,"Ġsn":1280,"Ġlar":1281,"ĠNo":1282,"Ġdef":1283,"Ġtried":1284,"ained":1285,"ters":1286,"ited":1287,"Ġhigh":1288,"Ġdro":1289,"Ġalmost":1290,"Ġyoung":1291,"akes":1292,"Ġdire":1293,"Ġpulled":1294,"Ġboy":1295,"Ġsy":1296,"Ġexp":1297,"hip":1298,"Ġbelieve":1299,"Ġrepl":1300,"Ġsays":1301,"Ġsto":1302,"ho":1303,"Ġhour":1304,"Ġfore":1305,"Ġsub":1306,"Ġalong":1307,"Ġvis":1308,"ek":1309,"Ġcomple":1310,"iness":1311,"inking":1312,"Ġfact":1313,"ys":1314,"Ġ3":1315,"ured":1316,"aced":1317,"Ġblack":1318,"Ġpoint":1319,"So":1320,"Ġfamily":1321,"ures":1322,"Ġclose":1323,"Ġmove":1324,"Ġblood":1325,"ued":1326,"Ġyet":1327,"ts":1328,"Ġaw":1329,"ĠChrist":1330,"ically":1331,"nce":1332,"Ġfeet":1333,"Ġsign":1334,"ĠIs":1335,"cer":1336,"Ġ.":1337,"Yes":1338,"Ġmyself":1339,"ĠAn":1340,"ying":1341,"Ġdays":1342,"Ġdet":1343,"Ġpast":1344,"pe":1345,"Ġter":1346,"olog":1347,"Ġpol":1348,"Ġdifferent":1349,"ience":1350,"Ġsmiled":1351,"Ġsoon":1352,"Ġresp":1353,"Ġeas":1354,"ms":1355,"ric":1356,"Ġred":1357,"uring":1358,"Ġsmile":1359,"Ġleave":1360,"sel":1361,"ph":1362,"Ġcourse":1363,"ĠRe":1364,"ertain":1365,"ular":1366,"They":1367,"pter":1368,"ently":1369,"Ġpat":1370,"Ġstre":1371,"Ġfing":1372,"mb":1373,"Ġstud":1374,"In":1375,"arent":1376,"Ġhear":1377,"Ġtable":1378,").":1379,"Ġstop":1380,"Ġpur":1381,"Ġable":1382,"Ġmeet":1383,"uff":1384,"Ġhuman":1385,"Ġothers":1386,"aut":1387,"Ġins":1388,"Ġlater":1389,"ities":1390,"Ġheld":1391,"Ġes":1392,"Ġgen":1393,"ility":1394,"Ġlead":1395,"ĠMar":1396,"Ġleast":1397,"oney":1398,"Ġgetting":1399,"Ġfloor":1400,"amp":1401,"Ġmiss":1402,"Ġleg":1403,"Ġslow":1404,"Ġsit":1405,"Ġarms":1406,"Ġtri":1407,"chool":1408,"ased":1409,"Ġground":1410,"ize":1411,"Ġlist":1412,"Ġmouth":1413,"icked":1414,"Ġcoming":1415,"ressed":1416,"ets":1417,"apt":1418,"Ġcreat":1419,"This":1420,"ĠMr":1421,"Ġran":1422,"arth":1423,"Ġeff":1424,"Ġnodded":1425,"Ġneeded":1426,"orn":1427,"Ð°":1428,"Ġri":1429,"Ġbad":1430,"Ġtalk":1431,"Ġhur":1432,"As":1433,"Oh":1434,"Ġfall":1435,"Ġexper":1436,"ime":1437,"Well":1438,"Ġchar":1439,"...\"":1440,"Ġprot":1441,"Ġ19":1442,"Ġbro":1443,"ushed":1444,"Ġherself":1445,"iew":1446,"Ġcount":1447,"ative":1448,"Ġwouldn":1449,"Ġcoll":1450,"tern":1451,"ĠUn":1452,"Ġext":1453,"Ġdead":1454,"Ġquickly":1455,"Ġmorning":1456,"ines":1457,"?'":1458,"ĠFor":1459,"eth":1460,"Ġland":1461,"itting":1462,"kay":1463,"ific":1464,"Ġtowards":1465,"Ġtrans":1466,"Ġhalf":1467,"fully":1468,"Ġloc":1469,"Ġbar":1470,"Ġhappened":1471,"by":1472,"There":1473,"ead":1474,"Ġlarge":1475,"Ġhaving":1476,"Ġstra":1477,"How":1478,"ĠBe":1479,"ĠAt":1480,"reen":1481,"lect":1482,"iously":1483,"Ġask":1484,"Ġtimes":1485,"Ġfull":1486,"aken":1487,"hapter":1488,"Ġclear":1489,"Ġtop":1490,"Ġdem":1491,"ĠNot":1492,"bably":1493,"ohn":1494,"du":1495,"oll":1496,"cc":1497,"br":1498,"ten":1499,"ield":1500,"ames":1501,"ird":1502,"Ġfire":1503,"ĠFr":1504,"Ġ[":1505,"Ġquestion":1506,"the":1507,"ĠZ":1508,"irt":1509,"Ġspec":1510,"Ġreason":1511,"Ġmaking":1512,"Ġappro":1513,"oud":1514,"Ġgone":1515,"Ġlear":1516,"io":1517,"Ġbuild":1518,"Ġtre":1519,"fort":1520,"Ġschool":1521,"Ġpar":1522,"Ġwon":1523,"Ġidea":1524,"Ġstopped":1525,"ments":1526,"head":1527,"Ġbreath":1528,"Ġdoesn":1529,"Ġsleep":1530,"Ġfriends":1531,"Ġeye":1532,"app":1533,"Ġ:":1534,"Ġform":1535,"Ġstep":1536,"Ġshort":1537,"Ġbook":1538,"rol":1539,"Ġupon":1540,"Ġed":1541,"Ġdeath":1542,"Ġopened":1543,"irit":1544,"Ġsqu":1545,"Ġdel":1546,"erest":1547,"Ġanyone":1548,"gged":1549,"ĠAr":1550,"Ġtou":1551,",'":1552,"ush":1553,"Ġremember":1554,"Ġwhole":1555,"Ġfour":1556,"Ġfeeling":1557,"Ġfree":1558,"My":1559,"Ġmoved":1560,"Ġprom":1561,"selves":1562,"Ġfell":1563,"used":1564,"Ġless":1565,"Ġexpect":1566,"ane":1567,"Ġap":1568,"Ġfight":1569,"ants":1570,"orry":1571,"esus":1572,"any":1573,"Ð¾":1574,"IN":1575,"eah":1576,"Ġproble":1577,"Ġwhite":1578,"ening":1579,"Ġeveryone":1580,"Ġsurpr":1581,"Ġreached":1582,"à¯":1583,"Ġgrab":1584,"Ġswe":1585,"ides":1586,"Ġmatter":1587,"Ðµ":1588,"my":1589,"fect":1590,"cy":1591,"ton":1592,"If":1593,"ister":1594,"Ġprobably":1595,"Ġfun":1596,"Ġbecome":1597,"Ġexc":1598,"where":1599,"Ġoutside":1600,"ĠDe":1601,"Ġmoney":1602,"Ġwithin":1603,"When":1604,"Ġadd":1605,"Ġ4":1606,"Ġpret":1607,"Ġhor":1608,"ining":1609,"Ġonto":1610,"Ġbra":1611,"Ġkiss":1612,"Ġsun":1613,"Ġforward":1614,"Ġchildren":1615,"Ġkid":1616,"ER":1617,"com":1618,"Ġcertain":1619,"Ġgrou":1620,"not":1621,"ange":1622,"Ġminutes":1623,"inted":1624,"Ġfur":1625,"Ġkept":1626,"Ġready":1627,"room":1628,"Ġang":1629,"Ġcell":1630,"Ġreplied":1631,"ract":1632,"Ġ...":1633,"osed":1634,"iver":1635,"Ġcontinued":1636,"ĠBr":1637,"ute":1638,"Ġtaking":1639,"gr":1640,"uss":1641,"els":1642,"01":1643,"Ġhadn":1644,"aybe":1645,"Ġcat":1646,"Ġshow":1647,"Ġwrong":1648,"ik":1649,"rie":1650,"Ġalone":1651,"rought":1652,"eared":1653,"aster":1654,"Ġcol":1655,"Ġcomplete":1656,"gy":1657,"Ġshook":1658,"ony":1659,"Ġphone":1660,"ĠQ":1661,"Ġlive":1662,"Ġlea":1663,"ug":1664,"ina":1665,"land":1666,"lic":1667,"Ġadv":1668,"dden":1669,"Ġ**":1670,"Ġhope":1671,"ially":1672,"Ġinform":1673,"Ġimport":1674,"umber":1675,"Ġlif":1676,"Ġpri":1677,"Ġthinking":1678,"Ġmus":1679,"ards":1680,"Ġpos":1681,"Ġbring":1682,"Ġlost":1683,"me":1684,"Ġbrother":1685,"Ġsaf":1686,"Ġfinally":1687,"Ġfig":1688,"Ġcent":1689,"Ġinterest":1690,"Ġfill":1691,"Ġsudden":1692,"aid":1693,"ging":1694,"ken":1695,"ists":1696,"ump":1697,"ĠWith":1698,"Ġwhis":1699,"Ġliving":1700,"Ġbeaut":1701,"Ġfood":1702,"oul":1703,"Ġsent":1704,"Ġsho":1705,"aces":1706,"Ġbreak":1707,"ement":1708,"ression":1709,"ears":1710,"Ġopp":1711,"otion":1712,"Ġchange":1713,"Ġtaken":1714,"Ġjo":1715,"clud":1716,"Ġbrought":1717,"Ġstru":1718,"cle":1719,"ĠSp":1720,"Ġspeak":1721,"Ġdep":1722,"Ġjob":1723,"ĠNow":1724,"Ġmid":1725,"Ġtrue":1726,"Ġquite":1727,"Ġ5":1728,"Ġeither":1729,"Ġimag":1730,"Ġgiven":1731,"Ġwatched":1732,"ĠJesus":1733,"overed":1734,"ĠDo":1735,"Ġsever":1736,"Ġmag":1737,"ison":1738,"Ġcra":1739,"ĠLord":1740,"Ġmess":1741,"Ġquiet":1742,"ĠJohn":1743,"Ġshall":1744,"Ġnat":1745,"ĠAfter":1746,"Ġslowly":1747,"itc":1748,"Ġdream":1749,"ien":1750,"ics":1751,"iced":1752,"ism":1753,"ĠOne":1754,"Ġtalking":1755,"Ġmem":1756,"Ġfa":1757,"Ġmed":1758,"ues":1759,"Ġactually":1760,"ĠCl":1761,"Ġsoft":1762,"Ġsense":1763,"Ġdou":1764,"stem":1765,"erv":1766,"Ġseveral":1767,"ots":1768,"ices":1769,"Ġfear":1770,"Ġwalk":1771,"Ġstrong":1772,"ma":1773,"Ġcre":1774,"ution":1775,"haps":1776,"Ġarri":1777,"enty":1778,"Ġsaying":1779,"ey":1780,"aned":1781,"Ġtoday":1782,"ex":1783,"iting":1784,"__":1785,"Ġago":1786,"oun":1787,"Do":1788,"ipped":1789,"Ġsing":1790,"Ġtruth":1791,"Ùİ":1792,"Ġdirect":1793,"Ġfollowed":1794,"Ġchair":1795,"ghed":1796,"ĠAd":1797,"Ġcontrol":1798,"Ġinf":1799,"Ġmonth":1800,"arr":1801,"und":1802,"alm":1803,"Ġstory":1804,"Ġanswer":1805,"Ġcut":1806,"Ġcase":1807,"reed":1808,"Ġlips":1809,"Why":1810,"###":1811,"over":1812,"Ġbur":1813,"Ġwhe":1814,"iding":1815,"imes":1816,"Ġocc":1817,"Not":1818,"ery":1819,"Ġhot":1820,"velop":1821,"Ġabove":1822,"Ġwomen":1823,"Ġguess":1824,"Ġdecided":1825,"empt":1826,"anced":1827,"cri":1828,"Ġmaybe":1829,"Ġbusiness":1830,"Ġroll":1831,"Ġbegin":1832,"Ġshoulder":1833,"Ġclosed":1834,"Ġdest":1835,"Ġparent":1836,"Ġwaiting":1837,"Ġav":1838,"Ġchest":1839,"Ġfoot":1840,"Ġgener":1841,"gan":1842,"Ġlow":1843,"ians":1844,"Ġline":1845,"Ġmain":1846,"dle":1847,"ĠOn":1848,"Ġve":1849,"aj":1850,"Ġcold":1851,"Ġroad":1852,"ĠOr":1853,"Ġhours":1854,"Ġimportant":1855,"Ġlay":1856,"Ġnumber":1857,"Ġlonger":1858,"),":1859,"Ġspoke":1860,"Ġpay":1861,"Ġstanding":1862,"aughter":1863,"ats":1864,"iful":1865,"Ġglass":1866,"Ġadm":1867,"Ġattention":1868,"Ġentire":1869,"Ġwindow":1870,"Ġson":1871,"Ġcir":1872,"Ġsystem":1873,"aged":1874,"de":1875,"Ġlaughed":1876,"airs":1877,"Ġgroup":1878,"aim":1879,"ze":1880,"anger":1881,"Ġpossible":1882,"read":1883,"Ġbecame":1884,"ĠBl":1885,"Ġdisapp":1886,"ising":1887,"ief":1888,"Ġprov":1889,"Ġorder":1890,"Ġfive":1891,"ror":1892,"Ġperfect":1893,"Ġskin":1894,"Ġcity":1895,"cent":1896,"ains":1897,"Ġhit":1898,"ork":1899,"Ġtown":1900,"osp":1901,"ider":1902,"Ġcouple":1903,"Ġrequ":1904,"ĠLe":1905,"Ġduring":1906,"ories":1907,"ges":1908,"Ġdeal":1909,"sh":1910,"ital":1911,"ãģ":1912,"joy":1913,"night":1914,"Ġlaugh":1915,"ational":1916,"alth":1917,"Ġworking":1918,"Ð¸":1919,"Ġmod":1920,"Ġknown":1921,"Ð½":1922,"Ġship":1923,"Ġneck":1924,"Ġcaught":1925,"St":1926,"ĠJust":1927,"Ġsuc":1928,"Ġhell":1929,"Ġsorry":1930,"ision":1931,"Ġhappy":1932,"Ġlooks":1933,"Ġaff":1934,"ĠTo":1935,"acked":1936,"medi":1937,"ĠSe":1938,"bs":1939,"....":1940,"oon":1941,"Ġprotect":1942,"Ġwood":1943,"Ġfingers":1944,"antly":1945,"Ġrather":1946,"ages":1947,"ior":1948,"Ġblue":1949,"Ġguy":1950,"ĠPro":1951,"Ġclass":1952,"ÑĤ":1953,"Ġserv":1954,"Ġcond":1955,"Ġsitting":1956,"ĠCar":1957,"body":1958,"ĠWhy":1959,"Ġcross":1960,"Ġtight":1961,"ural":1962,"Ġthr":1963,"Ġclot":1964,"Ġsoc":1965,"Ġyourself":1966,"Ġexam":1967,"Ġyell":1968,"Ġpretty":1969,"Ġisn":1970,"Ġlaw":1971,"Ġpie":1972,"Ġhall":1973,"Ġdev":1974,"Ġmil":1975,"Ġsens":1976,"ern":1977,"Ġbott":1978,"Ġstared":1979,"Ġoffice":1980,"ĠEl":1981,"Ġscream":1982,"aul":1983,"Ġself":1984,"ON":1985,"Ġdam":1986,"Chapter":1987,"Ġpassed":1988,"Ġesc":1989,"Ġenjoy":1990,"Ġrunning":1991,"Ġstraight":1992,"of":1993,"cious":1994,"eks":1995,"Ġexact":1996,"ination":1997,"unt":1998,"Ġpub":1999,"Ġpartic":2000,"Yeah":2001,"Ġview":2002,"Ġgun":2003,"Don":2004,"ended":2005,"lex":2006,"Ġwife":2007,"urch":2008,"ĠCom":2009,"Ġty":2010,"Ġmeans":2011,"though":2012,"ply":2013,"ored":2014,"Ġaccept":2015,"Ġwarm":2016,"Ġparents":2017,"Ġten":2018,"Ġinclud":2019,"ator":2020,"ope":2021,"Ġproblem":2022,"aven":2023,"ĠWh":2024,"Ġpap":2025,"lease":2026,"Ġoften":2027,"bing":2028,"Ġsoul":2029,"Ġele":2030,"Ġrece":2031,"Ġsix":2032,"Ġpray":2033,"ooks":2034,"Â·":2035,"Ġcry":2036,"ctor":2037,"ĠDan":2038,"Ġthemselves":2039,"Ġfine":2040,"Ġmeant":2041,"Ġinformation":2042,"Ġstepped":2043,"Ġbuilding":2044,"Ġ6":2045,"Ġspirit":2046,"Ġearth":2047,"Ġchance":2048,"Ġgaz":2049,"Ġwatch":2050,"ĠNew":2051,"Ġbag":2052,"Ġwonder":2053,"Ġbes":2054,"iam":2055,"zy":2056,"Ġslight":2057,"ones":2058,"Ġbas":2059,"Ġarea":2060,"ĠSome":2061,"Ġsuddenly":2062,"._":2063,"arch":2064,"Ġbeautiful":2065,"unch":2066,"ler":2067,"meric":2068,"aused":2069,"Ġthoughts":2070,"aching":2071,"Ġweek":2072,"Ġbab":2073,"rig":2074,"--":2075,"Ġreturned":2076,"Ġeng":2077,"ĠSc":2078,"hys":2079,"Ġnews":2080,"Ġsol":2081,"Ġheav":2082,"Ġhurt":2083,"Ġ,":2084,"rey":2085,"Ġcannot":2086,"Ġbene":2087,"Ġsort":2088,"ĠSam":2089,"Ġgrow":2090,"Ġsafe":2091,"Ġforg":2092,"ilt":2093,"Ġshot":2094,"Ġpath":2095,"Ġwin":2096,"Then":2097,"Ġimmedi":2098,"Ġord":2099,"ara":2100,"Ġhund":2101,"iny":2102,"Ġhundred":2103,"Ġart":2104,"Ġtrust":2105,"ift":2106,"ĠEvery":2107,"Ġconcer":2108,"ote":2109,"son":2110,"Ġtrou":2111,"ĠSh":2112,"Ġlim":2113,"ches":2114,"Is":2115,"Ġmakes":2116,"ĠPr":2117,"Ġgrin":2118,"Ġdoub":2119,"Ġconst":2120,"Ġ201":2121,"Ġeffect":2122,"Ġholding":2123,"Ġseat":2124,"isted":2125,"Ġfast":2126,"Ġwatching":2127,"erm":2128,"Ġnoticed":2129,"Ġhon":2130,"Ġgrabbed":2131,"light":2132,"sed":2133,"Ġpresent":2134,"ĠWill":2135,"ape":2136,"ocked":2137,"Ġapart":2138,"Ġprev":2139,"Ġpract":2140,"Ġsitu":2141,"rupt":2142,"ought":2143,"inc":2144,"ived":2145,"Ġlevel":2146,"itchen":2147,"Ġcommun":2148,"Ġspace":2149,"Ġdrink":2150,"Ġeat":2151,"Ġyes":2152,"Ġlate":2153,"ole":2154,"Ġign":2155,"ĠAm":2156,"ili":2157,"Ġprof":2158,"rent":2159,"ĠEven":2160,"Ġhappen":2161,"ming":2162,"ring":2163,"Ġprep":2164,"ING":2165,"Ġfollow":2166,"Ġprop":2167,"ude":2168,"ivers":2169,"pec":2170,"ledge":2171,"Ġcloser":2172,"Ġdie":2173,"Ġnice":2174,"Ġshout":2175,"Ġfoc":2176,"Ġkitchen":2177,"Ġdevelop":2178,"vern":2179,"Ġsex":2180,"Ġabs":2181,"Ġlegs":2182,"Ġoffic":2183,"Ġrock":2184,"Ġleaving":2185,"Ġwhisp":2186,"Than":2187,"Ġfut":2188,"Ġprodu":2189,"All":2190,"Ã¢":2191,"Ġburn":2192,"ĠAmeric":2193,"ĠMaybe":2194,"Ġamong":2195,"Ġokay":2196,"Ġhung":2197,"Ġappeared":2198,"ĠDon":2199,"Ñģ":2200,"hel":2201,"Ġmur":2202,"Ġtest":2203,"ives":2204,"OR":2205,"ĠEm":2206,"orrow":2207,"Ġled":2208,"uthor":2209,"acing":2210,"ogn":2211,"Ġbare":2212,"Ġattack":2213,"Ġener":2214,"ÑĢ":2215,"Ġraised":2216,"itive":2217,"Ġlives":2218,"Ġfurther":2219,"Now":2220,"idence":2221,"nect":2222,"Ġsold":2223,"Ġshut":2224,"ham":2225,"Ġfilled":2226,"dy":2227,"Ġcompletely":2228,"Ġprocess":2229,"ggest":2230,"but":2231,"Ġmoving":2232,"Ġconvers":2233,"Ġequ":2234,"dom":2235,"Ġcomes":2236,"Ġearly":2237,"tered":2238,"Ġobs":2239,"Ġann":2240,"ĠJack":2241,"ron":2242,"Ġthro":2243,"umped":2244,"ster":2245,"Ġenc":2246,"Ġanswered":2247,"Ġ7":2248,"Ġsight":2249,"Ġstat":2250,"use":2251,"Ġsuggest":2252,"Ġrealized":2253,"Ġill":2254,"Ġsimply":2255,"Ġinstead":2256,"Ġ9":2257,"Ġusing":2258,"AT":2259,"Ġsuff":2260,"ries":2261,"Ġsecret":2262,"Ġcap":2263,"Ġpict":2264,"Ġtreat":2265,"Ġsal":2266,"Ġtem":2267,"Ġwalking":2268,"Ġloud":2269,"Ġexactly":2270,"ĠTr":2271,"ĠGr":2272,"Ġgod":2273,"ĠAb":2274,"Ġstate":2275,"An":2276,"ding":2277,"ney":2278,"Ġir":2279,"For":2280,"Ġsend":2281,"Ġteam":2282,"Ġempt":2283,"ified":2284,"oid":2285,"roll":2286,"Ġ|":2287,"Ġpushed":2288,"Ġworry":2289,"ãĤ":2290,"ley":2291,"Ġnorm":2292,"Ġanim":2293,"Ġwhatever":2294,"Ġcommand":2295,"Ġest":2296,"Ġcomfort":2297,"Ġkilled":2298,"Ġval":2299,"Ġcrow":2300,"Ġworked":2301,"Ġsus":2302,"Ġvar":2303,"Ð»":2304,"Ġz":2305,"attle":2306,"ĠEd":2307,"After":2308,"Ġpicked":2309,"Ġknows":2310,"Ġcorner":2311,"_.":2312,"Ġstuff":2313,"unk":2314,"Ġfail":2315,"Ġphys":2316,"ality":2317,"Ġplease":2318,"ĠMic":2319,"Ġexpression":2320,"Ġtor":2321,"Ġsmell":2322,"Ġobv":2323,"Are":2324,"Ġitself":2325,"af":2326,"het":2327,"Ġreport":2328,"Ġgrand":2329,"asure":2330,"ĠCon":2331,"ances":2332,"Ġgreen":2333,"ology":2334,"Ġrecogn":2335,"Ġposition":2336,"ashed":2337,"Ġseeing":2338,"Ġpop":2339,"oly":2340,"Ġbox":2341,"Ġbright":2342,"band":2343,"Ġclim":2344,"Ġ8":2345,"itch":2346,"EN":2347,"ires":2348,"Ġcover":2349,"Ġmine":2350,"Ġstrange":2351,"Ġeasy":2352,"Ġce":2353,"Ġwide":2354,"Ġimmediately":2355,"aled":2356,"Ġsingle":2357,"ĠJo":2358,"Ġfuture":2359,"pecially":2360,"acy":2361,"Ġloved":2362,"Ġant":2363,"Ġdog":2364,"Ġweap":2365,"Ġsky":2366,"rif":2367,"Ġstreet":2368,"Ġsister":2369,"lo":2370,"Ġaf":2371,"Ġmonths":2372,"Ġcoun":2373,"bo":2374,"Ø§":2375,"Ġreve":2376,"Al":2377,"Ġspot":2378,"rief":2379,"aining":2380,"Ġking":2381,"let":2382,"Ġexperience":2383,"que":2384,"ighed":2385,"Ġwhispered":2386,"Ġunc":2387,"ĠKing":2388,"Ã©":2389,"Ġrelations":2390,"irm":2391,"Ġproper":2392,"irty":2393,"how":2394,"Ġgiving":2395,"Ġattempt":2396,"Ġconv":2397,"Ġmount":2398,"iter":2399,"like":2400,"Ġsupport":2401,"Ġfollowing":2402,"chn":2403,"yond":2404,"Ġquestions":2405,"Ġones":2406,"ev":2407,"Ġgas":2408,"Ġpot":2409,"Let":2410,"Ġcoff":2411,"Ġresult":2412,"eter":2413,"Ġgirls":2414,"Ġage":2415,"iety":2416,"Ġenergy":2417,"Ġdropped":2418,"Ġpointed":2419,"Ġdied":2420,"eng":2421,"Ġleaned":2422,"RE":2423,"Ġinvol":2424,"wo":2425,"Ġdanger":2426,"à¯į":2427,"iling":2428,"aded":2429,"Ġdirection":2430,"Ġclean":2431,"Ġsilence":2432,"Ġplaced":2433,"Ġbeside":2434,"Ġglanced":2435,"Ġfaith":2436,"Ġevent":2437,"Ġhang":2438,"Ġtouch":2439,"ĠChar":2440,"ousand":2441,"Ġdraw":2442,"Ġseems":2443,"more":2444,"Ġexist":2445,"Ġdiffic":2446,"Ġcheck":2447,"Ġclothes":2448,"Ġfav":2449,"Ġdin":2450,"ĠDav":2451,"Ġforce":2452,"Ġchanged":2453,"Ġguard":2454,"Ġcop":2455,"cha":2456,"Ġexcept":2457,"itted":2458,"Ġhist":2459,"Ġtree":2460,"Ġmiddle":2461,"Ġfigure":2462,"Ġahead":2463,"ending":2464,"Ġround":2465,"Ġfinished":2466,"AN":2467,"Ġtears":2468,"eed":2469,"Ġdress":2470,"ously":2471,"Ġdrive":2472,"sy":2473,"Ġcountry":2474,"Ġappear":2475,"Ġpress":2476,"Just":2477,"Ġsurv":2478,"Ġgold":2479,"aked":2480,"Ġsett":2481,"ĠTom":2482,"His":2483,"ecause":2484,"inal":2485,"Ġsituation":2486,"Ġwaited":2487,"Ġwondered":2488,"hael":2489,"raid":2490,"Ġadded":2491,"Ġstri":2492,"Ġshru":2493,"ĠLet":2494,"erc":2495,"ana":2496,"Ġhus":2497,"Ġmention":2498,"Ġsad":2499,"Ġer":2500,"Ġsuper":2501,"Be":2502,"With":2503,"Ġmis":2504,"Ġmut":2505,"Ġconnect":2506,"Ġarrived":2507,"Ġsword":2508,"zz":2509,"Ġfield":2510,"Ġdesk":2511,"Ġedge":2512,"Ġsum":2513,"Ġbaby":2514,"Ġguys":2515,"Ġknowing":2516,"ees":2517,"Ġincre":2518,"Ġgovern":2519,"Ġauthor":2520,"Ġbeyond":2521,"Ġsupposed":2522,"Ġrespond":2523,"Ġpick":2524,"Ġcapt":2525,"Ġcast":2526,"Ġpaper":2527,"ai":2528,"Ġtelling":2529,"ray":2530,"Ġspent":2531,"Ġmist":2532,"At":2533,"Ġpolice":2534,"Ġthroat":2535,"Ġpeace":2536,"Ġrub":2537,"Ġempty":2538,"ishing":2539,"Ġsighed":2540,"Ġstom":2541,"Ġver":2542,"Ġcarry":2543,"aff":2544,"kes":2545,"ĠÂ·":2546,"Ġjud":2547,"Ġtwenty":2548,"Ġgame":2549,"orth":2550,"amed":2551,"ĠHowever":2552,"port":2553,"Ġthousand":2554,"Ġmass":2555,"Ġmir":2556,"Ġimm":2557,"usion":2558,"ruct":2559,"Ġtrees":2560,"Ġwra":2561,"Ġnearly":2562,"Ġdaughter":2563,"go":2564,"ĠRo":2565,"Ġwish":2566,"ky":2567,"ises":2568,"Ġshad":2569,"Ġparticular":2570,"Ġball":2571,"Ġshoulders":2572,"Ġdiv":2573,"ĠPaul":2574,"come":2575,"Ġlearn":2576,"Ġwhether":2577,"par":2578,"Ġspecial":2579,"Ġrelationship":2580,"ĠPer":2581,"Ġcoffee":2582,"Ġafraid":2583,"Ġfly":2584,"ĠMe":2585,"yn":2586,"Ġcovered":2587,"rand":2588,"aur":2589,"enn":2590,"Ġwants":2591,"Ġhowever":2592,"ills":2593,"ips":2594,"Ġvisit":2595,"ivid":2596,"ively":2597,"Ġknowledge":2598,"hered":2599,"aling":2600,"ask":2601,"ration":2602,"Ġgaze":2603,"Ġsuccess":2604,"Ġhusband":2605,"Ġmark":2606,"Ġconversation":2607,"urity":2608,"ĠYour":2609,"ples":2610,"Ġdiscuss":2611,"Ġsurprised":2612,"Ġund":2613,"Ġkids":2614,"Ġsurround":2615,"Ġdad":2616,"Ġneeds":2617,"Ġmeeting":2618,"HE":2619,"Ġ10":2620,"Ġactiv":2621,"con":2622,"oring":2623,"Ġ]":2624,"Ġrespect":2625,"á»":2626,"ĠSha":2627,"Ġremind":2628,"ĠÙ":2629,"Ġcompl":2630,"rom":2631,"Ġfrown":2632,"Ġthreat":2633,"wards":2634,"ails":2635,"Ġheavy":2636,"itten":2637,"Ġshar":2638,"Ġident":2639,"Ġchurch":2640,"Ġinvest":2641,"Ġhaven":2642,"Ġgri":2643,"Ġweeks":2644,"gen":2645,"ury":2646,"ald":2647,"Ġanyway":2648,"Ġpersonal":2649,"Ġevening":2650,"Ġcompany":2651,"Ġalive":2652,"Ġfair":2653,"Ġcalm":2654,"Ġtom":2655,"Ġperhaps":2656,"Ġminute":2657,"roy":2658,"Ġtonight":2659,"llen":2660,"Ġbooks":2661,"cket":2662,"Ġdoubt":2663,"Ġda":2664,"ĠInd":2665,"Ġcirc":2666,"ris":2667,"ral":2668,"acher":2669,"Ġpurp":2670,"ĠPe":2671,"iled":2672,"Ġtall":2673,"Ġsteps":2674,"Ġcrowd":2675,"ĠAlex":2676,"ĠHar":2677,"une":2678,"Ġevil":2679,"Ġworth":2680,"Ġdistance":2681,"Ġespecially":2682,"Ġtot":2683,"Ġpublic":2684,"Ġrad":2685,"ession":2686,"Ġrev":2687,"Ġstreng":2688,"Ġmill":2689,"Ġpack":2690,"Ġstone":2691,"ushing":2692,"à¤":2693,"val":2694,"Ġdifficult":2695,"ci":2696,"Ġshowed":2697,"atic":2698,"Ġreach":2699,"ĠGe":2700,"ajor":2701,"Ġrelig":2702,"iol":2703,"Ġpriv":2704,"Ġdescri":2705,"ilar":2706,"On":2707,"ume":2708,"ĠPl":2709,"ĠHim":2710,"icking":2711,"iel":2712,"Ġla":2713,"Ġorgan":2714,"Ġentered":2715,"resh":2716,"Ġpossib":2717,"Where":2718,"Ġnecess":2719,"Ġstrugg":2720,"Ġfinger":2721,"Ġstaring":2722,"Ġcollect":2723,"ES":2724,"action":2725,"reet":2726,"Ġcamp":2727,"Ġhuge":2728,"Ġnon":2729,"ording":2730,"rect":2731,"Ġheaded":2732,"idge":2733,"Ġtechn":2734,"Ä±":2735,"Ġaware":2736,"Okay":2737,"dd":2738,"eral":2739,"la":2740,"inite":2741,"Ġcas":2742,"Ġtrouble":2743,"ĠCan":2744,"Ġelect":2745,"reg":2746,"lish":2747,"Who":2748,"Ġsweet":2749,"Ġturning":2750,"Ġbecom":2751,"Ġlived":2752,"ule":2753,"AL":2754,"Ġclaim":2755,"Ġpan":2756,"Ġearl":2757,"Her":2758,"umbled":2759,"Ġbrain":2760,"Ġthick":2761,"Ġlab":2762,"Ġcomput":2763,"Ġluck":2764,"ĠEarth":2765,"miss":2766,"Ġeffort":2767,"Ġslightly":2768,"Ġiss":2769,"ortun":2770,"Ġfle":2771,"illy":2772,"IS":2773,"Ġrese":2774,"ĠAng":2775,"bered":2776,"Ġpun":2777,"Ġdarkness":2778,"uke":2779,"gram":2780,"Ġbir":2781,"Ġtakes":2782,"Good":2783,"Ġpost":2784,"Ġ200":2785,"Ġris":2786,"pite":2787,"ĠAllah":2788,"ĠEng":2789,"ĠØ":2790,"Ġweak":2791,"esh":2792,"Ġsimple":2793,"mp":2794,"Ġarg":2795,"ann":2796,"Ġways":2797,"lt":2798,"Ġbeginning":2799,"Ġwalls":2800,"Ġpiece":2801,"Ġdinner":2802,"cing":2803,"ĠBy":2804,"ĠDr":2805,"Ġ=":2806,"Ġparty":2807,"ays":2808,"ĠThese":2809,"Ġstomach":2810,"Ġnature":2811,"Ġbelow":2812,"ĠDavid":2813,"Ġmusic":2814,"Ġmanaged":2815,"sing":2816,"Ġcontact":2817,"owers":2818,"Ġallowed":2819,"Ġsubject":2820,"Ġnose":2821,"Ġsin":2822,"Ġdoors":2823,"Ġbath":2824,"Ġobject":2825,"Ġbroken":2826,"Ġrolled":2827,"Ġperform":2828,"Ġenem":2829,"bert":2830,"Ġconsider":2831,"ĠChapter":2832,"Ġsick":2833,"ager":2834,"onse":2835,"co":2836,"Ġdeterm":2837,"uit":2838,"Ġcause":2839,"Ġchoice":2840,"ospital":2841,"Ġbrief":2842,"fer":2843,"for":2844,"ental":2845,"Ġjour":2846,"Ġfif":2847,"now":2848,"Ġtomorrow":2849,"Ġnormal":2850,"19":2851,"Ġserious":2852,"ashing":2853,"Ġbarely":2854,"teen":2855,"Ġsometimes":2856,"Ġsmo":2857,"Ġgro":2858,"Ġrespons":2859,"por":2860,"pper":2861,"Ġexpected":2862,"Ġble":2863,"ĠNe":2864,"Ġreading":2865,"ĠDad":2866,"10":2867,"AR":2868,"Ġwearing":2869,"Ġbattle":2870,"ingly":2871,"Ġport":2872,"iles":2873,"Ġlifted":2874,"OU":2875,"Ġcool":2876,"iliar":2877,"Ġgoes":2878,"Ġà®":2879,"Ġur":2880,"ov":2881,"ulation":2882,"mbers":2883,"Ġtravel":2884,"Re":2885,"ption":2886,"ĠMan":2887,"Ġshirt":2888,"Ġpoor":2889,"Ġsave":2890,"eless":2891,"ĠWho":2892,"men":2893,"een":2894,"Ġoper":2895,"bit":2896,"upid":2897,"Ġmagic":2898,"Ġspread":2899,"Ġsurprise":2900,"Ġwound":2901,"well":2902,"Ð¾Ð":2903,"idden":2904,"ĠCha":2905,"ential":2906,"sc":2907,"ooking":2908,"Ġbeha":2909,"Ġsurf":2910,"Ġkey":2911,"ization":2912,"rap":2913,"mm":2914,"Ġforget":2915,"Ġtar":2916,"Ġindivid":2917,"ĠGu":2918,"Ġcharac":2919,"Ġemb":2920,"Ġexplained":2921,"yle":2922,"olution":2923,"Ġeight":2924,"Ġcatch":2925,"Ġdemand":2926,"Ġweren":2927,"set":2928,"Ġteeth":2929,"Ġvill":2930,"Ġsand":2931,"ait":2932,"Ġrose":2933,"rodu":2934,"rit":2935,"Ġwild":2936,"uct":2937,"iers":2938,"ĠJe":2939,"Ġexplain":2940,"Ġdesign":2941,"Ġstrength":2942,"olf":2943,"rest":2944,"Ġsomewhere":2945,"Ġcontinue":2946,"Ġglad":2947,"Ġhorse":2948,"Ġearlier":2949,"Ġworse":2950,"Did":2951,"Ġnotice":2952,"Ġremembered":2953,"ĠWell":2954,"Ġheaven":2955,"ploy":2956,"Ġorig":2957,"Ġnote":2958,"ium":2959,"Ġagreed":2960,"mon":2961,"Ġspl":2962,"Ġrepe":2963,"cked":2964,"Ġboys":2965,"ED":2966,"Ġhig":2967,"Ġtone":2968,"To":2969,"Ġhelped":2970,"Ġeasily":2971,"ball":2972,"Ġemer":2973,"Ġcreated":2974,"rel":2975,"orge":2976,"ĠJames":2977,"Ġcam":2978,"Ġanymore":2979,"Ġmot":2980,"Ġsounds":2981,"izing":2982,"Ġresponse":2983,"Ġbroke":2984,"Ġdrag":2985,"Ġhy":2986,"ceed":2987,"Ġinn":2988,"Ġaccom":2989,"Ġpen":2990,"!'":2991,"oved":2992,"Ġthank":2993,"Ġrele":2994,"ĠEx":2995,"Ġfem":2996,"Hey":2997,"Ġje":2998,"iction":2999,"Ġshare":3000,"ĠLuc":3001,"Ġstret":3002,"ature":3003,"Ġthird":3004,"Ġoffered":3005,"Ġrecord":3006,"Ġlikely":3007,"Ġring":3008,"Ġremained":3009,"yl":3010,"Ġviol":3011,"Ġhistory":3012,"Ġcab":3013,"Ġcurrent":3014,"One":3015,"Ġfocus":3016,"ÙĦ":3017,"Thank":3018,"itions":3019,"Ġplaying":3020,"ucking":3021,"you":3022,"Ġfre":3023,"iving":3024,"Ġcertainly":3025,"Ġborn":3026,"Ġusually":3027,"Ġstore":3028,"Ġshrugged":3029,"Ġanger":3030,"Ġden":3031,"Ġpurpose":3032,"Ġgovernment":3033,"line":3034,"angu":3035,"sidered":3036,"Ġclearly":3037,"Ġtow":3038,"Ġthrew":3039,"Ġmessage":3040,"Of":3041,"Ġalthough":3042,"Ġpresence":3043,"Ġindividual":3044,"ĠSte":3045,"Ġcommon":3046,"ama":3047,"igg":3048,"Ġgets":3049,"ata":3050,"ĠInst":3051,"Ġtrack":3052,"Ġseconds":3053,"ĠPh":3054,"Ġhealth":3055,"Ġcomb":3056,"Ġlearned":3057,"Ġtired":3058,"Ġoffer":3059,"Ġstairs":3060,"Ġsilent":3061,"Ġallow":3062,"Ġscr":3063,"ĠSomet":3064,"Ġconsidered":3065,"Ġangry":3066,"Ġforced":3067,"Ġforest":3068,"âĢĶ\"":3069,"Ġlocal":3070,"hood":3071,"iversity":3072,"ode":3073,"Ġbrown":3074,"Ġcloud":3075,"Ġneg":3076,"Ġshit":3077,"rib":3078,"Ġnone":3079,"erved":3080,"Ġsour":3081,"ĠCol":3082,"aint":3083,"Ġbedroom":3084,"12":3085,"Ġdemon":3086,"Ġliked":3087,"ented":3088,"Ġemotion":3089,"ĠMichael":3090,"Ġpolit":3091,"ĠDid":3092,"ify":3093,"Ġshouted":3094,"Ġreality":3095,"Ch":3096,"Ġasking":3097,"ĠQu":3098,"work":3099,"Ġgrew":3100,"Ġbirth":3101,"Ġmotion":3102,"Ġtruck":3103,"Ġ18":3104,"ĠEv":3105,"Ġworried":3106,"oint":3107,"inally":3108,"Ñĭ":3109,"Ġstupid":3110,"rian":3111,"ĠBar":3112,"ĠBen":3113,"osh":3114,"Ġphot":3115,"Ġbeat":3116,"Ġpaused":3117,"IT":3118,"ades":3119,"Ġdestroy":3120,"Your":3121,"Ġbod":3122,"Ġproject":3123,"Ġhide":3124,"rible":3125,"Ġnerv":3126,"Ġspeed":3127,"udd":3128,"ĠAny":3129,"Ġ0":3130,"ĠOf":3131,"icle":3132,"Ġplaces":3133,"nel":3134,"Ġvan":3135,"rug":3136,"Ġhat":3137,"Ġ12":3138,"Ñĥ":3139,"Ġsepar":3140,"Ġtong":3141,"osing":3142,"Ġpocket":3143,"Ġprogram":3144,"Ġfinal":3145,"Ġlie":3146,"ius":3147,"Ġbeneath":3148,"ĠFather":3149,"Ġjumped":3150,"Ġpicture":3151,"Ġbottom":3152,"Ġworks":3153,"Ġsir":3154,"Ġtast":3155,"Ġfavor":3156,"Ġnor":3157,"Ġregard":3158,"Ġexperien":3159,"Ġopportun":3160,"ĠMrs":3161,"erve":3162,"Ġmajor":3163,"Ġvict":3164,"Ġgently":3165,"11":3166,"Ġrul":3167,"Ġsounded":3168,"ĠCor":3169,"amb":3170,"Ġwritten":3171,"noon":3172,"Ġut":3173,"IC":3174,"tt":3175,"Ġbow":3176,"usted":3177,"Ġquietly":3178,"Ġmembers":3179,"____":3180,"Ġexample":3181,"Ġaccount":3182,"itness":3183,"Ġaut":3184,"oose":3185,"\".":3186,"rely":3187,"ĠMark":3188,"Ġfresh":3189,"Ġaren":3190,"erial":3191,"Ġolder":3192,"Ġfamiliar":3193,"Ġcarried":3194,"Ġcells":3195,"isf":3196,"Ġlady":3197,"inct":3198,"Ġlisten":3199,"Ġhospital":3200,"Ġweight":3201,"Ġmemory":3202,"icated":3203,"ĠMom":3204,"Ġincluding":3205,"rage":3206,"Ġbell":3207,"Ġaction":3208,"reme":3209,"asion":3210,"Ġcomputer":3211,"Ġscreen":3212,"Ġkissed":3213,"ĠOnce":3214,"bel":3215,"Ġcost":3216,"Ġamaz":3217,"sit":3218,"Ġchuck":3219,"Ġrain":3220,"cient":3221,"Ġbull":3222,"Ġsuit":3223,"Ġtiny":3224,"ĠOur":3225,"Ġsimilar":3226,"Ġescape":3227,"Ġlying":3228,"Ġet":3229,"ĠSpirit":3230,"Ġsea":3231,"Ġdoctor":3232,"Ġrid":3233,"Ġmad":3234,"zen":3235,"Ġblank":3236,"tering":3237,"Ġstudy":3238,"Ġtruly":3239,"Ġplanet":3240,"Ġlose":3241,"ok":3242,"lu":3243,"Ġmach":3244,"ading":3245,"wise":3246,"arm":3247,"Ġstation":3248,"Ġcancer":3249,"mber":3250,"Ġpromise":3251,"Ġtele":3252,"Ġvol":3253,"ena":3254,"Ġlangu":3255,"Ġfix":3256,"Ġgent":3257,"Ġforth":3258,"Ġhoped":3259,"Can":3260,"Ġcup":3261,"Ġta":3262,"Sh":3263,"000":3264,"Ġphysical":3265,"Ġmetal":3266,"Ġhanded":3267,"olute":3268,"rop":3269,"Ġcenter":3270,"ĠâĢĶ":3271,"nie":3272,"ĠAg":3273,"what":3274,"Ġpowerful":3275,"Ġlights":3276,"ander":3277,"Ġappre":3278,"leep":3279,"ses":3280,"Ġsecurity":3281,"gress":3282,"Ġsocial":3283,"Ġafternoon":3284,"ighb":3285,"Ġanal":3286,"Ġnatural":3287,"Ġdue":3288,"hile":3289,"alk":3290,"ĠX":3291,"off":3292,"Ġears":3293,"Ġentr":3294,"Come":3295,"AP":3296,"zed":3297,"Ġsear":3298,"Ġdesire":3299,"Ġcheek":3300,"Ġspend":3301,"itude":3302,"ustom":3303,"itary":3304,"Ġmaterial":3305,"rated":3306,"Ġcaus":3307,"Ġhesit":3308,"Ġpressed":3309,"Ġstar":3310,"ancing":3311,"Ġpair":3312,"oci":3313,"Ġknees":3314,"Ġdressed":3315,"Ġcounter":3316,"Ġkeeping":3317,"Ġbal":3318,"cil":3319,"ĠFl":3320,"ĠTheir":3321,"ãĥ":3322,"Ġrelax":3323,"Ġcarefully":3324,"Ġcru":3325,"orld":3326,"Ġtalked":3327,"ĠMatt":3328,"Ġmarried":3329,"ĠSm":3330,"Ġrealize":3331,"ability":3332,"ns":3333,"ĠSat":3334,"astic":3335,"iverse":3336,"Ġdirectly":3337,"ja":3338,"bl":3339,"Ġspeaking":3340,"Ġgar":3341,"Ġfro":3342,"Ġfirm":3343,"Ġinvolved":3344,".,":3345,"cles":3346,"Ġproblems":3347,"Ġstick":3348,"rill":3349,"Ġ20":3350,"ĠMary":3351,"Ġintell":3352,"Ġthin":3353,"Ġhoping":3354,"ĠWhere":3355,"ilities":3356,"ĠGen":3357,"Ġlog":3358,"Maybe":3359,"ĠTe":3360,"Ġoppos":3361,"Ġbelong":3362,"ĠJul":3363,"ÙĲ":3364,"Ġneighb":3365,"Ġband":3366,"Ġsomehow":3367,"Ġpulling":3368,"ica":3369,"Ġheat":3370,"iod":3371,"à¦":3372,"pes":3373,"chie":3374,"Ġenv":3375,"aning":3376,"Ġarr":3377,"Ġtarget":3378,"riage":3379,"inting":3380,"Ġapartment":3381,"Ġbusy":3382,"ĠAre":3383,"Ġfool":3384,"Ġlad":3385,"Ġtype":3386,"umed":3387,"Ġodd":3388,"Ġhumans":3389,"Ġsna":3390,"Ġdim":3391,"Ġwhom":3392,"Ġcorrect":3393,"Ġbuy":3394,"ww":3395,"ls":3396,"ique":3397,"Ġbase":3398,"Ġprison":3399,"Ġwip":3400,"Ġunto":3401,"Ġoccur":3402,"Ġforever":3403,"Ġmeaning":3404,"ĠThan":3405,"ĠKe":3406,"Ġwis":3407,"Ġamount":3408,"ĠJim":3409,"Ġtouched":3410,"initely":3411,"ners":3412,"cend":3413,"Ġbodies":3414,"Ġcrazy":3415,"ox":3416,"ests":3417,"Ġlower":3418,"Ġexha":3419,"Ġdry":3420,"ĠMiss":3421,"Ġservice":3422,"ĠSar":3423,"Ġbless":3424,"Ð°Ð":3425,"Ġshop":3426,"ĠChristian":3427,"Ġremain":3428,"Ġunderstanding":3429,"Ġdrug":3430,"Ġfuck":3431,"Ġflesh":3432,"Ġmoments":3433,"Ġcult":3434,"Ġended":3435,"Ġ&":3436,"Ġwriting":3437,"aptain":3438,"rid":3439,"Ġnecessary":3440,"Ġimagine":3441,"Ġtum":3442,"Ġsurface":3443,"uel":3444,"ites":3445,"Ġtrip":3446,"ety":3447,"Ġstarting":3448,"ground":3449,"Ġdrove":3450,"Ġnumb":3451,"Ġhandle":3452,"ients":3453,"fast":3454,"Ġaffect":3455,"Ġbird":3456,"Ġriver":3457,"ĠOh":3458,"hard":3459,"Ġrou":3460,"Ġdecision":3461,"ĠMost":3462,"Ġstayed":3463,"Ġtongue":3464,"chan":3465,"arily":3466,"Ġfit":3467,"TER":3468,"Ġshif":3469,"Ġwhose":3470,"ĠFrom":3471,"ĠCal":3472,"ping":3473,"Ã¼":3474,"Ġimage":3475,"Ġhate":3476,"Ġblock":3477,"erence":3478,"Ġcal":3479,"rag":3480,"Ġdesper":3481,"sych":3482,"rael":3483,"Ġseven":3484,"Ġextra":3485,"Ġasks":3486,"Ġdi":3487,"Ġevents":3488,"Ġtend":3489,"pic":3490,"play":3491,"Ġlock":3492,"Ġshoot":3493,"Ġcolle":3494,"nal":3495,"ables":3496,"ĠSim":3497,"Ġturns":3498,"Ġvers":3499,"Ġhonest":3500,"Ġbelieved":3501,"ĠLike":3502,"Ġwrapped":3503,"Ġfully":3504,"Ġgentle":3505,"ĠMor":3506,"Ġreceived":3507,"Ġsmiling":3508,"gging":3509,"Ġcy":3510,"ĠMag":3511,"Ġusual":3512,"Ġsong":3513,"Ġimposs":3514,"ÙĨ":3515,"Ġtun":3516,"arden":3517,"Ġmult":3518,"ument":3519,"Ġcaused":3520,"Ġlit":3521,"Ġchallen":3522,"ember":3523,"Ġunderstood":3524,"ĠAmerican":3525,"16":3526,"Ġflat":3527,"'.":3528,"Ġhol":3529,"Ġgrowing":3530,"Ġteacher":3531,"ĠMay":3532,"Ġslid":3533,"istic":3534,"Ġfeelings":3535,"Ġjoin":3536,"ĠÎ":3537,"Ġemploy":3538,"omb":3539,"onna":3540,"Ġconscious":3541,"Ġwel":3542,"Ġapproached":3543,"Ġlack":3544,"Ġcharacter":3545,"Ġvision":3546,"gn":3547,"Ġpal":3548,"Ġstories":3549,"Ġavail":3550,"Ġwilling":3551,"Ġevidence":3552,"arc":3553,"Ġvarious":3554,"itor":3555,"Ġcried":3556,"Ġpaid":3557,"kn":3558,"ĠPeter":3559,"ival":3560,"Ġwrite":3561,"Ġlunch":3562,"ocking":3563,"ucked":3564,"ship":3565,"Ġdear":3566,"lin":3567,"Ġsoldiers":3568,"Ġmov":3569,"Ġjoy":3570,"Ġ15":3571,"Ġhappening":3572,"Ġfold":3573,"Ġcalling":3574,"Ġmissing":3575,"omin":3576,"Ġride":3577,"Ġfighting":3578,"Ġsac":3579,"Ġharm":3580,"Ġcolor":3581,"oured":3582,"Ġshaking":3583,"Ġboard":3584,"Ġsatisf":3585,"Ġstuck":3586,"Ġstro":3587,"Ġlocked":3588,"ĠGl":3589,"Ġi":3590,"Ġbuilt":3591,"Ġcreature":3592,"Ġdecl":3593,"AS":3594,"Ġopening":3595,"Ġãģ":3596,"Ġplayed":3597,"ication":3598,"Ġwore":3599,"Ġeventually":3600,"Ġunf":3601,"ION":3602,"oned":3603,"view":3604,"Ġmission":3605,"Ġblind":3606,"Ġyelled":3607,"ĠMart":3608,"ĠSu":3609,"hib":3610,"Ġdig":3611,"ension":3612,"ĠPat":3613,"13":3614,"ĠGer":3615,"Ġpred":3616,"Ġmoon":3617,"Ġrepres":3618,"Ġmale":3619,"15":3620,"Ġobvious":3621,"anda":3622,"Ġbreast":3623,"Ġlaid":3624,"Ġdisappeared":3625,"Ġfeed":3626,"Ġca":3627,"Ġwitness":3628,"Every":3629,"inary":3630,"Ġdrop":3631,"Ġperiod":3632,"arently":3633,"Ġputting":3634,"Ġentrance":3635,"Ġdoll":3636,"ounced":3637,"ĠTwo":3638,"Ġgrass":3639,"anted":3640,"era":3641,"ran":3642,"Ġavoid":3643,"Ġcho":3644,"Ġfinding":3645,"Ġsnow":3646,"Ġfalling":3647,"Ġdrew":3648,"oses":3649,"ruction":3650,"ulf":3651,"Ġsize":3652,"Ġattract":3653,"Ġbathroom":3654,"Ġslipped":3655,"ĠComm":3656,"Ġgrinned":3657,"Ġhidden":3658,"ĠMc":3659,"Ġfil":3660,"icate":3661,"Ġcrossed":3662,"Ġbenef":3663,"Ġpleasure":3664,"lim":3665,"Ġmer":3666,"Ġpound":3667,"Ġprepared":3668,"20":3669,"Ġhigher":3670,"Ġdust":3671,"Ġsearch":3672,"Ġnur":3673,"ipping":3674,"Ġuns":3675,"Ġlines":3676,"hew":3677,"pha":3678,"Ġability":3679,"Ġfucking":3680,"Ġenter":3681,"rate":3682,"Ġinterrupt":3683,"Ġdate":3684,"otten":3685,"lam":3686,"Ġshock":3687,"Ġinvestig":3688,"\",":3689,"Ġopportunity":3690,"Ġspo":3691,"Ġid":3692,"ĠHel":3693,"pri":3694,"orted":3695,"Ġaud":3696,"Ġwet":3697,"Ġjump":3698,"Ġengine":3699,"Ġcard":3700,"ĠWar":3701,"Ġfrowned":3702,"ĠIsrael":3703,"ĠSy":3704,"Ġsquee":3705,"Ġgest":3706,"ya":3707,"Ġlaughing":3708,"Ġvamp":3709,"Ġhom":3710,"Ġslam":3711,"Ġhun":3712,"ĠFrank":3713,"Some":3714,"ancy":3715,"Ġtrain":3716,"ett":3717,"Ġletter":3718,"Ġmissed":3719,"atch":3720,"Ġenemy":3721,"Ġlanguage":3722,"Ġdut":3723,"ĠOnly":3724,"pected":3725,"Ġimpossible":3726,"Ġswall":3727,"Ġfemale":3728,"Ġsoftly":3729,"ĠWas":3730,"Ġappreci":3731,"Ġcompan":3732,"Ġaccess":3733,"Ġspiritual":3734,"Ġdepart":3735,"Ġnoise":3736,"Ġsell":3737,"iron":3738,"OM":3739,"Ġhost":3740,"Ġscene":3741,"Ġasleep":3742,"Ġgeneral":3743,"Ġguards":3744,"Ġgate":3745,"14":3746,"ca":3747,"time":3748,"Ġye":3749,"athered":3750,"Ġneither":3751,"Ġtoss":3752,"ĠWhile":3753,"Ġourselves":3754,"ĠDar":3755,"lie":3756,"Ġprim":3757,"Ġstaff":3758,"ĠNat":3759,"Ġaside":3760,"Ġdriver":3761,"Ġweapon":3762,"Ġsmoke":3763,"Ġcrack":3764,"Ġrisk":3765,"Ġagree":3766,"cho":3767,"ivil":3768,"eg":3769,"erson":3770,"ĠSec":3771,"ora":3772,"Ġburst":3773,"Ġstorm":3774,"Ġgives":3775,"itional":3776,"Ġsharp":3777,"Ġinj":3778,"Ġgotten":3779,"Ġdangerous":3780,"olly":3781,"Ġknife":3782,"ffic":3783,"NA":3784,"Ġcrew":3785,"Ġfort":3786,"Ġjourney":3787,"ĠÃ":3788,"Ġbottle":3789,"claim":3790,"Ġhappens":3791,"Ġstage":3792,"Ġfaces":3793,"Ġmaster":3794,"ils":3795,"iven":3796,"Ġstudents":3797,"Ġice":3798,"Ġcand":3799,"ength":3800,"Ġtraining":3801,"Ġweapons":3802,"Ġordered":3803,"roud":3804,"ĠJew":3805,"Ġsigh":3806,"Ex":3807,"Ġbound":3808,"ĠAngel":3809,"hold":3810,"Ġprivate":3811,"Ġfac":3812,"Ġsignific":3813,"Ġabsolute":3814,"iah":3815,"Ġobviously":3816,"Ġhole":3817,"Ġindeed":3818,"ological":3819,"ĠEn":3820,"Ġopposite":3821,"CH":3822,"host":3823,"Ġheads":3824,"Ġconfused":3825,"omas":3826,"Ġsociety":3827,"ĠMax":3828,"Ġess":3829,"Ġrob":3830,"asing":3831,"áº":3832,"Ġbased":3833,"ĠAdam":3834,"min":3835,"Ġscared":3836,"Ġveh":3837,"Ġcreate":3838,"ĠHoly":3839,"oph":3840,"By":3841,"Ġscient":3842,"Ġsla":3843,"illed":3844,"ĠBible":3845,"conom":3846,"Ġconcerned":3847,"Ġjoined":3848,"that":3849,"Ġsuppose":3850,"ĠEnglish":3851,"alled":3852,"Ġop":3853,"Ġboat":3854,"Ġloss":3855,"Ġscreamed":3856,"Ġwindows":3857,"uing":3858,"ĠPeople":3859,"Ġfat":3860,"Ġwine":3861,"cul":3862,"\\-":3863,"aches":3864,"Ġhearing":3865,"ĠPres":3866,"Ġdefinitely":3867,"Ġcourt":3868,"lished":3869,"Please":3870,"Ġdetect":3871,"Ġbreathing":3872,"Ġwondering":3873,"Ġsilver":3874,"ems":3875,"Ġvillage":3876,"ases":3877,"Ġcustom":3878,"ĠTHE":3879,"ipp":3880,"ĠJer":3881,"Ġpu":3882,"ĠYes":3883,"key":3884,"ids":3885,"Ġsettled":3886,"izz":3887,"Ġbeast":3888,"18":3889,"ĠCaptain":3890,"net":3891,"Ġestab":3892,"sequ":3893,"Ġanimal":3894,"stairs":3895,"Ġinterested":3896,"imate":3897,"Ġpractice":3898,"che":3899,"Ġdespite":3900,"Ġmovement":3901,"do":3902,"cher":3903,"Ġdamn":3904,"Ġplans":3905,"Ġwave":3906,"Ġgonna":3907,"inn":3908,"board":3909,"hod":3910,"Ġspell":3911,"Ġshouldn":3912,"OT":3913,"ĠãĤ":3914,"Ġthirty":3915,"Ġjack":3916,"30":3917,"tain":3918,"Ġdata":3919,"ences":3920,"Ġbehav":3921,"Ġavailable":3922,"ency":3923,"ĠMed":3924,"Ġhers":3925,"Ġmirror":3926,"Ġleading":3927,"Ġmiles":3928,"Ġbear":3929,"asy":3930,"Ġstream":3931,"ĠAnt":3932,"Ġanimals":3933,"Ġforehead":3934,"Mr":3935,"ĠMike":3936,"Ġhanging":3937,"ĠPerhaps":3938,"Ġdreams":3939,"otions":3940,"Ġsnapped":3941,"Ġsaved":3942,"ators":3943,"Ġmilitary":3944,"ĠUS":3945,"Ġstruct":3946,"Ġbreakfast":3947,"ague":3948,"ĠDes":3949,"Ġmentioned":3950,"Ġdance":3951,"Ġcomment":3952,"Ġquar":3953,"Ùı":3954,"Ġdeb":3955,"iment":3956,"Ġban":3957,"Ġsleeping":3958,"Ġbi":3959,"Ġtax":3960,"book":3961,"asons":3962,"Ġintrodu":3963,"Ġlistening":3964,"Ġmanage":3965,"Ġadj":3966,"Ġnervous":3967,"Ġrelief":3968,"Ġeating":3969,"Ġleaves":3970,"17":3971,"ĠYork":3972,"ram":3973,"Ġpositive":3974,"Ġextreme":3975,"ĠJake":3976,"Ġletting":3977,"Ġfinish":3978,"ĠPar":3979,"Ġinit":3980,"Ġexistence":3981,"Ġfish":3982,"ĠMel":3983,"Ġachie":3984,"Ġinteresting":3985,"onscious":3986,"Ġwooden":3987,"Ġtext":3988,"Ġassoci":3989,"iring":3990,"Ġbank":3991,"Ġremoved":3992,"ibility":3993,"Ġaccording":3994,"Ġconcent":3995,"vent":3996,"Ġresist":3997,"Ġimpro":3998,"Ġwonderful":3999,"Ġwaved":4000,"Ġtea":4001,"ĠJan":4002,"ĠJac":4003,"ĠTim":4004,"enny":4005,"Un":4006,"Ġwake":4007,"Ġoccasion":4008,"Ġassist":4009,"Ġproduct":4010,"Ġaim":4011,"Ġtrad":4012,"Ġfreed":4013,"ĠJon":4014,"Ġofficer":4015,"ĠBecause":4016,"gu":4017,"Ġcareful":4018,"Ġ14":4019,"Ġdifference":4020,"Ġbecoming":4021,"ops":4022,"Ġinflu":4023,"ND":4024,"uk":4025,"oted":4026,"bb":4027,"Ġpsych":4028,"ĠHigh":4029,"ET":4030,"Ġpush":4031,"atter":4032,"Ġcomfortable":4033,"OD":4034,"Ġmillion":4035,"mission":4036,"Ġsides":4037,"Ġpieces":4038,"Ġpossess":4039,"Ġsne":4040,"Ġchecked":4041,"Ġhallway":4042,"Ġancient":4043,"Ġarmy":4044,"ols":4045,"icy":4046,"Ð´":4047,"Ġproud":4048,"Ġfigured":4049,"Ġya":4050,"ĠMad":4051,"Ġflight":4052,"Ġchoose":4053,"ios":4054,"Ġrepeated":4055,"Ġdisplay":4056,"mas":4057,"Ġinstruct":4058,"EL":4059,"Ġlip":4060,"Ġgreet":4061,"Ġapproach":4062,"Ġmarket":4063,"Ġfallen":4064,"Ġprovide":4065,"ĠWilliam":4066,"Ġhotel":4067,"ĠRic":4068,"ĠMus":4069,"Ġwrote":4070,"Ġgather":4071,"Me":4072,"Ġfal":4073,"house":4074,"Ġmountain":4075,"itation":4076,"Ġparts":4077,"ception":4078,"Ġanywhere":4079,"Ġexcited":4080,"fl":4081,"Ġdetails":4082,"Ġwear":4083,"Ùħ":4084,"Ġ13":4085,"ĠInstead":4086,"Ġyours":4087,"Ġconc":4088,"ĠMa":4089,"fortun":4090,"asm":4091,"Ġgift":4092,"cell":4093,"Ġru":4094,"Ġwed":4095,"Ġ11":4096,"Ġfeels":4097,"Ġglance":4098,"Ġflying":4099,"à¯ģ":4100,"ĠFrey":4101,"Ġcabin":4102,"Ġencou":4103,"ĠSer":4104,"Ġthroughout":4105,"Ġrole":4106,"arrass":4107,"Ġens":4108,"Ġcontr":4109,"Ġpure":4110,"Ġcharge":4111,"eds":4112,"iple":4113,"Ġpatient":4114,"Ġdiscovered":4115,"raph":4116,"Ġunless":4117,"Ġtells":4118,"Ġemotions":4119,"ĠOF":4120,"rick":4121,"Ġreflect":4122,"rin":4123,"Ġanx":4124,"Ġaddress":4125,"Ġshower":4126,"Ġdisp":4127,"Ġsummer":4128,"Ġbelief":4129,"va":4130,"Ġbroad":4131,"Ġpill":4132,"Ġleader":4133,"pid":4134,"oman":4135,"Ġtrick":4136,"Ġetern":4137,"cking":4138,"Ġdriving":4139,"Ġinnoc":4140,"aped":4141,"ĠHere":4142,"ĠMore":4143,"Ġbill":4144,"Ġthanks":4145,"Ġlength":4146,"Ġresearch":4147,"aming":4148,"Ġprec":4149,"asp":4150,"Ġrich":4151,"Ġeduc":4152,"aving":4153,"Ġnearby":4154,"Ġthrow":4155,"Ġtent":4156,"//":4157,"ĠRy":4158,"ĠGeorge":4159,"Ġmix":4160,"Ġcircum":4161,"ĠHen":4162,"Ġpossibly":4163,"Ġyellow":4164,"Ġscan":4165,"ĠBefore":4166,"Ġsuggested":4167,"Ġmanner":4168,"Ġactions":4169,"Ġstare":4170,"Ġunable":4171,"under":4172,"Ġmethod":4173,"Ġresponded":4174,"Ġmemories":4175,"ella":4176,"Ġgathered":4177,"attered":4178,"Ġ#":4179,"ĠAf":4180,"Ġtaught":4181,"Ġnames":4182,"Ġprayer":4183,"atory":4184,"Ġuniverse":4185,"ĠThose":4186,"Ġtrail":4187,"ironment":4188,"ĠDaniel":4189,"ords":4190,"Ġmostly":4191,"ales":4192,"inked":4193,"ta":4194,"Ġdistract":4195,"Ġeconom":4196,"',":4197,"ĠPlease":4198,"ĠSarah":4199,"ĠKat":4200,"Ġpool":4201,"orses":4202,"hem":4203,"Ġ16":4204,"Ġtear":4205,"Ġreply":4206,"Ġselect":4207,"Ġdecide":4208,"reek":4209,"Ġwaist":4210,"Ġresults":4211,"ĠBob":4212,"Ġcondition":4213,"aps":4214,"Ġtherefore":4215,"Ġfrust":4216,"Ġshowing":4217,"Ġgrad":4218,"ament":4219,"Ġ$":4220,"Ġembarrass":4221,"Ġprevious":4222,"Ġconcern":4223,"Ġflash":4224,"Ġheading":4225,"ench":4226,"ĠCent":4227,"Ġflew":4228,"rench":4229,"Because":4230,"Ġhous":4231,"ese":4232,"Ġchin":4233,"Ġ199":4234,"ĠPet":4235,"Ġclimbed":4236,"ĠRes":4237,"Thanks":4238,"God":4239,"Ġtu":4240,"Ġcomplex":4241,"Ġtit":4242,"back":4243,"Ġlink":4244,"ĠUniversity":4245,"Ġcheeks":4246,"Ġshape":4247,"ĠRed":4248,"Ġcouch":4249,"ĠEur":4250,"Ġmachine":4251,"Ġvalue":4252,"Ġnamed":4253,"Ġdirt":4254,"Ġadmit":4255,"ĠFirst":4256,"Ġfarm":4257,"Ġwanting":4258,"Ġpet":4259,"Ġrough":4260,"Ġrequired":4261,"Ġsweat":4262,"Ġreleased":4263,"oe":4264,"Ġjer":4265,"ĠTw":4266,"iber":4267,"Ġbother":4268,".)":4269,"Ġburning":4270,"Ġfailed":4271,"Ġcivil":4272,"Ġshared":4273,"Ġcommunity":4274,"gar":4275,"Ġhardly":4276,"Ġdrift":4277,"Ġshadow":4278,"Ġreact":4279,"Look":4280,"Ġopt":4281,"Ġdouble":4282,"Ġexchan":4283,"Ġstars":4284,"asc":4285,"Ġpromised":4286,"Ġnorth":4287,"ested":4288,"ĠGood":4289,"Ġfund":4290,"ira":4291,"ĠTy":4292,"Ġloose":4293,"Ġsource":4294,"Ġpin":4295,"ĠRob":4296,"Ġstated":4297,"org":4298,"ĠWorld":4299,"ĠGab":4300,"Ġgarden":4301,"Ġaccident":4302,"Ġleather":4303,"Ġ17":4304,"Ġpale":4305,"Ġbeer":4306,"lebr":4307,"ĠEric":4308,"pet":4309,"Ġwhisper":4310,"Ġshoes":4311,"Ġanswers":4312,"ita":4313,"terday":4314,"Ġpurcha":4315,"Ġnumbers":4316,"Ġtour":4317,"Ġcrying":4318,"Ġreminded":4319,"Ah":4320,"Ġplate":4321,"50":4322,"Ġfocused":4323,"Ġpassing":4324,"Ġcompet":4325,"Sure":4326,"Ġpotential":4327,"Will":4328,"arrow":4329,"Ġideas":4330,"ka":4331,"Ġwished":4332,"Ġblond":4333,"Ġforgotten":4334,"ada":4335,"Ġchat":4336,"Ġeasier":4337,"Ġelev":4338,"Ġgrip":4339,"Ġterror":4340,"ĠMin":4341,"ĠJud":4342,"IL":4343,"Ġwid":4344,"ĠFreyja":4345,"enger":4346,"Ġvo":4347,"Ar":4348,"Ġprefer":4349,"ĠAmerica":4350,"Ġrise":4351,"Ġlistened":4352,"Ġcred":4353,"ification":4354,"Ġmurder":4355,"pan":4356,"ĠAlthough":4357,"Ġclub":4358,"Ġhorses":4359,"Ġwheel":4360,"Ġannoy":4361,"ÙĪ":4362,"Ġpleas":4363,"arl":4364,"Any":4365,"Ġgreater":4366,"Ġjaw":4367,"ores":4368,"Ġhelping":4369,"Ġrang":4370,"anna":4371,"ĠOl":4372,"Ġtotally":4373,"Ġterrible":4374,"Ñĸ":4375,"Ġchuckled":4376,"Ġcalls":4377,"ĠSee":4378,"Ġliter":4379,"Ġmarriage":4380,"lyn":4381,"Ġnaked":4382,"ĠGrand":4383,"Ġcreatures":4384,"iant":4385,"Ġgigg":4386,"ĠYet":4387,"Ġterm":4388,"Ġaccepted":4389,"ĠIN":4390,"isc":4391,"Ġcarrying":4392,"ĠQue":4393,"mar":4394,"Ġstruck":4395,"ĠCo":4396,"Ġho":4397,"Ġchanges":4398,"Ġfault":4399,"eb":4400,"ĠBro":4401,"Ġdragon":4402,"Ġkilling":4403,"atures":4404,"Ġpark":4405,"ĠMal":4406,"ĠTV":4407,"isa":4408,"Ġbought":4409,"Ġtaste":4410,"Ġcollege":4411,"ĠUnited":4412,"John":4413,"Ġsafety":4414,"Ġ--":4415,"Ġintellig":4416,"Ġfunction":4417,"ĠCam":4418,"ĠGo":4419,"uman":4420,"Ġshake":4421,"Ġrushed":4422,"Ġbeach":4423,"Ġcrit":4424,"Ġblow":4425,"aret":4426,"ĠNothing":4427,"Here":4428,"mit":4429,"Ġsmooth":4430,"anding":4431,"Ġbeauty":4432,"ĠRuss":4433,"Ġpor":4434,"iday":4435,"ĠApp":4436,"Ġhill":4437,"Ġisland":4438,"://":4439,"ĠIm":4440,"Ġmechan":4441,"Ġhiding":4442,"ĠOther":4443,"Ġyounger":4444,"Ġmeal":4445,"Ġprinc":4446,"esides":4447,"Ġroof":4448,"Ġecho":4449,"Ġfought":4450,"ibly":4451,"ints":4452,"Ġseek":4453,"known":4454,"cks":4455,"ST":4456,"Ġsuspic":4457,"osen":4458,"Ġcelebr":4459,"Ġtask":4460,"Ġobl":4461,"kin":4462,"Ġaband":4463,"Ġdeg":4464,"icip":4465,"Ġceiling":4466,"Ġreceive":4467,"Ġincred":4468,"Ġworst":4469,"wood":4470,"ĠLou":4471,"Ġgrace":4472,"ĠBlack":4473,"Ġfunny":4474,"acle":4475,"ointed":4476,"Ġsolid":4477,"no":4478,"Ġstreets":4479,",_":4480,"ĠProp":4481,"Ġnarr":4482,"Ġfright":4483,"Ñı":4484,"inging":4485,"Ġupset":4486,"Ðº":4487,"Ġhated":4488,"Ġuncom":4489,"Ab":4490,"vey":4491,"amn":4492,"Ġwand":4493,"ĠTer":4494,"Ġrules":4495,"Ġlucky":4496,"Ġspir":4497,"Ġcircle":4498,"ĠRobert":4499,"Ġregular":4500,"sive":4501,"Ġdevelopment":4502,"udden":4503,"lessly":4504,"Ġteaching":4505,"ORD":4506,"ĠTO":4507,"hern":4508,"ĠSomething":4509,"Ġmood":4510,"Ġreasons":4511,"ĠAust":4512,"Ã¡":4513,"elle":4514,"Ġbrothers":4515,"Ġwoke":4516,"sec":4517,"itched":4518,"Ġcraw":4519,"Ġdetail":4520,"Ġplanned":4521,"ĠLa":4522,"ĠHad":4523,"Ġfreedom":4524,"ĠSir":4525,"Ġrefer":4526,"ivered":4527,"Ġspr":4528,"ki":4529,"Ġreb":4530,"?_":4531,"Ġenjoyed":4532,"Ġsmart":4533,"antage":4534,"Ġpleased":4535,"Ġprogress":4536,"Ġperfectly":4537,"Get":4538,"Ġrace":4539,"uts":4540,"Ġopin":4541,"Ġlearning":4542,"Ġnet":4543,"Ġreligion":4544,"oom":4545,"ĠLuke":4546,"eping":4547,"Go":4548,"Ġblade":4549,"Ġrevealed":4550,"Ġthinks":4551,"Ġtotal":4552,"inger":4553,"Ġvictim":4554,"Ġembr":4555,"Ġgray":4556,"ĠEll":4557,"ĠNick":4558,"Ġleaders":4559,"Ġjudge":4560,"ĠMon":4561,"omm":4562,"ĠGreat":4563,"eke":4564,"icing":4565,"antic":4566,"tle":4567,"Ġpants":4568,"Hell":4569,"Ġhug":4570,"andy":4571,"raw":4572,"Ġterms":4573,"nes":4574,"Ġacqu":4575,"Ġmember":4576,"ID":4577,"Ġsouth":4578,"Ġspecific":4579,"iot":4580,"eech":4581,"Ġotherwise":4582,"Ġpressure":4583,"Ġcoat":4584,"Ġcausing":4585,"Ġfaster":4586,"Ġpoints":4587,"Ġsetting":4588,"Ġlanded":4589,"Ġdoorway":4590,"Ġmental":4591,"Ġlaughter":4592,"Ġissue":4593,"Ġlap":4594,"uddenly":4595,"ĠVal":4596,"Ġorders":4597,"Ġdetermined":4598,"ĠBill":4599,"Ġprovided":4600,"ĠCity":4601,"riel":4602,"Ġapolog":4603,"APTER":4604,"Ġoriginal":4605,"ĠThomas":4606,"Ġgrown":4607,"ulous":4608,"Ùĩ":4609,"Ġscience":4610,"25":4611,"eel":4612,"Ġdeeply":4613,"elve":4614,"rog":4615,"ĠStill":4616,"Ġjacket":4617,"oyal":4618,"Ġserve":4619,"Ġtwice":4620,"Ġmort":4621,"Ġwarri":4622,"ĠSw":4623,"Ġpointing":4624,"Ġwealth":4625,"Ġweird":4626,"Ġdoc":4627,"Ġpage":4628,"Î±":4629,"eps":4630,"Ġthus":4631,"Ġvide":4632,"Ġpercent":4633,"Ġcircumst":4634,"ribut":4635,"Ġmovie":4636,"Ġshadows":4637,"Sorry":4638,"Ġformer":4639,"aries":4640,"Ø±":4641,"Ġcro":4642,"cean":4643,"Ġbutton":4644,"Ġformed":4645,"AC":4646,"Ġamazing":4647,"Ġghost":4648,"Ġpurs":4649,"Ġignored":4650,"Ġseries":4651,"Ġtrave":4652,"ulated":4653,"Ġcoo":4654,"Ġbridge":4655,"Ġrum":4656,"Ġcars":4657,"Ġagre":4658,"Ġradio":4659,"Ġimpl":4660,"ĠSince":4661,"ares":4662,"Ġexpen":4663,"Ġamb":4664,"iana":4665,"Ġmatch":4666,"epend":4667,"mother":4668,"Ġcleared":4669,"ishment":4670,"Ġmel":4671,"Ġmedical":4672,"Ġcopy":4673,"icient":4674,"Ġbent":4675,":**":4676,"Ġbringing":4677,"Ġexpress":4678,"Ġfavorite":4679,"ĠJoe":4680,"gest":4681,"ĠST":4682,"igned":4683,"ĠJosh":4684,"Ġreaction":4685,"Ġwelcome":4686,"sp":4687,"Ġmassive":4688,"Ġentirely":4689,"lement":4690,"Ġgiant":4691,"ĠBet":4692,"Ġnarrow":4693,"aker":4694,"Ġspecies":4695,"she":4696,"Ġboss":4697,"Ġyesterday":4698,"Ġque":4699,"than":4700,"ĠStates":4701,"ĠJason":4702,"friend":4703,"ĠCont":4704,"LE":4705,"Ġconcept":4706,"Ġpolitical":4707,"ĠMer":4708,"Ġpink":4709,"AD":4710,"ĠDay":4711,"hal":4712,"Ã®":4713,"Ġframe":4714,"rolled":4715,"Ġteach":4716,"Ġtick":4717,"Ġsacrif":4718,"Ġprofession":4719,"ĠChurch":4720,"Have":4721,"Ġenvironment":4722,"ĠCoun":4723,"Ġdise":4724,"ifer":4725,"Ġactivity":4726,"cript":4727,"ĠRem":4728,"Ġrefused":4729,"Or":4730,"Ġcollap":4731,"Ġeverywhere":4732,"ĠEveryone":4733,"ĠPresident":4734,"isters":4735,"Ġtumor":4736,"Ġshield":4737,"gment":4738,"Ġmodel":4739,"Ġknock":4740,"Ġproperty":4741,"Ġsurrounded":4742,"ĠRichard":4743,"Ġmeat":4744,"Per":4745,"ugg":4746,"atched":4747,"ĠEach":4748,"vis":4749,"icles":4750,"Ġtheory":4751,"ĠEurope":4752,"Ġrubbed":4753,"Ġlowered":4754,"Ġvac":4755,"Ġwarning":4756,"ĠWould":4757,"Ġstretched":4758,"Ġhungry":4759,"ocr":4760,"Ġpattern":4761,"Ġwaves":4762,"Ġbecomes":4763,"Ġstudied":4764,"claimed":4765,"gency":4766,"ĠMarc":4767,"Ġmic":4768,"Ð¼":4769,"Ġburned":4770,"Ġtemper":4771,"oot":4772,"AM":4773,"Once":4774,"Ġcig":4775,"Ġcave":4776,"Ġsigns":4777,"ĠLaw":4778,"Ġdisappear":4779,"Ġtwisted":4780,"ĠMaster":4781,"Ġharder":4782,"Ġkicked":4783,"Ġpushing":4784,"Ġprove":4785,"Ġdamage":4786,"elf":4787,"Ġmurd":4788,"Ġsubst":4789,"Ġconsciousness":4790,"Ġpul":4791,"ĠHell":4792,"Ġrestaur":4793,"Ġgolden":4794,"Ġplant":4795,"Ġgrim":4796,"aper":4797,"lection":4798,"Ġgroups":4799,"Ġimpact":4800,"Ġtreatment":4801,"Ġgasped":4802,"rim":4803,"hand":4804,"rab":4805,"ĠChristmas":4806,"ĠBrit":4807,"urs":4808,"ubb":4809,"alley":4810,"Ġfalse":4811,"Ġcock":4812,"OW":4813,"Ġmistake":4814,"Ġparking":4815,"itiz":4816,"ĠChe":4817,"ÏĦ":4818,"Ġmuttered":4819,"Ġdying":4820,"ĠColl":4821,"ondon":4822,"ĠThank":4823,"Ġrecognized":4824,"ato":4825,"Ġknocked":4826,"Ġproceed":4827,"Ġoccup":4828,"Ġpatients":4829,"ĠMany":4830,"ads":4831,"Ġlarger":4832,"Ġadult":4833,"ij":4834,"Ġbreaking":4835,"Ġprior":4836,"iqu":4837,"zing":4838,"ette":4839,"Ġtransl":4840,"olic":4841,"ĠJose":4842,"Ġdescend":4843,"ye":4844,"ictor":4845,"23":4846,"ilies":4847,"Ġdrawn":4848,"Ġlosing":4849,"Ġpowers":4850,"Ġduty":4851,"Ġpictures":4852,"Ġteen":4853,"essor":4854,"ĠQur":4855,"Ġregret":4856,"iform":4857,"achel":4858,"stal":4859,"Ġlung":4860,"Ġdrip":4861,"Ġhero":4862,"Ġreligious":4863,"........":4864,"aly":4865,"Ġremains":4866,"ĠSl":4867,"ĠPhil":4868,"Ġnovel":4869,"Ġiron":4870,"Ġunw":4871,"Ġdirty":4872,"Ġkingdom":4873,"ours":4874,"Ġwoods":4875,"Ġscar":4876,"Ġwings":4877,"Ġrepresent":4878,"ker":4879,"can":4880,"âĢ¢":4881,"Ġplane":4882,"met":4883,"Ġnotes":4884,"Ġstarts":4885,"Ġdrinking":4886,"Ġspoken":4887,"ĠWest":4888,"Ġblur":4889,"lear":4890,"Ġshows":4891,"Ġsearching":4892,"umer":4893,"De":4894,"Ġmodern":4895,"iples":4896,"vert":4897,"Ġsymb":4898,"Ġsam":4899,"Ġrapid":4900,"ashion":4901,"Ġder":4902,"inese":4903,"Ġresc":4904,"ĠBel":4905,"ĠLove":4906,"Ġdepend":4907,"Ġshel":4908,"Ġtail":4909,"ĠLORD":4910,"ĠIslam":4911,"Ġreaching":4912,"Ġvehicle":4913,"Ġangel":4914,"ivity":4915,"Ġshifted":4916,"hant":4917,"Ġsurvive":4918,"Ġinterrupted":4919,"hich":4920,"Ġcow":4921,"Ġsending":4922,"Ġnobody":4923,"ĠSon":4924,"aging":4925,"Ġeld":4926,"itement":4927,"Ġfruit":4928,"ĠJess":4929,"Ġcook":4930,"Ġparticularly":4931,"Ġpassion":4932,"fortunately":4933,"Ġremaining":4934,"Ġclouds":4935,"Ġchose":4936,"athy":4937,"raft":4938,"Ġprice":4939,"Ġfacing":4940,"alt":4941,"Le":4942,"vin":4943,"pre":4944,"pir":4945,"ĠAct":4946,"eous":4947,"agon":4948,"Ġswim":4949,"Ġnegative":4950,"Ġtightly":4951,"Ġrelie":4952,"Ġchosen":4953,"Somet":4954,"Ġsection":4955,"ĠEverything":4956,"Ġplenty":4957,"ĠGerman":4958,"Ġswung":4959,"Ġslept":4960,"ym":4961,"ĠPol":4962,"Ġtied":4963,"Ġrule":4964,"ĠSun":4965,"Ġcrim":4966,"Ġrear":4967,"Ġplanning":4968,"ĠRight":4969,"ĠQueen":4970,"ĠCharlie":4971,"omed":4972,"ura":4973,"Ġmerely":4974,"Ġfol":4975,"inated":4976,"Ġfifty":4977,"ĠRep":4978,"Ġult":4979,"Mar":4980,"had":4981,"isions":4982,"Ġrising":4983,"rum":4984,"Ġapparently":4985,"ĠHouse":4986,"abeth":4987,"ÙĬ":4988,"ekend":4989,"Ġtill":4990,"vision":4991,"Ġshown":4992,"ĠLady":4993,"Ġawake":4994,"22":4995,"Ġplat":4996,"ille":4997,"Like":4998,"Ġlibr":4999,"Ġbud":5000,"ĠLondon":5001,"iest":5002,"Ġscreaming":5003,"Ġsmaller":5004,"Ġforces":5005,"Ġkick":5006,"ĠJacob":5007,"Ġbloody":5008,"ĠSouth":5009,"uries":5010,"ĠGeneral":5011,"From":5012,"Before":5013,"ysis":5014,"vere":5015,"umbling":5016,"Ġate":5017,"Ġsees":5018,"Ġpil":5019,"Ġwedding":5020,"Ġexperienced":5021,"ĠHenry":5022,"Even":5023,"cknow":5024,"father":5025,"ĠRose":5026,"Ġclut":5027,"Ġattend":5028,"Ġappearance":5029,"Ġwisdom":5030,"ino":5031,"Ġabsolutely":5032,"Ġfist":5033,"oma":5034,"Ġstun":5035,"Ġfant":5036,"Ġrelease":5037,"Ġcorrid":5038,"Ġtransform":5039,"Ġcountries":5040,"gin":5041,"Ġstatement":5042,"Ġinner":5043,"Ġconnection":5044,"Ġexplan":5045,"Ġinstant":5046,"Ġlevels":5047,"ĠMother":5048,"Ġdelight":5049,"Ġrooms":5050,"Ġeager":5051,"Ġwaste":5052,"Ġhurried":5053,"Ġuniform":5054,"Ġstands":5055,"Ġcontent":5056,"riff":5057,"Ġsystems":5058,"Ġexcitement":5059,"Ġ30":5060,"imp":5061,"Ġbat":5062,"Ġsmir":5063,"using":5064,"Ġmarry":5065,"Ġstaying":5066,"Ġthousands":5067,"Ġrequire":5068,"Ġspeech":5069,"Ġsuffering":5070,"Ġcart":5071,"Ġminds":5072,"ua":5073,"Ġfrequ":5074,"Ġslammed":5075,"Ġlies":5076,"Ġcases":5077,"Ġdemonst":5078,"rs":5079,"ĠÑģ":5080,"Ġfaint":5081,"Ġsquare":5082,"Ġaccompl":5083,"Ġtossed":5084,"Ġweather":5085,"ĠGet":5086,"anged":5087,"win":5088,"Ġbalance":5089,"ĠThough":5090,"Ġcaptain":5091,"Ġrights":5092,"Ġspin":5093,"Ġuncomfort":5094,"Ġcontract":5095,"Ġevolution":5096,"Ġweekend":5097,"ux":5098,"Ġ198":5099,"ENT":5100,"Ġsilently":5101,"ĠBoth":5102,"Ġbigger":5103,"ĠSund":5104,"ĠFrench":5105,"Ġthy":5106,"Ġinstantly":5107,"Ġexpecting":5108,"Ġdestroyed":5109,"Ġcontain":5110,"Ġgods":5111,"Ġredu":5112,"iance":5113,"Ġworship":5114,"Ġissues":5115,"ext":5116,"Ġintense":5117,"Ġimagined":5118,"ĠFinally":5119,"Ġhappiness":5120,"Ġwiped":5121,"ppy":5122,"Ġfaced":5123,"Ġdistur":5124,"Our":5125,"iation":5126,"Ġtechnology":5127,"Ġpartner":5128,"kward":5129,"ulate":5130,"Ġdeeper":5131,"Ġswallowed":5132,"Ġdaily":5133,"ache":5134,"Ġcamera":5135,"Ġadvantage":5136,"ĠCouncil":5137,"Ġbul":5138,"uh":5139,"ĠAfric":5140,"Qu":5141,"RI":5142,"Ġuncle":5143,"Ġinstinct":5144,"Ġrecently":5145,"Ġdiscover":5146,"Ġpalm":5147,"Ġglow":5148,"Ġboots":5149,"Ġdeveloped":5150,"Ġbeings":5151,"uous":5152,"Ġmatters":5153,"ĠHave":5154,"Ġbuildings":5155,"Ġserved":5156,"Ġdrunk":5157,"Ġbree":5158,"lor":5159,"Ġfellow":5160,"Ġgrowth":5161,"Ġbread":5162,"Ġglasses":5163,"Ġsoldier":5164,"Ġlaws":5165,"Ġpanic":5166,"irmed":5167,"Ġnowhere":5168,"Con":5169,"ĠCome":5170,"Ġwise":5171,"Ġliqu":5172,"Ġoil":5173,"ĠMuslim":5174,"ĠJane":5175,"Ġlift":5176,"erves":5177,"Ġcu":5178,"Ġegg":5179,"Ġloving":5180,"Ġauthority":5181,"Ġhearts":5182,"Ġdefe":5183,"Ġcaut":5184,"Ġgrate":5185,"Ġdemanded":5186,"Ġstudent":5187,"olt":5188,"Ġvoices":5189,"ĠMo":5190,"Ġresponsible":5191,"Ġbite":5192,"Ġshocked":5193,"Ġexerc":5194,"ĠOld":5195,"Ġresour":5196,"à®¤":5197,"ford":5198,"ĠMac":5199,"Ġrange":5200,"ĠRon":5201,"rified":5202,"Ùĳ":5203,"izabeth":5204,"Ġjeans":5205,"vation":5206,"ae":5207,"Ġsomewhat":5208,"ĠCla":5209,"ĠLife":5210,"Ġhonor":5211,"Ġsurely":5212,"Ġstrate":5213,"Ġment":5214,"lies":5215,"Ġ24":5216,"ĠTH":5217,"Ġacknow":5218,"Ġspun":5219,"Ġoverw":5220,"Ġawkward":5221,"Ġneighbor":5222,"Ġverse":5223,"elly":5224,"Ġblast":5225,"sion":5226,"Ġbutt":5227,"ste":5228,"Ġbehavior":5229,"Ġinterview":5230,"Ġfed":5231,"Ġyeah":5232,"Ġflowers":5233,"à¥":5234,"die":5235,"orts":5236,"Ġsexual":5237,"Ġleaning":5238,"Ġdeck":5239,"Ġvirt":5240,"apan":5241,"anch":5242,"Ġtro":5243,"Ġseriously":5244,"Ġfamilies":5245,"Ġflood":5246,"acks":5247,"Ġstruggled":5248,"Ġheight":5249,"spect":5250,"Ġfate":5251,"Ġvampire":5252,"Right":5253,"Ġextremely":5254,"ĠMil":5255,"Ġstructure":5256,"Ġofficial":5257,"Ġprevent":5258,"bled":5259,"Ġconsequ":5260,"EC":5261,"Ġrush":5262,"Ġlocation":5263,"Ġcircumstances":5264,"Ġplain":5265,"Ġmurm":5266,"Ġstir":5267,"Ġconfident":5268,"Ġfeatures":5269,"rain":5270,"incess":5271,"Ġscale":5272,"Ġforms":5273,"Ġfulf":5274,"Ġgrey":5275,"Ġsink":5276,"24":5277,"order":5278,"ĠWithout":5279,"issa":5280,"ĠRay":5281,"Ġocean":5282,"Ġwrist":5283,"Ġfifteen":5284,"atives":5285,"See":5286,"bur":5287,"Ġpriest":5288,"Ġtransport":5289,"Ġflow":5290,"Bl":5291,"ĠCarl":5292,"Ġmap":5293,"Ġpoured":5294,"hell":5295,"ĠSil":5296,"etic":5297,"aren":5298,"Ġsmiles":5299,"bow":5300,"illing":5301,"Ġchick":5302,"Ġmyst":5303,"iveness":5304,"Cl":5305,"ĠÐ¿":5306,"Ġcastle":5307,"ĠAsh":5308,"ĠEve":5309,"Ġcurious":5310,"Ġgames":5311,"ĠInt":5312,"Ġclock":5313,"Int":5314,"Ġpassage":5315,"Ġrelative":5316,"aws":5317,"estern":5318,"Ġhouses":5319,"Ġmedia":5320,"Ġgir":5321,"Ð²":5322,"rier":5323,"Ġstronger":5324,"Ġrecognize":5325,"ĠDev":5326,"Ġspring":5327,"Ġtur":5328,"Ġgoal":5329,"ĠSan":5330,"ĠStep":5331,"Ġune":5332,"ĠAnother":5333,"Ġareas":5334,"Ġdragged":5335,"Ġcitiz":5336,"pro":5337,"Ġinha":5338,"Ġreject":5339,"Ġcompared":5340,"Ġintent":5341,"Ġmuscles":5342,"Ġnine":5343,"idering":5344,"à®°":5345,"Ġsteel":5346,"ĠBre":5347,"Ġbond":5348,"Ġtunnel":5349,"Ġwolf":5350,"fa":5351,"Ġfired":5352,"Ġgain":5353,"Ġconfusion":5354,"inda":5355,"Ġexec":5356,"Ġstates":5357,"While":5358,"Ġblame":5359,"ĠDa":5360,"Ġburied":5361,"Î½":5362,"Ġincreased":5363,"duc":5364,"ĠWhite":5365,"Ġchanging":5366,"vest":5367,"arn":5368,"ensive":5369,"Ġcreation":5370,"Ġmountains":5371,"Ġdisg":5372,"ĠBesides":5373,"Ġhighly":5374,"Ġconvin":5375,"Ġpapers":5376,"Ġalt":5377,"ĠSometimes":5378,"Ġtwelve":5379,"Ġpace":5380,"ecca":5381,"Ġinsisted":5382,"Ġclothing":5383,"Ġpra":5384,"Ġpaint":5385,"Ġvideo":5386,"ĠNorth":5387,"istry":5388,"Ġplastic":5389,"aron":5390,"phone":5391,"Ġdistant":5392,"Ġcrime":5393,"Ġintended":5394,"Ġloudly":5395,"Ġpuzz":5396,"Ġoverwhel":5397,"Ġsurrounding":5398,"Ġrestaurant":5399,"Ġpad":5400,"ĠPart":5401,"elled":5402,"Ġhyp":5403,"ÅŁ":5404,"Ġrocks":5405,"Ġep":5406,"ograph":5407,"Ġchapter":5408,"ĠChan":5409,"Ġwinter":5410,"OL":5411,"Ġraise":5412,"Ġconnected":5413,"arted":5414,"ĠWord":5415,"Ġautom":5416,"Ġassumed":5417,"abor":5418,"gl":5419,"verage":5420,"Ġ197":5421,"Ġadvent":5422,"ĠChris":5423,"ĠKen":5424,"rant":5425,"Ġcapable":5426,"Ġagreement":5427,"Ġnation":5428,"hus":5429,"ari":5430,"Ġactual":5431,"Ġconvinced":5432,"Ġreview":5433,"ĠBo":5434,"ĠWil":5435,"Ġconce":5436,"Ġequip":5437,"ĠÄ":5438,"Ġstiff":5439,"Ġtremb":5440,"Ġsake":5441,"year":5442,"ĠProphet":5443,"ĠCass":5444,"ĠBook":5445,"ĠArt":5446,"Ġexplos":5447,"onel":5448,"Ġgreatest":5449,"hest":5450,"ĠTre":5451,"Ġreturning":5452,"ÑĮ":5453,"Hello":5454,"Nothing":5455,"ĠSure":5456,"Ġsteady":5457,"mo":5458,"Ġseparate":5459,"ĠSimon":5460,"Ġprotection":5461,"Ġcentury":5462,"Ġblanket":5463,"Ġglob":5464,"Ġaspect":5465,"Ġknee":5466,"ĠJapan":5467,"Ġskills":5468,"Ġshift":5469,"Ġscen":5470,"Ġships":5471,"Ġinfluence":5472,"Ġbrow":5473,"Ġpile":5474,"Ġdozen":5475,"Ġmas":5476,"Ġtort":5477,"ĠPark":5478,"unted":5479,"Ġthumb":5480,"Ġopinion":5481,"à®¾":5482,"ilos":5483,"otic":5484,"Ġinnocent":5485,"Ġparked":5486,"ila":5487,"ctions":5488,"Ġheavily":5489,"Ġsplit":5490,"Ġspark":5491,"ĠFred":5492,"Ġthrown":5493,"ĠLy":5494,"ĠDel":5495,"gie":5496,"Ġmob":5497,"Ġtemple":5498,"Ġlovely":5499,"ublic":5500,"hetic":5501,"Ġlots":5502,"27":5503,"Ġadmitted":5504,"Ġtip":5505,"Ġscent":5506,"Ġunlike":5507,"raham":5508,"Ã¶":5509,"Ġpit":5510,"Ġquality":5511,"Ġrequest":5512,"Ġofficers":5513,"ĠVictor":5514,"clus":5515,"Ġdesp":5516,"Ġchallenge":5517,"Tell":5518,"Ã³":5519,"Ġbones":5520,"Ġthigh":5521,"Ġsite":5522,"Ġhurry":5523,"uary":5524,"isible":5525,"Ġ25":5526,"ttp":5527,"à®ķ":5528,"ĠMars":5529,"Ġpopulation":5530,"Ġlake":5531,"Ġupper":5532,"Ġannounced":5533,"ĠSunday":5534,"ĠNever":5535,"Two":5536,"agger":5537,"ether":5538,"Ġbreathe":5539,"Ġarrest":5540,"Ġpond":5541,"Ġobserved":5542,"Ġdiss":5543,"Ġanticip":5544,"ĠAss":5545,"Ġsuccessful":5546,"Ġdollars":5547,"ÙĢ":5548,"Ġfaded":5549,"ias":5550,"oday":5551,"Ġrate":5552,"Ġappears":5553,"ounce":5554,"eron":5555,"Ġrif":5556,"Ġglory":5557,"Ġachieve":5558,"ware":5559,"Ġsomebody":5560,"Ġalien":5561,"Ġfirmly":5562,"icious":5563,"Ġfier":5564,"ĠÑ":5565,"Ġforty":5566,"Ġcycle":5567,"Ġsqueezed":5568,"Ġhips":5569,"Ġfixed":5570,"Ġitems":5571,"Ġforeign":5572,"Ġdescribed":5573,"gs":5574,"Ġcash":5575,"Ġadvice":5576,"Ġindust":5577,"Ġdrawing":5578,"Ġbegins":5579,"athan":5580,"Ġfile":5581,"ĠTra":5582,"Ġstranger":5583,"alous":5584,"down":5585,"Ġetc":5586,"Ġmud":5587,"pret":5588,"imately":5589,"Ġrelated":5590,"Ġclosing":5591,"ault":5592,"arian":5593,"ocol":5594,"Ġemotional":5595,"Ġfashion":5596,"Ġequipment":5597,"pth":5598,"velation":5599,"Ġblinked":5600,"ĠState":5601,"Ad":5602,"uted":5603,"Ġincluded":5604,"ĠTherefore":5605,"ĠAnna":5606,"Ġhasn":5607,"Ġeffects":5608,"ĠSteve":5609,"Ġguide":5610,"II":5611,"Ġrested":5612,"Ġincrease":5613,"Ġrecent":5614,"Ġbast":5615,"à®¿":5616,"Ġrelaxed":5617,"Ġrecall":5618,"war":5619,"ĠReg":5620,"Ġpregn":5621,"Ġinhib":5622,"Ġrot":5623,"ught":5624,"AY":5625,"Ġarch":5626,"Ġmicro":5627,"ĠJay":5628,"ointment":5629,"Ġdogs":5630,"Ġdoct":5631,"see":5632,"Ġtempt":5633,"lan":5634,"Ġchain":5635,"Ġbelt":5636,"ilty":5637,"Ġemp":5638,"Ġyard":5639,"Ġunknown":5640,"umps":5641,"field":5642,"arry":5643,"Ġfinanc":5644,"ounds":5645,"Äģ":5646,"Ġdeliver":5647,"Ġflashed":5648,"Ġtreated":5649,"Ġstress":5650,".\"_":5651,"ĠJeff":5652,"Ġãĥ":5653,"33":5654,"Ġuseful":5655,"Ġappreciate":5656,"nor":5657,"Ġletters":5658,"Ġsuspect":5659,"Ġextended":5660,"Ġhoney":5661,"Ġelevator":5662,"Ġspotted":5663,"Ġrolling":5664,"26":5665,"ona":5666,"ĠÂ":5667,"Ġconfidence":5668,"Ġinqu":5669,"Ġbirthday":5670,"Ġloves":5671,"Ġlegal":5672,"Ġunus":5673,"belie":5674,"Ġpiss":5675,"Ġsouls":5676,"IV":5677,"Ġbirds":5678,"aks":5679,"Ġvir":5680,"Ġkeys":5681,"Ġmeasure":5682,"iley":5683,"Ġwalks":5684,"Pro":5685,"Ġglared":5686,"Ġexclaimed":5687,"Ġlibrary":5688,"Ġhorror":5689,"Ġrighteous":5690,"Ġpossibility":5691,"Ġseason":5692,"ĠJu":5693,"Ġfab":5694,"Ġvib":5695,"Ġwhenever":5696,"Ġexplanation":5697,"ston":5698,"Ġalc":5699,"Ġfolded":5700,"Ġtelevision":5701,"ĠCall":5702,"Ġcareer":5703,"ĠAND":5704,"eline":5705,"ĠMess":5706,"EM":5707,"oms":5708,"Am":5709,"ĠSal":5710,"Ġcous":5711,"Ġoccurred":5712,"eness":5713,"Ġforgot":5714,"Ġpride":5715,"urday":5716,"ooked":5717,"21":5718,"lying":5719,"Ġeverybody":5720,"urance":5721,"Dan":5722,"Ġaddition":5723,"ĠBrian":5724,"cast":5725,"Ġhugged":5726,"Ġparticip":5727,"Ġyouth":5728,"Ġbags":5729,"iable":5730,"Ġclosely":5731,"bye":5732,"Ġsenses":5733,"Ġshame":5734,"Ġrow":5735,"ĠJoseph":5736,"brows":5737,"van":5738,"Ġbone":5739,"Ġma":5740,"Ġhundreds":5741,"ĠOut":5742,"coming":5743,"Ġresponsibility":5744,"usting":5745,"lict":5746,"Ġsched":5747,"ÐµÐ½":5748,"Ġfurn":5749,"Ġbackground":5750,"ĠGrace":5751,"Ġease":5752,"Ġlanding":5753,"Ġavo":5754,"Ġ21":5755,"Ġvast":5756,"Ġbitch":5757,"col":5758,"ĠOb":5759,"Ġmerc":5760,"ipe":5761,"Ġstair":5762,"ĠDanny":5763,"Ġarrange":5764,"neath":5765,"Sam":5766,"Ġthrowing":5767,"Ġwest":5768,"Ġorange":5769,"These":5770,"clusion":5771,"Ġrage":5772,"Ġnational":5773,"Ġreported":5774,"Ġwarmth":5775,"nat":5776,"ĠChristians":5777,"Ġimages":5778,"orter":5779,"Ġalright":5780,"itution":5781,"ĠAnn":5782,"Ġcorridor":5783,"Ġacting":5784,"place":5785,"isting":5786,"Ġmonster":5787,"29":5788,"Ġutter":5789,"Wait":5790,"itute":5791,"Ġconditions":5792,"Ġafford":5793,"nds":5794,"Ġbetray":5795,"Ġheal":5796,"Ġcontem":5797,"fall":5798,"urally":5799,"Ġchairs":5800,"Ġignore":5801,"Ġrealised":5802,"Ġdefend":5803,"Ġmeas":5804,"Ġsan":5805,"ĠSus":5806,"TH":5807,"Ġdesperate":5808,"ĠAndrew":5809,"lfriend":5810,"Ġsignificant":5811,"Ġdisease":5812,"asha":5813,"ĠHelen":5814,"Tom":5815,"Ġuncomfortable":5816,"Ġmate":5817,"Ġactivities":5818,"ero":5819,"Ġeyebrows":5820,"Ġowner":5821,"ĠIntern":5822,"Ġindic":5823,"ĠBig":5824,"Ġhoriz":5825,"Ġpour":5826,"Ġrom":5827,"uf":5828,"Ġnurse":5829,"ado":5830,"ĠTime":5831,"Ġelectric":5832,"Ġdrugs":5833,"ĠThree":5834,"Ġpaying":5835,"atically":5836,"Ġain":5837,"ĠAp":5838,"olved":5839,"Ġpier":5840,"Ġbitter":5841,"Ġobe":5842,"ĠCH":5843,"lock":5844,"Ġappropri":5845,"Ġeducation":5846,"Ġsole":5847,"Ġallowing":5848,"Ġlimited":5849,"!!":5850,"à®©":5851,"sm":5852,"Ġdawn":5853,"Ãł":5854,"Ġservices":5855,"Ġrelieved":5856,"Ġunex":5857,"ĠSol":5858,"Ġattached":5859,"Ġqual":5860,"Ġreass":5861,"US":5862,"Ġattacked":5863,"Ġcontinues":5864,"El":5865,"Ġaudience":5866,"put":5867,"ĠDem":5868,"Ġtrade":5869,"Ġguilt":5870,"Ġflames":5871,"Ġstock":5872,"elling":5873,"aze":5874,"Ġversion":5875,"Ġanalysis":5876,"Ġforgive":5877,"assion":5878,"Ġphilos":5879,"Ġwash":5880,"Ġefforts":5881,"Ġdancing":5882,"Ġreplaced":5883,"Ġsons":5884,"ĠScott":5885,"Ġlat":5886,"Ġbriefly":5887,"Ġeast":5888,"Ġoffering":5889,"Ġslip":5890,"Ġstyle":5891,"!_":5892,"Ġbadly":5893,"Ġsob":5894,"Î¿":5895,"Ġhumanity":5896,"Ġsen":5897,"Ġdevice":5898,"ĠMir":5899,"Ġholy":5900,"Ġrent":5901,"Ġcott":5902,"Ġwarned":5903,"Ġconstantly":5904,"Ġhabit":5905,"Ð°Ð½":5906,"Ġrout":5907,"ico":5908,"Ġguilty":5909,"Ġguns":5910,"with":5911,"ĠRyan":5912,"Ġenjoying":5913,"Ġexit":5914,"Ġtraffic":5915,"rete":5916,"Would":5917,"Ġpant":5918,"urning":5919,"Ġgrave":5920,"Ġgrateful":5921,"nces":5922,"Øª":5923,"ashes":5924,"Ġvisible":5925,"Se":5926,"Ġpopular":5927,"Ġcredit":5928,"Ġsequ":5929,"Ġtitle":5930,"Ġchamber":5931,"Ġbreeze":5932,"ĠHall":5933,"Ġdomin":5934,"Ġcode":5935,"Ġstrike":5936,"rating":5937,"Ġanti":5938,"ĠBrad":5939,"wen":5940,"Ġpause":5941,"ront":5942,"Ġkeeps":5943,"Ġpages":5944,"Ġends":5945,"ĠFa":5946,"Ġmedic":5947,"Ġswear":5948,"ĠCharles":5949,"Ġconstant":5950,"Ġbasic":5951,"Ġinformed":5952,"Ġfriendly":5953,"Ġexcuse":5954,"Ġ~":5955,"Ġstatus":5956,"Ġaltern":5957,"Ġapproaching":5958,"itable":5959,"Ġnights":5960,"Ã§":5961,"Ġshoved":5962,"Ġrope":5963,"da":5964,"Ġclimb":5965,"ĠOver":5966,"Ġculture":5967,"Ġdegree":5968,"Ġdread":5969,"Ġbench":5970,"Ġreward":5971,"Ġbrushed":5972,"Ġbenefit":5973,"Î¹":5974,"ĠRos":5975,"ĠEr":5976,"Ġenemies":5977,"Ġsecure":5978,"Ġreveal":5979,"eled":5980,"CHAPTER":5981,"ĠBilly":5982,"Ġsch":5983,"Ġintention":5984,"ĠLight":5985,"Ġridic":5986,"Ġarrive":5987,"ĠRick":5988,"Ġbelly":5989,"Ġinclude":5990,"Ġthee":5991,"Ġupstairs":5992,"Ġcourage":5993,"gypt":5994,"Ġstab":5995,"Ġenvelop":5996,"Ġsurvival":5997,"Ġmanif":5998,"ĠAM":5999,"ĠDark":6000,"Ġassume":6001,"Ġjudgment":6002,"Ġhesitated":6003,"28":6004,"ĠMs":6005,"Ġtyp":6006,"Ġtables":6007,"yer":6008,"Ġsuffer":6009,"Ġstopping":6010,"Ġmi":6011,"Ġleads":6012,"Ġoption":6013,"Ġspirits":6014,"urt":6015,"Ġplatform":6016,"Ġsav":6017,"Ġdare":6018,"ams":6019,"ĠElizabeth":6020,"Ġsurre":6021,"Ġinvited":6022,"ĠTony":6023,"Ġcovering":6024,"Ġpleasant":6025,"ĠMill":6026,"201":6027,"Ġmoves":6028,"eding":6029,"Ġunique":6030,"omen":6031,"case":6032,"ĠAc":6033,"Ġconsidering":6034,"Ġblew":6035,"Ġstruggle":6036,"ula":6037,"Another":6038,"Ġflu":6039,"Ġjoke":6040,"cellent":6041,"Ġremove":6042,"uffled":6043,"ĠCr":6044,"Ġgut":6045,"ĠLook":6046,"Ġtouching":6047,"opy":6048,"Ġretrie":6049,"Ġassociated":6050,"Ġappl":6051,"Ġvent":6052,"Ġunderneath":6053,"izes":6054,"isten":6055,"ĠDep":6056,"Ġneare":6057,"Ġcheer":6058,"Ġjustice":6059,"geant":6060,"Ġren":6061,"ala":6062,"lar":6063,"Ġnewsp":6064,"Ġinches":6065,"Ġbreathed":6066,"Ġretreat":6067,"Ġmercy":6068,"Ġhorrible":6069,"Ġgang":6070,"inate":6071,"Ġdesigned":6072,"ĠTor":6073,"mad":6074,"Ġprophe":6075,"Ġagent":6076,"Ġcommit":6077,"Ġproof":6078,"aine":6079,"eal":6080,"Ø¯":6081,"Ġclin":6082,"Ġattitude":6083,"Ġgirlfriend":6084,"asped":6085,"semb":6086,"ĠBab":6087,"Ġspect":6088,"Ġreluct":6089,"hi":6090,"Ġencoura":6091,"ĠGreek":6092,"ĠStan":6093,"adem":6094,"andra":6095,"artment":6096,"ĠGreg":6097,"ĠSatan":6098,"Ġsearched":6099,"Ġdepth":6100,"Ġgroaned":6101,"ĠEast":6102,"Ġclen":6103,"Ġscri":6104,"Ġcreating":6105,"bor":6106,"uten":6107,"ĠHarry":6108,"Ġdismiss":6109,"ĠMatthew":6110,"ĠSaturday":6111,"ective":6112,"ĠStreet":6113,"Ġeternal":6114,"Ġadop":6115,"Ġblonde":6116,"ĠIts":6117,".**":6118,"ĠCould":6119,"Ġbegun":6120,"inding":6121,"ket":6122,"Ġprote":6123,"ĠÐ²":6124,"aping":6125,"ĠMu":6126,"Ġcere":6127,"Ġalcoh":6128,"Ġcream":6129,"rict":6130,"Em":6131,"ĠDave":6132,"Ġconduct":6133,"Ġgif":6134,"uming":6135,"Ġnoted":6136,"Ġliber":6137,"Ġresources":6138,"Ġpainful":6139,"ĠAgain":6140,"Does":6141,"Ġlou":6142,"Ġimpress":6143,"verse":6144,"Ġast":6145,"IG":6146,"Ġindepend":6147,"ender":6148,"Ġscrew":6149,"bes":6150,"Ġ196":6151,"Jack":6152,"Ġcraft":6153,"Ġbrings":6154,"Ġhealthy":6155,"Ġtorn":6156,"ĠKim":6157,"UR":6158,"Ġdom":6159,"uine":6160,"Ġlabor":6161,"Dad":6162,"Ġlone":6163,"Ġirrit":6164,"ria":6165,"IR":6166,"Ġescaped":6167,"ĠMarcus":6168,"Ġprecious":6169,"ĠAunt":6170,"uments":6171,"Ġabrupt":6172,"Ġchem":6173,"Ġporch":6174,"icks":6175,"Ġassured":6176,"mes":6177,"Ġsucceed":6178,"Ġbowl":6179,"phas":6180,"Ġapplic":6181,"Ġholds":6182,"Ġgle":6183,"ĠCour":6184,"Hi":6185,"ugust":6186,"ĠSmith":6187,"Ġimprove":6188,"Ġwashed":6189,"evin":6190,"Ġmagn":6191,"oles":6192,"olves":6193,"Ġstumbled":6194,"Ġdevil":6195,"ĠFranc":6196,"Ġmyster":6197,"Ġbrand":6198,"Ġpicking":6199,"acles":6200,"Ġ23":6201,"ĠKate":6202,"ĠAmy":6203,"Ð³":6204,"iy":6205,"Ġfan":6206,"Ġdesert":6207,"Ġdece":6208,"amm":6209,"ĠBritish":6210,"hole":6211,"essel":6212,"husi":6213,"ĠNic":6214,"Ġplants":6215,"Ġliquid":6216,"www":6217,"Ġprofessional":6218,"Ġbacked":6219,"ĠChinese":6220,"OS":6221,"Ġju":6222,"Ġsniff":6223,"ĠNik":6224,"Ġdiscussion":6225,"ckets":6226,"ĠMartin":6227,"alu":6228,"anches":6229,"Ġfinancial":6230,"Ġlikes":6231,"Ġstudies":6232,"ĠLaur":6233,"ospel":6234,"Ġexperiences":6235,"ĠDam":6236,"Ġboyfriend":6237,"Ġwicked":6238,"Ġintern":6239,"Ġswift":6240,"ĠDNA":6241,"ĠJam":6242,"Ġgrowled":6243,"Ġhandsome":6244,"Ġbunch":6245,"ĠSomeone":6246,"Ġsed":6247,"Ġregion":6248,"ĠON":6249,"Ġtempor":6250,"ĠJere":6251,"Ġabandoned":6252,"Ġamongst":6253,"Ġslee":6254,"Ġhealing":6255,"Ġbowed":6256,"Ġrand":6257,"rad":6258,"May":6259,"ĠThus":6260,"Ġsisters":6261,"orse":6262,"obby":6263,"Ġskull":6264,"Ġtypes":6265,"Ġclo":6266,"agn":6267,"Ġworn":6268,"Ġemerged":6269,"Ġdining":6270,"ĠSoph":6271,"Ġstrang":6272,"ĠTell":6273,"Ġfrozen":6274,"Ġrode":6275,"Ġalarm":6276,"ĠJen":6277,"Ġanybody":6278,"Ġrare":6279,"ĠBra":6280,"ĠJews":6281,"Ġhood":6282,"ĠEthan":6283,"Ġbreasts":6284,"ulations":6285,"Ġqueen":6286,"Ġimagination":6287,"ĠWin":6288,"ÑģÑĤ":6289,"Ġstandard":6290,"Ġgenuine":6291,"Ġbot":6292,"Ġtough":6293,"IM":6294,"ini":6295,"ĠEgypt":6296,"ograp":6297,"ĠDoes":6298,"ĠPal":6299,"Ġcloth":6300,"Ġassess":6301,"ĠUnder":6302,"ĠStar":6303,"Ġlightly":6304,"Ġservant":6305,"Ġresting":6306,"annah":6307,"mn":6308,"Ġproduce":6309,"iated":6310,"Ġsilly":6311,"Ġproduced":6312,"Ġgazed":6313,"Ġviolence":6314,"Ġunit":6315,"ollow":6316,"Ġbasis":6317,"rue":6318,"Ġadmin":6319,"itz":6320,"uses":6321,"ĠRel":6322,"ayed":6323,"ĠPrince":6324,"Ġpermission":6325,"gly":6326,"ĠFriday":6327,"erted":6328,"Ġargument":6329,"istent":6330,"Ġperspect":6331,"Ġladies":6332,"Ġrecomm":6333,"osis":6334,"Ġexposed":6335,"Ġstones":6336,"hers":6337,"ĠGal":6338,"Ġprepare":6339,"Ġstern":6340,"Ġpolite":6341,"Perhaps":6342,"Ġpeered":6343,"mosp":6344,"Ġregarding":6345,"45":6346,"Ġbrill":6347,"Ġunconscious":6348,"Ġguests":6349,"isha":6350,"cies":6351,"ĠRachel":6352,"40":6353,"Ġsheep":6354,"Ġfields":6355,"Back":6356,"Ġjealous":6357,"Ag":6358,"looking":6359,"alem":6360,"Ġnormally":6361,"Ġrandom":6362,"overy":6363,"Ġintroduced":6364,"Ġdivine":6365,"Ġexhausted":6366,"Ġtransfer":6367,"Û¡":6368,"Ġmenu":6369,"Ġfence":6370,"Ġestablished":6371,"resp":6372,"Ġcared":6373,"Ġpoison":6374,"ĠUncle":6375,"Ġignor":6376,"Ġsettle":6377,"ban":6378,"sey":6379,"ĠEs":6380,"Ġembrace":6381,"Ġmask":6382,"ĠÄĳ":6383,"Ġconfirmed":6384,"Ġangels":6385,"Ġmal":6386,"Ġsins":6387,"ĠRog":6388,"Ġsurprising":6389,"ancer":6390,"idents":6391,"Ġdrinks":6392,"Ġenorm":6393,"Ġaccur":6394,"Ġkissing":6395,"Ġkinds":6396,"ĠAlso":6397,"Ġexchange":6398,"ipl":6399,"Ġtrained":6400,"ĠPre":6401,"ĠRoman":6402,"Ġthrust":6403,"ashington":6404,"Ġ+":6405,"ĠDiv":6406,"Ġwitch":6407,"oming":6408,"Ġcapital":6409,"Ġseated":6410,"Ġfamous":6411,"Ġshooting":6412,"ĠChina":6413,"Ġlimit":6414,"Ġshat":6415,"ĠMid":6416,"Ġentertain":6417,"osure":6418,"Ġswept":6419,"ÛĮ":6420,"Ġbru":6421,"Ġx":6422,"ela":6423,"Take":6424,"ĠGuard":6425,"vy":6426,"ccording":6427,"hall":6428,"belief":6429,"Ġspending":6430,"Ġge":6431,"Ġservants":6432,"ĠEmma":6433,"hr":6434,"Ġenthusi":6435,"Ġmilk":6436,"ĠCarol":6437,"Ġlesson":6438,"Ġshed":6439,"ĠIndia":6440,"Ġgrandmother":6441,"Jesus":6442,"Ġpurchase":6443,"Matt":6444,"egr":6445,"Ġruns":6446,"Ġpurple":6447,"Ġunusual":6448,"Ġvessel":6449,"rection":6450,"orce":6451,"Ġconvince":6452,"Ġded":6453,"ĠFour":6454,"then":6455,"pril":6456,"Ġunexpected":6457,"Sc":6458,"Ġske":6459,"Ġdesperately":6460,"inity":6461,"ĠAlice":6462,"Ġgarage":6463,"ĠSur":6464,"Ġscript":6465,"ĠProf":6466,"Ġchecking":6467,"Ġchief":6468,"while":6469,"nda":6470,"kind":6471,"Ġobey":6472,"ĠÐ½":6473,"Ġpacked":6474,"ervation":6475,"Ġ22":6476,"Ġdestruction":6477,"Ġanaly":6478,"Ġbuzz":6479,"Mic":6480,"Ġsaving":6481,"Ġpist":6482,"Ġgall":6483,"ĠWal":6484,"Ġriding":6485,"oded":6486,"Ġatmosp":6487,"Ġdirections":6488,"Ġlocated":6489,"craft":6490,"Ġincident":6491,"Ġearn":6492,"Ġfrustration":6493,"pless":6494,"ĠBry":6495,"Ġgrasp":6496,"Ġintelligence":6497,"lec":6498,"Ġclearing":6499,"Ġ50":6500,"Ġ100":6501,"...'":6502,"Ġyards":6503,"Only":6504,"Ġconclud":6505,"Ġencoun":6506,"ĠShan":6507,"Ġtrem":6508,"ĠCy":6509,"Ġthrone":6510,"Ġproperly":6511,"za":6512,"Ġdecisions":6513,"ĠGabriel":6514,"Act":6515,"outs":6516,"ifying":6517,"ĠDet":6518,"Ġven":6519,"obody":6520,"Ġdecor":6521,"five":6522,"Ġtherap":6523,"ĠGreen":6524,"Ġconflict":6525,"ĠWhatever":6526,"Ġshore":6527,"Ġbackwards":6528,"à¯Ī":6529,"ĠGover":6530,"Ġcards":6531,"ĠLucy":6532,"ĠEmily":6533,"SC":6534,"Ġproduction":6535,"Ġnin":6536,"Ġappropriate":6537,"Ġfootball":6538,"ĠÐº":6539,"Ġexpensive":6540,"Îµ":6541,"Ġindividuals":6542,"elia":6543,"umn":6544,"ications":6545,"Ke":6546,"Ġbranches":6547,"Ġlungs":6548,"Ġseeking":6549,"Ġbullet":6550,"Ġpresented":6551,"ĠPri":6552,"mi":6553,"load":6554,"ogether":6555,"arette":6556,"Ġgradu":6557,"ĠÐ±":6558,"ros":6559,"Ġdemons":6560,"Ġsignal":6561,"Ġinvisible":6562,"utenant":6563,"Ġdwell":6564,"gered":6565,"Ġcris":6566,"Ð¿":6567,"walk":6568,"Ġhint":6569,"ga":6570,"Ġrapidly":6571,"unched":6572,"ĠIsa":6573,"Ġhast":6574,"itter":6575,"osition":6576,"iforn":6577,"ida":6578,"ĠBeing":6579,"Ġsentence":6580,"was":6581,"Ġveget":6582,"Ġrat":6583,"Ġlord":6584,"Ġsofa":6585,"Ġinfect":6586,"Ġinterf":6587,"ĠTal":6588,"Ġaverage":6589,"itors":6590,"they":6591,"sters":6592,"Ġroy":6593,"ĠLee":6594,"Ġtie":6595,"UL":6596,"Ġsatisfied":6597,"steps":6598,"Ġglowing":6599,"Ġcontained":6600,"bal":6601,"ĠEngland":6602,"boy":6603,"Ġpulls":6604,"Ġnumer":6605,"Ġscientific":6606,"Ġbeating":6607,"tained":6608,"Ġmaintain":6609,"ristan":6610,"Ġdumb":6611,"Ġgreeted":6612,"irts":6613,"Ġtension":6614,"Ġharsh":6615,"Ġmixed":6616,"mitted":6617,"Ġstruggling":6618,"Ġlic":6619,"Ġcorrupt":6620,"tr":6621,"UT":6622,"Ġhistor":6623,"Ġsymp":6624,"Ġstartled":6625,"rence":6626,"ĠJohnny":6627,"ĠHeaven":6628,"olve":6629,"ÃŃ":6630,"Ġtil":6631,"ef":6632,"ĠBeth":6633,"Was":6634,"uits":6635,"Ġsupply":6636,"OK":6637,"Ġtower":6638,"Ġelement":6639,"Ġtucked":6640,"Ġjobs":6641,"ĠSch":6642,"Ġripped":6643,"ĠTake":6644,"Ġstudying":6645,"Ġarrival":6646,"Ġdealing":6647,"anked":6648,"Ġguest":6649,"Ġeyed":6650,"Ġdelivered":6651,"ĠSchool":6652,"Ġequal":6653,"Ġfabric":6654,"pted":6655,"mond":6656,"Ġank":6657,"Ġsensed":6658,"Ġcigarette":6659,"Ġing":6660,"Ġcurled":6661,"Ġtrapped":6662,"Ġfiction":6663,"Ġax":6664,"ĠIS":6665,"ĠWhich":6666,"ani":6667,"outhern":6668,"Ġensure":6669,"Ġhomes":6670,"Ġcoast":6671,"inks":6672,"ulty":6673,"Ġcitizens":6674,"Really":6675,"acity":6676,"Ġdu":6677,"Ġemphas":6678,"Ġconcrete":6679,"clock":6680,"Very":6681,"Ġloyal":6682,"Ġexercise":6683,"Ġsust":6684,"pack":6685,"ĠSav":6686,"gger":6687,"ĠMount":6688,"à®±":6689,"Pe":6690,"Ġchew":6691,"Ġnuc":6692,"Ġling":6693,"Ġstops":6694,"Ġwithd":6695,"aying":6696,"Ġeffective":6697,"iosity":6698,"uge":6699,"ĠCount":6700,"ĠKar":6701,"Ġcracked":6702,"Ġintellect":6703,"Ġrescue":6704,"rud":6705,"Ġdeserve":6706,"ĠMoses":6707,"Ġfog":6708,"Ġmere":6709,"Ġroute":6710,"Ġupright":6711,"Ġadvanced":6712,"Ġthor":6713,"Ġsinging":6714,"Ġsolution":6715,"Ġgrandfather":6716,"Ġpunishment":6717,"Ġbiggest":6718,"Ġinstructions":6719,"ifornia":6720,"ĠHuman":6721,"brow":6722,"Ġcutting":6723,"Ġdescribe":6724,"Ġfoolish":6725,"Ġdeclared":6726,"Mom":6727,"fire":6728,"Ġurge":6729,"Ġdownstairs":6730,"Ġsacrifice":6731,"ĠTruth":6732,"mark":6733,"Ġcloset":6734,"Ġgenerally":6735,"Ġhitting":6736,"ums":6737,"utions":6738,"ĠJimmy":6739,"Ġheels":6740,"Ġmoral":6741,"Ġmagaz":6742,"Ġdistinct":6743,".*":6744,"jo":6745,"ĠRiver":6746,"ĠBu":6747,"Ġattempted":6748,"ogan":6749,"à®®":6750,"erry":6751,"Ġcurrently":6752,"Ġfra":6753,"Ġgripped":6754,"ĠFRE":6755,"Ġpopped":6756,"Ġseats":6757,"Ġtender":6758,"Ġcharged":6759,"Ġsooner":6760,"Ġimportance":6761,"ĠSoon":6762,"Ġmystery":6763,"ĠVir":6764,"ĠSoc":6765,"Ġdriven":6766,"Ġtravell":6767,"asty":6768,"Ġperman":6769,"inating":6770,"Tr":6771,"ĠRome":6772,"Ġnav":6773,"Ġfailure":6774,"Ġphoto":6775,"ĠDis":6776,"Ġham":6777,"Ġsque":6778,"Ġreports":6779,"otted":6780,"Ġdrank":6781,"Ġspare":6782,"Ġwaters":6783,"sect":6784,"Ġclenched":6785,"Ġsupplies":6786,"just":6787,"Ġclaimed":6788,"Ġmumbled":6789,"Ġraced":6790,"Ġbutter":6791,"agged":6792,"Ġmotioned":6793,"Ġawful":6794,"Ġfasc":6795,"Ġgear":6796,"Ġshopping":6797,"hings":6798,"Ġworkers":6799,"Ġinch":6800,"Ġmultiple":6801,"Ġengage":6802,"ĠAustral":6803,"sha":6804,"Ġperformed":6805,"Ġclasses":6806,"atherine":6807,"rous":6808,"Ġdial":6809,"hh":6810,"Ġdisappointed":6811,"vant":6812,"ĠHun":6813,"Ġcombination":6814,"Ġugly":6815,"ĠWashington":6816,"Ġcompre":6817,"Ġsought":6818,"ĠDrag":6819,"oting":6820,"Ġdang":6821,"ĠAugust":6822,"ÑĪ":6823,"Ġeyebrow":6824,"Ġscattered":6825,"Ġdrifted":6826,"Ġcompleted":6827,"Ġinspect":6828,"Ġalcohol":6829,"gun":6830,"ÙİÙĳ":6831,"Ġvia":6832,"rat":6833,"Ġremark":6834,"unte":6835,"Something":6836,"Ġresistance":6837,"ĠJenny":6838,"Ġdefense":6839,"Ġfourth":6840,"xy":6841,"Ġbored":6842,"Ġtan":6843,"don":6844,"ĠHal":6845,"ĠTri":6846,"ĠDou":6847,"Ġaccompan":6848,"enced":6849,"Ġunl":6850,"Ġalley":6851,"Ġvictory":6852,"ĠOct":6853,"Ġtracks":6854,"Ġelements":6855,"Ġspine":6856,"Ġexisted":6857,"li":6858,"Ã¤":6859,"ĠLand":6860,"Ġresemb":6861,"ĠDra":6862,"Ġfilling":6863,"Ġdug":6864,"Ġfacts":6865,"ĠDespite":6866,"asper":6867,"Ġsalvation":6868,"Ġliterally":6869,"Ġestablish":6870,"Ġmum":6871,"bre":6872,"kins":6873,"ĠLouis":6874,"Ġlined":6875,"hu":6876,"Ġscanned":6877,"Ġuncertain":6878,"ĠMex":6879,"Ġmurmured":6880,"Ġeconomic":6881,"Ġcruel":6882,"OP":6883,"ĠFore":6884,"ĠCalifornia":6885,"Ġnarrowed":6886,"Ġechoed":6887,"ĠTest":6888,"Ġemail":6889,"Ġtapped":6890,"thur":6891,"everal":6892,"Ġbrush":6893,"Ġsensation":6894,"Ġsuspected":6895,"ronic":6896,"ĠClaire":6897,"this":6898,"Ġblessed":6899,"Ġthunder":6900,"Ġelder":6901,"Ġperce":6902,"Ġmanip":6903,"Ġatmosphere":6904,"ola":6905,"Ġfairly":6906,"Ġquant":6907,"Ġinterpret":6908,"ĠIan":6909,"umping":6910,"Ġadditional":6911,"Ġslowed":6912,"Those":6913,"Ġjew":6914,"onday":6915,"Sm":6916,"):":6917,"otes":6918,"Ġvalley":6919,"Ġintens":6920,"Ġbastard":6921,"Ġsits":6922,"Ġcommunication":6923,"Ġminor":6924,"Ġrifle":6925,"stand":6926,"Ġcliff":6927,"Ġidiot":6928,"Ġordinary":6929,"Ġmotor":6930,"oop":6931,"Ġrhy":6932,"Ġembarrassed":6933,"Ġenormous":6934,"Ġgodd":6935,"Ġkiller":6936,"Ġbasket":6937,"ĠKyle":6938,"words":6939,"Ġemergency":6940,"force":6941,"First":6942,"ĠCD":6943,"Ġarmed":6944,"Ġcollapsed":6945,"ĠSeth":6946,"Ġprecise":6947,"Ġwarrior":6948,"ĠÐ¾":6949,"Ġpainted":6950,"Ġidentity":6951,"Ġimpression":6952,"Ġencourage":6953,"Ġscow":6954,"Ġcentre":6955,"ĠAaron":6956,"Ġexpert":6957,"Ġneat":6958,"pled":6959,"ĠHam":6960,"ĠFar":6961,"ĠAid":6962,"Christ":6963,"Ġcollection":6964,"Ġdull":6965,"Ġprimary":6966,"Ġinitial":6967,"Ð¹":6968,"35":6969,"ĠNational":6970,"Ġimpressed":6971,"point":6972,"agers":6973,"Ġwing":6974,"Ġconfess":6975,"Ġtiss":6976,"Ġgathering":6977,"Ġfart":6978,"ĠHope":6979,"Ġpassenger":6980,"ĠSecond":6981,"Ġplus":6982,"Ġbay":6983,"Ġpregnant":6984,"Wow":6985,"Ġabsor":6986,"Ġsheet":6987,"Alex":6988,"Ġsip":6989,"Ġquestioned":6990,"Ġdrown":6991,"Ġcolour":6992,"Ġnervously":6993,"ĠIr":6994,"Ġflipped":6995,"Ġminim":6996,"Ġcauses":6997,"Char":6998,"Ġfiles":6999,"ĠYOU":7000,"Ġfeared":7001,"Ġsmelled":7002,"Ġarmor":7003,"Ġaid":7004,"En":7005,"Ġintegr":7006,"Ġgeneration":7007,"47":7008,"Ġchildhood":7009,"ĠSara":7010,"Ġsuffered":7011,"Ġcommitted":7012,"Ġstunned":7013,"Ġgesture":7014,"ĠSuddenly":7015,"Ġglare":7016,"Ġboo":7017,"Ġguessed":7018,"Ġfrightened":7019,"200":7020,"Ġshell":7021,"non":7022,"Ġperspective":7023,"Ġdesires":7024,"Ġhorizon":7025,"Ġslave":7026,"Ġcolored":7027,"ĠGar":7028,"Ġsharing":7029,"AND":7030,"Ġtang":7031,"Ġbesides":7032,"ĠRam":7033,"Ġimpat":7034,"esis":7035,"Ġ_____":7036,"Ġteachers":7037,"ĠUp":7038,"eeling":7039,"uce":7040,"rees":7041,"Ġthreatened":7042,"ĠRemember":7043,"Ġcore":7044,"Ġquarter":7045,"Ġbomb":7046,"Ġjerked":7047,"Ġactive":7048,"itches":7049,"Ġ28":7050,"Everyone":7051,"Ġvisited":7052,"Ġimmediate":7053,"Ġhighest":7054,"Ġperformance":7055,"Ġcontempl":7056,"Ġcousin":7057,"RA":7058,"Ġcities":7059,"Ġjournal":7060,"vity":7061,"Ġargue":7062,"Ġfinds":7063,"Ġraising":7064,"ocolate":7065,"Ġcaf":7066,"ika":7067,"pire":7068,"ĠØ§":7069,"amped":7070,"Ġpractically":7071,"Ġtools":7072,"Ġcurse":7073,"Ġonline":7074,"Ġmajority":7075,"Ġvul":7076,"Ġroutine":7077,"ĠLor":7078,"CT":7079,"ĠDoctor":7080,"Ġcontents":7081,"LY":7082,"Ġtrial":7083,"ĠSen":7084,"Ġspeaks":7085,"Sur":7086,"99":7087,"About":7088,"Ġreven":7089,"Ġlean":7090,"Ġentering":7091,"Ġ26":7092,"Ġadminist":7093,"Ġoblig":7094,"ĠChief":7095,"ĠMat":7096,"iture":7097,"ago":7098,"stone":7099,"ĠPlan":7100,"Ġproved":7101,"Ġfears":7102,"iate":7103,"ĠTem":7104,"Ġwhist":7105,"Ġfriendship":7106,"bles":7107,"Ġcorpor":7108,"Ġputs":7109,"Ġmagical":7110,"Ġdirected":7111,"Fr":7112,"Ġjail":7113,"ĠKingdom":7114,"Ġsecrets":7115,"Ġtap":7116,"Ġ27":7117,"illa":7118,"Ġslapped":7119,"Ġflick":7120,"Ġvanished":7121,"à®²":7122,"orious":7123,"Ġdropping":7124,"Finally":7125,"Ġfilm":7126,"ĠME":7127,"Ġtrusted":7128,"ressing":7129,"lly":7130,"Fine":7131,"Ġdism":7132,"Ñĩ":7133,"ĠCourt":7134,"Ġtowel":7135,"Ġarticle":7136,"Ġoperation":7137,"arant":7138,"Ġoptions":7139,"Ġsway":7140,"Ġhid":7141,"Ġpurse":7142,"ements":7143,"Ġlouder":7144,"Ġpillow":7145,"Ġmanager":7146,"kered":7147,"Ġbrave":7148,"Ġproduc":7149,"Ġentry":7150,"Ġmillions":7151,"Damn":7152,"Ġsliding":7153,"ĠArab":7154,"Ġ_\"":7155,"Ġboxes":7156,"Ġpolicy":7157,"Ġcentral":7158,"ĠKn":7159,"Ġfists":7160,"Ø¨":7161,"Ġprost":7162,"Ġroyal":7163,"Ġtub":7164,"Ġdepartment":7165,"olen":7166,"Ġfuel":7167,"ntil":7168,"Ġ40":7169,"Ġprotest":7170,"Ġfigures":7171,"erie":7172,"Ġrail":7173,"Ġdeny":7174,"Ġpalace":7175,"Ġthorough":7176,");":7177,"ĠCons":7178,"ĠThanks":7179,"Ġlightning":7180,"ĠArmy":7181,"Ġwidened":7182,"icted":7183,"mony":7184,"Ġcuriosity":7185,"Ġcolors":7186,"Ġbeard":7187,"esse":7188,"entially":7189,"Ġremote":7190,"Ġidentify":7191,"ĠPo":7192,"More":7193,"Ġexcellent":7194,"ushes":7195,"Ġmail":7196,"Ġrust":7197,"Ġoh":7198,"Ġseed":7199,"aph":7200,"Ġsoot":7201,"Ġdetermine":7202,"Ġreflection":7203,"wor":7204,"Ġcatching":7205,"Ġskill":7206,"Ġflower":7207,"Ġfroze":7208,"ĠLisa":7209,"ĠTur":7210,"Ġmovements":7211,"Ġslide":7212,"Ġfootsteps":7213,"ildren":7214,"ĠRec":7215,"Ġcoinc":7216,"Ġfloating":7217,"Sp":7218,"atching":7219,"Ġsymbol":7220,"ober":7221,"izard":7222,"Ġnumerous":7223,"Ġwhoever":7224,"ĠNor":7225,"Ġidentified":7226,"Ġbelievers":7227,"Ñħ":7228,"Ġrealm":7229,"Ġconsequences":7230,"Ġpreviously":7231,"hase":7232,"ĠRen":7233,"Ġridiculous":7234,"Ġsunlight":7235,"Ġphilosop":7236,"Ġdisbelief":7237,"Ġ2013":7238,"Ġvolunte":7239,"Ð°Ð»":7240,"Ġremar":7241,"Ġbatt":7242,"ĠApril":7243,"Ġendless":7244,"Uh":7245,"ĠHaw":7246,"Never":7247,"Ġna":7248,"ĠSusan":7249,"Ġgates":7250,"aylor":7251,"ĠAir":7252,"ĠNathan":7253,"ĠJean":7254,"ĠSP":7255,"Ġcalcul":7256,"ĠSuch":7257,"Ġcops":7258,"Ġnods":7259,"iner":7260,"ulating":7261,"Still":7262,"ĠSub":7263,"Ġshouting":7264,"Ġpersonally":7265,"Ġ\\-":7266,"Ġairport":7267,"Ġplacing":7268,"ĠVan":7269,"Ð·":7270,"ĠFrancis":7271,"Ġmotiv":7272,"Ġuseless":7273,"ĠJune":7274,"ĠLittle":7275,"Ġmarked":7276,"Ġfavour":7277,"Ġcrystal":7278,"Ġabruptly":7279,"Ġflame":7280,"Ġsoil":7281,"Ġfollows":7282,"-\"":7283,"Stop":7284,"CE":7285,"Ġdeliber":7286,"Ġgrabbing":7287,"Ġinvestigation":7288,"Ġfrag":7289,"Ġeaten":7290,"Ġcouncil":7291,"Ġpilot":7292,"Ġresul":7293,"Ġtank":7294,"Ġhissed":7295,"Ã£":7296,"Ġfalls":7297,"Ġpow":7298,"Ġnations":7299,"Dr":7300,"uled":7301,"Ġrubbing":7302,"Ġgifts":7303,"ĠComp":7304,"ĠÑĤ":7305,"37":7306,"Ġwarn":7307,"rying":7308,"Ġwebs":7309,"Ġsandw":7310,"Ġprayed":7311,"ĠCreat":7312,"Ġuses":7313,"Ġrecords":7314,"Ġpressing":7315,"Ġsuperior":7316,"Ġdisciples":7317,"ĠBlood":7318,"Ġassemb":7319,"Ġlun":7320,"Ġpainting":7321,"urd":7322,"gent":7323,"Ġlatest":7324,"Ġsarc":7325,"Ġpretend":7326,"Ġped":7327,"Ġinev":7328,"Ġabilities":7329,"Ġinher":7330,"ĠSad":7331,"Ġanxious":7332,"Ġsurvived":7333,"long":7334,"Ġadventure":7335,"anta":7336,"Ġswitch":7337,"Ġwrit":7338,"Ġseparated":7339,"Ġtrap":7340,"Ġtoile":7341,"Ġhunting":7342,"ĠRussian":7343,"icide":7344,"Ġcompar":7345,"ĠFur":7346,"Ġflowing":7347,"Ġcute":7348,"Ġtore":7349,"Ġsank":7350,"ville":7351,"Ġhorn":7352,"Ġopens":7353,"ĠSuper":7354,"Ġconstruct":7355,"ties":7356,"Ġcharacters":7357,"Ġlands":7358,"Ġpatted":7359,"Ġwounds":7360,"Ġnut":7361,"Ġhelpless":7362,"ĠReb":7363,"ĠSean":7364,"Ġstead":7365,"iamond":7366,"Ġbars":7367,"Ġacts":7368,"Ġcenturies":7369,"Ġisol":7370,"ĠNove":7371,"Ġswing":7372,"ribution":7373,"Ġadvance":7374,"Ġvampires":7375,"Ġintim":7376,"his":7377,"Ġrelationships":7378,"ĠLooking":7379,"ajest":7380,"acon":7381,"Ġexception":7382,"ptember":7383,"Ġgestured":7384,"ĠWay":7385,"agan":7386,"uster":7387,"Ġparties":7388,"Ġbike":7389,"after":7390,"Ġterrified":7391,"Ġevident":7392,"isms":7393,"38":7394,"ĠÐ´":7395,"erable":7396,"Ġnearest":7397,"rial":7398,"ÄŁ":7399,"Ġbarn":7400,"Ġsets":7401,"oves":7402,"Ġgrief":7403,"Ġessential":7404,"Ġcarpet":7405,"Ġovercome":7406,"Ġsucked":7407,"Ġknocking":7408,"ĠBrand":7409,"Ġarranged":7410,"Ġthrill":7411,"ection":7412,"ĠAh":7413,"Ġvalu":7414,"Ġagents":7415,"Ġinjured":7416,"Ġmanagement":7417,"Ġcursed":7418,"Ġrevealing":7419,"Ġlifet":7420,"ĠCole":7421,"Ġvague":7422,"However":7423,"Ġpresident":7424,"Ġbothered":7425,"Ġmessages":7426,"Ġ2012":7427,"Ġstall":7428,"agg":7429,"Ġmanifest":7430,"Ġevalu":7431,"Since":7432,"thm":7433,"Ġbranch":7434,"Ġviolent":7435,"shirt":7436,"onation":7437,"Ġdiscussed":7438,"Ġpistol":7439,"Ġcurt":7440,"Ġunderw":7441,"rily":7442,"Ġfolks":7443,"ĠRom":7444,"Ġcompassion":7445,"Ġbend":7446,"Ġestate":7447,"Ġdefin":7448,"Ġcleaning":7449,"Ġscra":7450,"Ġpm":7451,"ĠRock":7452,"Ġpublished":7453,"Ġok":7454,"ĠMaria":7455,"ĠÐ¸":7456,"Ġinternal":7457,"Ġsteal":7458,"Ġbrilliant":7459,"esome":7460,"oster":7461,"Ġcrash":7462,"Ġol":7463,"itual":7464,"Ġgiggled":7465,"Ġdriveway":7466,"pa":7467,"Ġtries":7468,"Ġcommanded":7469,"Ġtrunk":7470,"Ġreck":7471,"ician":7472,"Ġsail":7473,"Ġtrembling":7474,"Ġmuscle":7475,"ds":7476,"usalem":7477,"Ġcompanion":7478,"Ġassign":7479,"Ġterrit":7480,"Car":7481,"Ġprince":7482,"Ġcrou":7483,"bar":7484,"Ġgoodbye":7485,"Ġblocks":7486,"verted":7487,"Ġindicated":7488,";_":7489,"Ġrarely":7490,"ATION":7491,"Ġstepping":7492,"ĠBa":7493,"Ġbang":7494,"Ġpig":7495,"Ġenhan":7496,"Ġwounded":7497,"ission":7498,"Ġaccent":7499,"Ġphysically":7500,"36":7501,"Ġspat":7502,"Ġchocolate":7503,"Ġec":7504,"Ġlawyer":7505,"ĠNa":7506,"Ġsou":7507,"Ġimper":7508,"Ġwaving":7509,"Ġpuff":7510,"ĠIsland":7511,"BI":7512,"engers":7513,"Ġmile":7514,"ĠCenter":7515,"Ġouter":7516,"ighty":7517,"Ġcaptured":7518,"Ġdried":7519,"Ġsafely":7520,"Ġward":7521,"Ġweakness":7522,"Ġhills":7523,"ĠDor":7524,"Ġvalues":7525,"ĠKevin":7526,"Ġarrow":7527,"lot":7528,"amin":7529,"ordan":7530,"Ġshortly":7531,"Ġillum":7532,"ĠHolly":7533,"ĠIndian":7534,"Ġpee":7535,"ĠScript":7536,"Ġsales":7537,"Ġphen":7538,"ĠDuring":7539,"Ġneighborhood":7540,"Ġ****":7541,"Ġglobal":7542,"Ġcasual":7543,"Ġego":7544,"Ġsevent":7545,"ibl":7546,"ĠBur":7547,"ĠSeb":7548,"Ġfake":7549,"ĠShar":7550,"ĠMonday":7551,"ĠEst":7552,"34":7553,"ĠSelf":7554,"Rem":7555,"Man":7556,"ĠCat":7557,"Ġalert":7558,"á½":7559,"Ġlas":7560,"Ġclue":7561,"irled":7562,"Ġconfirm":7563,"ĠPort":7564,"Ġsounding":7565,"Ġreception":7566,"ĠBay":7567,"Ġhelps":7568,"ĠAfrica":7569,"Ġnewspaper":7570,"ĠMorgan":7571,"inkled":7572,"à®ª":7573,"Ġhal":7574,"ĠCath":7575,"Ġpounding":7576,"Ġfet":7577,"Ġplayer":7578,"Ġstretch":7579,"ĠConst":7580,"à®¯":7581,"natural":7582,"ĠVin":7583,"Ġpreparing":7584,"ito":7585,"ternal":7586,"low":7587,"Ġchicken":7588,"Ġhuh":7589,"Ġcustomers":7590,"vor":7591,"Ġsigned":7592,"Ġdistracted":7593,"hammad":7594,"Ġcritical":7595,"utes":7596,"rett":7597,"onent":7598,"cember":7599,"ĠKeep":7600,"Ġwandered":7601,"Ġload":7602,"CC":7603,"standing":7604,"Ġtray":7605,"iders":7606,"ogen":7607,"Ġorganization":7608,"ilst":7609,"Ġincredible":7610,"Ġcompanies":7611,"ĠLyn":7612,"ĠEle":7613,"Ġdram":7614,"Ġpolic":7615,"Ġcollar":7616,"ĠAmanda":7617,"Ġquarters":7618,"Ġtraditional":7619,"Ġshy":7620,"Ġeggs":7621,"umes":7622,"Ġapparent":7623,"Ġreference":7624,"Ġhopes":7625,"Ġcrap":7626,"Ġattractive":7627,"Ġsubs":7628,"ĠJerusalem":7629,"Ġlied":7630,"Ġforb":7631,"Ġknight":7632,"Ġbol":7633,"asses":7634,"Ġchamp":7635,"Ġting":7636,"yes":7637,"Ġsufficient":7638,"Ġclosest":7639,"overing":7640,"ĠJenn":7641,"ĠMen":7642,"Ġphotos":7643,"ĠHum":7644,"isher":7645,"ggy":7646,"Ġpeaceful":7647,"Ġgal":7648,"ĠMaggie":7649,"brew":7650,"ĠJulia":7651,"Ġmaid":7652,"ĠLink":7653,"Suddenly":7654,"ĠÙħ":7655,"Ġdocument":7656,"Ġkisses":7657,"ĠDen":7658,"Ġseemingly":7659,"bi":7660,"EE":7661,"Ġannoyed":7662,"Ġdefeat":7663,"po":7664,"ĠNone":7665,"Ġloaded":7666,"Ġ/":7667,"Ġignoring":7668,"Ġassass":7669,"Ġending":7670,"78":7671,"Ġtroops":7672,"Ġeru":7673,"Ġlust":7674,"Ġnaturally":7675,"Ġcontinuing":7676,"Dav":7677,"Ġdish":7678,"Ġborder":7679,"Ġgotta":7680,"Ġproced":7681,"mare":7682,"ĠII":7683,"Ġguid":7684,"Ġbleeding":7685,"Ġpockets":7686,"....\"":7687,"Ġchoices":7688,"rolling":7689,"bers":7690,"Ġessence":7691,"Ġ<":7692,"ui":7693,"Most":7694,"Ġà¤":7695,"Ġpersonality":7696,"Ġunivers":7697,"Ġcovers":7698,"ĠDec":7699,"Ste":7700,"ĠÐ°":7701,"ĠRa":7702,"Ġchill":7703,"Ġmovies":7704,"Ġaunt":7705,"Ġinternational":7706,"Ġcombat":7707,"Ġanxiety":7708,"Ġspinning":7709,"rors":7710,"ĠVer":7711,"ĠServ":7712,"azz":7713,"which":7714,"ĠVol":7715,"Ġequally":7716,"ĠShad":7717,"ĠMarch":7718,"Ġholes":7719,"ĠTristan":7720,"Ġreaches":7721,"Ġforcing":7722,"Ġpod":7723,"osm":7724,"Ġbehavi":7725,"Ġknelt":7726,"Ġwarriors":7727,"oning":7728,"ĠFL":7729,"ĠCommun":7730,"Ġcollected":7731,"Ġawareness":7732,"scape":7733,"Ġlonely":7734,"erek":7735,"Ġshining":7736,"Ġtoler":7737,"Ġshiver":7738,"ounded":7739,"ĠBrother":7740,"ĠThor":7741,"ĠThrough":7742,"Ġowned":7743,"ĠJewish":7744,"Ġnap":7745,"ifically":7746,"39":7747,"Ġbelieving":7748,"istics":7749,"Ġcheap":7750,"ĠAbraham":7751,"Ġclar":7752,"Ġengaged":7753,"Æ°":7754,"ĠLong":7755,"ĠToo":7756,"Ġencounter":7757,"ĠTob":7758,"Ġshelter":7759,"lla":7760,"ĠFOR":7761,"Ġtool":7762,"inent":7763,"Ġgul":7764,"Ġinstance":7765,"ĠCle":7766,"ugs":7767,"ashwords":7768,"Ġobjects":7769,"ige":7770,"Ġdamned":7771,"Ġstring":7772,"ĠÙĪ":7773,"Ġcooking":7774,"ĠSa":7775,"mod":7776,"Ġow":7777,"anor":7778,"ĠUnfortunately":7779,"ĠDeath":7780,"cest":7781,"Ġstolen":7782,"Ġawa":7783,"ĠOff":7784,"Ġremembering":7785,"ĠGold":7786,"Ġconsc":7787,"Ġgorge":7788,"Ġshudd":7789,"Ġconclusion":7790,"ĠHy":7791,"Ġfierce":7792,"Ġboot":7793,"Ġlur":7794,"immer":7795,"bie":7796,"Ġsheets":7797,"vi":7798,"Ġextent":7799,"Ġilleg":7800,"31":7801,"ĠPete":7802,"erving":7803,"à®µ":7804,"ĠPR":7805,"Ġselfish":7806,"Ġexists":7807,"Ġspar":7808,"Ġexamined":7809,"ucky":7810,"Ġcontrolled":7811,"Ġphr":7812,"ĠTar":7813,"Ġcalmly":7814,"Ġsadness":7815,"greg":7816,"ĠMur":7817,"_.\"":7818,"asting":7819,"iments":7820,"Ġmighty":7821,"Ġscreams":7822,"cont":7823,"Ġwriter":7824,"ĠToday":7825,"Ġhappily":7826,"**.":7827,"aleb":7828,"Ġfurniture":7829,"iens":7830,"ht":7831,"ĠÐ¼":7832,"Ġproducts":7833,"Sir":7834,"Ġreflected":7835,"life":7836,"Ïģ":7837,"Ġspray":7838,"Ġscramb":7839,"nic":7840,"utation":7841,"Ġbelonged":7842,"Ð°ÑĢ":7843,"Ġbeliefs":7844,"Ġcler":7845,"Ġmysterious":7846,"Ġsneak":7847,"foot":7848,"Which":7849,"á¹":7850,"Ġprincess":7851,"Ġserving":7852,"Ġhttp":7853,"inder":7854,"Ġorg":7855,"Ġapplied":7856,"Ġballs":7857,"Ġtightened":7858,"fit":7859,"Ġtale":7860,"fe":7861,"uz":7862,"Ġprotected":7863,"Ð¾Ð²":7864,"Ġschol":7865,"Ġdestination":7866,"Ġfairy":7867,"Ġshade":7868,"Ġabsence":7869,"Ġrealizing":7870,"eyed":7871,"ĠOkay":7872,"Ġpalms":7873,"ĠOK":7874,"Ġsenior":7875,"ĠRod":7876,"AV":7877,"Ġelbow":7878,"sell":7879,"ĠNorm":7880,"Ġwre":7881,"Ġfishing":7882,"Ġsensitive":7883,"ĠJuly":7884,"Ġwagon":7885,"umble":7886,"Ne":7887,"Ġblessing":7888,"Ġvulner":7889,"Ġtraveling":7890,"Ġtact":7891,"Ġguarant":7892,"icial":7893,"Ġcontext":7894,"rem":7895,"Ġought":7896,"iece":7897,"ortion":7898,"Ġdrops":7899,"Ġskirt":7900,"Ġbarrel":7901,"Ġcrawled":7902,"indy":7903,"irling":7904,"Ġhunt":7905,"46":7906,"Ġrefuse":7907,"ĠLaura":7908,"rik":7909,"Ġdecent":7910,"Ġnuclear":7911,"helle":7912,"ĠStone":7913,"ĠMum":7914,"Ġpunch":7915,"Ang":7916,"Ġritual":7917,"Ġinsane":7918,"ano":7919,"ĠOffic":7920,"Des":7921,"Ġlifting":7922,"Ġleapt":7923,"Ġspite":7924,"ras":7925,"ĠBlue":7926,"Ġcrept":7927,"osal":7928,"ĠAnne":7929,"Ùĥ":7930,"Ġprospect":7931,"Ġbasement":7932,"Ġexplore":7933,"ĠFire":7934,"earing":7935,"Ġlos":7936,"Ġrecon":7937,"Ġmedicine":7938,"olas":7939,"Ġpanel":7940,"Ġshots":7941,"Ġincome":7942,"Ġmarks":7943,"ĠJill":7944,"iolet":7945,"gic":7946,"Ġhook":7947,"lishing":7948,"ĠAL":7949,"Ð±":7950,"Ġaimed":7951,"Ġbold":7952,"ĠLie":7953,"pired":7954,"oving":7955,"Ġnerves":7956,"ĠParis":7957,"Ġhandful":7958,"uttered":7959,"Ġunb":7960,"Ġowners":7961,"Ġraw":7962,"ĠAnyway":7963,"Ġworlds":7964,"Ġacknowled":7965,"ĠDun":7966,"ĠĠ":7967,"Ġsnorted":7968,"Ġattacks":7969,"oard":7970,"ĠJackson":7971,"aved":7972,"ĠTed":7973,"ĠAmericans":7974,"ĠTrans":7975,"Ġoutl":7976,"Ġlessons":7977,"49":7978,"Ġrein":7979,"Ġhonestly":7980,"Ġthread":7981,"ylan":7982,"Ġmethods":7983,"Ġsamples":7984,"ĠLiam":7985,"Ġaffection":7986,"Ø³":7987,"olding":7988,"Ġzomb":7989,"ĠProfessor":7990,"Ġvaluable":7991,"Ġchaos":7992,"ĠBoy":7993,"ante":7994,"Ġtemperature":7995,"ishes":7996,"Ġnest":7997,"estion":7998,"Ġquit":7999,"Ġanswering":8000,"Ġinteract":8001,"Ġexplosion":8002,"ĠUs":8003,"azed":8004,"ensed":8005,"Ġvariety":8006,"Ġrobe":8007,"ĠTommy":8008,"Ġinstructed":8009,"Ġtraveled":8010,"Ġstrategy":8011,"Ġrepeat":8012,"orthern":8013,"Ġscientists":8014,"Ġcompanions":8015,"Ġsorts":8016,"ĠSU":8017,"ĠTam":8018,"orage":8019,"IF":8020,"ÅĤ":8021,"Ġprayers":8022,"conscious":8023,"Ġhalfway":8024,"Ġweb":8025,"ĠLily":8026,"Ġoverhead":8027,"Ġpraise":8028,"wr":8029,"una":8030,"Ġacted":8031,"Ġcrown":8032,"ĠSum":8033,"nment":8034,"Ġresur":8035,"ĠBudd":8036,"Ġselling":8037,"Ġbin":8038,"Ġcruc":8039,"Ġsugar":8040,"Ġblocked":8041,"Ġtoes":8042,"Ġhumor":8043,"EO":8044,"Ġinvolve":8045,"inth":8046,"ĠAlan":8047,"Ġcandid":8048,"gies":8049,"ĠArthur":8050,"THE":8051,"ĠCON":8052,"Save":8053,"Ġcriminal":8054,"Ġtoilet":8055,"Ġnightmare":8056,"essa":8057,"Ġcreep":8058,"isation":8059,"attoo":8060,"ĠKy":8061,"Ġsummon":8062,"Ġgown":8063,"Ġpulse":8064,"ĠBer":8065,"Ġgym":8066,"othy":8067,"Ġshr":8068,"Ġlover":8069,"theless":8070,"Ġlege":8071,"Mark":8072,"Ġobst":8073,"Sha":8074,"ĠStephen":8075,"bon":8076,"nels":8077,"Ġnasty":8078,"ĠAbout":8079,"Ġscru":8080,"Ġpersons":8081,"Ġgoodness":8082,"Paul":8083,"Ind":8084,"Ġadjust":8085,"Ġconqu":8086,"Ġtape":8087,"Ġdebt":8088,"Great":8089,"Ġlifetime":8090,"ailed":8091,"Ġdanced":8092,"ĠShould":8093,"Ġsorrow":8094,"ĠDragon":8095,"ĠSeptember":8096,"Ġcooper":8097,"Ġheavens":8098,"ĠJeremy":8099,"berg":8100,"48":8101,"keep":8102,"Ġpatience":8103,"ĠSally":8104,"Ġclaims":8105,"Ġeth":8106,"Ġracing":8107,"eration":8108,"Ġworthy":8109,"Ġvolume":8110,"Hel":8111,"lights":8112,"Ġapply":8113,"Ġflag":8114,"Ġburden":8115,"Ġpossessed":8116,"Ġcircles":8117,"assed":8118,"Ġcomplicated":8119,"Ġdar":8120,"Ġexploded":8121,"rained":8122,"Ġprepar":8123,"Ġpuzzled":8124,"Ġplayers":8125,"Gen":8126,"ĠTestament":8127,"ĠBern":8128,"Ġrhythm":8129,"itated":8130,"cr":8131,"cut":8132,"Ġchances":8133,"Ġclient":8134,"parent":8135,"aneously":8136,"Ġimmort":8137,"Ġaston":8138,"avin":8139,"Ġassault":8140,"Ġfancy":8141,"Ġrushing":8142,"acious":8143,"Ġeternity":8144,"aves":8145,"Ġcapacity":8146,"Ġtilted":8147,"Ġimpatient":8148,"ãĤ¦":8149,"Ġsports":8150,"Ġalongside":8151,"Ġcake":8152,"Ġexpressed":8153,"ĠFrance":8154,"Ġsexy":8155,"Ġmentally":8156,"Ġadding":8157,"Ġbenefits":8158,"ĠEM":8159,"Ġflee":8160,"ĠTen":8161,"Ġeyel":8162,"town":8163,"Ġ.\"":8164,"Ġfleet":8165,"heart":8166,"Ġpissed":8167,"pring":8168,"Ġdecades":8169,"Ġlapt":8170,"ĠLucas":8171,"Ġshove":8172,"ĠGOD":8173,"Ġvalid":8174,"ĠAN":8175,"Ġpreferred":8176,"Ġexperiment":8177,"Ġfuneral":8178,"Ġfled":8179,"Ġancest":8180,"Ġcorners":8181,"ĠConf":8182,"Ġconven":8183,"Ġhip":8184,"ĠAz":8185,"Luc":8186,"Ġbacks":8187,"Ġsalt":8188,"sized":8189,"Ġ29":8190,"Ġattempts":8191,"Ġphotograph":8192,"ributed":8193,"iger":8194,"Ġrequires":8195,"''":8196,"ĠHa":8197,"Ġindustry":8198,"pse":8199,"Ġelim":8200,"itar":8201,"Ġpraying":8202,"nam":8203,"unction":8204,"Ġverses":8205,"Ġinterests":8206,"Ġupwards":8207,"ĠMuslims":8208,"ĠMarg":8209,"Ġthreatening":8210,"aware":8211,"Ġpounds":8212,"elcome":8213,"Ġreduced":8214,"rations":8215,"Ġboring":8216,"Ġ×":8217,"ĠTyler":8218,"Ġstraightened":8219,"Ġgoods":8220,"Ġcleaned":8221,"itty":8222,"ĠFre":8223,"ĠBeck":8224,"ĠNight":8225,"Ġvig":8226,"ĠZe":8227,"Ġnud":8228,"Ġmyth":8229,"icians":8230,"iper":8231,"Ġconference":8232,"Ġfaithful":8233,"Ġcloak":8234,"ĠYeah":8235,"ĠTex":8236,"Ġmortal":8237,"mate":8238,"Ġcough":8239,"atin":8240,"Ġdoctors":8241,"Ġaffected":8242,"ĠSk":8243,"Ġschedule":8244,"Ġnegot":8245,"ba":8246,"32":8247,"inds":8248,"Ġpersu":8249,"Ġnetwork":8250,"ĠSix":8251,"Ġvehicles":8252,"Ġpoet":8253,"Ġobsc":8254,"Ġgreed":8255,"Ġbackpack":8256,"Ġsurroundings":8257,"Gu":8258,"Ġtrigger":8259,"Ġwishes":8260,"Ġhighway":8261,"Ġà¦":8262,"ĠLake":8263,"Ġmidnight":8264,"Ġassigned":8265,"Ġwire":8266,"Ġgained":8267,"Ġtrace":8268,"Ġenvelope":8269,"aign":8270,"ĠAtt":8271,"Ġrecru":8272,"irect":8273,"Ġglancing":8274,"Book":8275,"ĠJones":8276,"Ġsnake":8277,"Ġfeather":8278,"Ġformal":8279,"ĠPM":8280,"isy":8281,"ĠKelly":8282,"AK":8283,"Ġcontrast":8284,"ĠRE":8285,"Ġconstruction":8286,"ĠEnd":8287,"Ġchoo":8288,"ĠJoshua":8289,"Ġcate":8290,"Ġswords":8291,"Ġtattoo":8292,"ĠDecember":8293,"ĠSher":8294,"ĠKaren":8295,"ĠOctober":8296,"ĠSab":8297,"Ġcage":8298,"Ġrecalled":8299,"Ġmins":8300,"Alright":8301,"Ġdescription":8302,"Ġsatisfaction":8303,"Ġoccasionally":8304,"Ġoccupied":8305,"aden":8306,"ĠMont":8307,"Com":8308,"Ġmodels":8309,"ĠEdward":8310,"astian":8311,"sa":8312,"Ġsituations":8313,"mates":8314,"IA":8315,"Ġintelligent":8316,"Ġgre":8317,"isk":8318,"Ġincreasing":8319,"ĠHE":8320,"Ġincl":8321,"atively":8322,"hend":8323,"ĠCur":8324,"Pl":8325,"Ġclimbing":8326,"Ġcla":8327,"ĠBrown":8328,"uced":8329,"ĠJonathan":8330,"Ġnodding":8331,"Ġexpand":8332,"ĠBack":8333,"Ġsuspicious":8334,"celer":8335,"Ġstraw":8336,"Ġstable":8337,"click":8338,"Ġaspects":8339,"ĠNext":8340,"Ġtense":8341,"amps":8342,"ĠAnnie":8343,"Ġstrode":8344,"Ġnewly":8345,"Ġslaves":8346,"ERS":8347,"Whatever":8348,"Ph":8349,"Ġsnar":8350,"oral":8351,"ulture":8352,"Ġprotein":8353,"cel":8354,"Ġtorture":8355,"Ġyelling":8356,"Ġpartners":8357,"icity":8358,"ĠJamie":8359,"odd":8360,"Ġhunger":8361,"Ġcrossing":8362,"ĠJanuary":8363,"Ġpitch":8364,"Ġå":8365,"ĠKay":8366,"hether":8367,"Without":8368,"Ġkidding":8369,"ĠAccording":8370,"Ġdisgust":8371,"Ġpenet":8372,"ĠDef":8373,"Ġindependent":8374,"Ġtopic":8375,"James":8376,"earch":8377,"Ġmankind":8378,"Ġrig":8379,"Ġtesting":8380,"Ġswimming":8381,"Te":8382,"Ġexciting":8383,"Ġunre":8384,"ĠWall":8385,"Ġlaughs":8386,"icit":8387,"Ġportion":8388,"Ġunsure":8389,"Ġlimbs":8390,"lers":8391,"anny":8392,"Ġwherever":8393,"Ġtas":8394,"oked":8395,"hara":8396,"à®Ł":8397,"Ġlaz":8398,"bell":8399,"ali":8400,"Ġpredict":8401,"ĠPatrick":8402,"ĠBobby":8403,"astically":8404,"Could":8405,"Ġlobby":8406,"ĠSqu":8407,"Ġlux":8408,"Ġretire":8409,"Ġreceiving":8410,"Ġcheese":8411,"Ġhelmet":8412,"Ġdespair":8413,"Ġfond":8414,"Ġrecommend":8415,"Ġapproval":8416,"Intonation":8417,"ĠWolf":8418,"Ġtreasure":8419,"there":8420,"Ġlogic":8421,"Ġconcerning":8422,"Ġhatred":8423,"going":8424,"Ġattempting":8425,"Ġmane":8426,"Ġassistance":8427,"Ġjumping":8428,"orr":8429,"ĠFurther":8430,"OV":8431,"ĠLeon":8432,"Ġbackward":8433,"Ġdwar":8434,"Ġages":8435,"Ge":8436,"Ġbon":8437,"Ed":8438,"ĠLiz":8439,"uish":8440,"Ġ\"...":8441,"aughters":8442,"ĠTaylor":8443,"ĠSecret":8444,"Ġmobile":8445,"Michael":8446,"Ġdescended":8447,"four":8448,"Ġgrade":8449,"Everything":8450,"ĠNovember":8451,"Ġsongs":8452,"Listen":8453,"53":8454,"Ġgranted":8455,"Ġbrick":8456,"Ġsilk":8457,"Ġangle":8458,"ĠCong":8459,"Ġfollowers":8460,"Ġmistakes":8461,"ubble":8462,"ĠSamuel":8463,"ĠFed":8464,"Ġinsight":8465,"Ïĥ":8466,"Ġlately":8467,"Ġvictims":8468,"ĠStr":8469,"inter":8470,"Ġdamp":8471,"Ġsmoking":8472,"eem":8473,"ĠNav":8474,"Ġfid":8475,"Ġwitnessed":8476,"Ġcrowded":8477,"Ġcrashed":8478,"Ġaccompanied":8479,"Ġsubtle":8480,"OC":8481,"ĠFam":8482,"Ġum":8483,"Ġswitched":8484,"Ġedges":8485,"Ġsore":8486,"umption":8487,"Ġdelicate":8488,"unting":8489,"Ġplates":8490,"Ġsnap":8491,"Ġpatch":8492,"ĠFort":8493,"ĠGeorg":8494,"Ġacknowledge":8495,"Ġgrounds":8496,"Ġcomplain":8497,"Ġmurdered":8498,"pent":8499,"Ġfortune":8500,"Ġaloud":8501,"Ġrelatively":8502,"Ġlaptop":8503,"beat":8504,"jected":8505,"ĠStud":8506,"orting":8507,"Ð¾Ð»":8508,"ĠHon":8509,"ĠRepublic":8510,"Three":8511,"Ġarrog":8512,"Out":8513,"Ġoverwhelming":8514,"Ġcarriage":8515,"Although":8516,"Ġdiet":8517,"Ġsuck":8518,"ooped":8519,"Ġcondem":8520,"New":8521,"Ġgap":8522,"Ġforming":8523,"ĠNobody":8524,"Ġtherapy":8525,"Ġdiscipl":8526,"Ġreasonable":8527,"ivia":8528,"ĠRebecca":8529,"gression":8530,"Ġstal":8531,"Ġrude":8532,"Ġdeadly":8533,"Ġplot":8534,"Ġdestiny":8535,"Ø¹":8536,"ĠEvent":8537,"Ġgentleman":8538,"armed":8539,"Ġrational":8540,"Ġcombined":8541,"iar":8542,"Ġvisual":8543,"Ġthighs":8544,"weet":8545,"Ġvisiting":8546,"Ġgoals":8547,"ĠAtl":8548,"Ġshattered":8549,"Ġgorgeous":8550,"Ġwaking":8551,"impse":8552,"ĠSky":8553,"ĠWestern":8554,"ĠDi":8555,"ĠAk":8556,"))":8557,"Ok":8558,"Ġcommented":8559,"Fuck":8560,"unning":8561,"ĠAri":8562,"uzz":8563,"?!\"":8564,"ĠFin":8565,"Ġsquad":8566,"Ġallows":8567,"ĠLaure":8568,"Part":8569,"mind":8570,"ĠMY":8571,"Ġhired":8572,"oding":8573,"ĠMason":8574,"unior":8575,"odge":8576,"Ġideal":8577,"IP":8578,"ĠFall":8579,"44":8580,"Ġdies":8581,"Ġcommander":8582,"Ġbuying":8583,"Ġglimpse":8584,"Ġsteep":8585,"Ġshakes":8586,"asant":8587,"Ã£o":8588,"Ġlect":8589,"Ġbeloved":8590,"imm":8591,"ĠInc":8592,"Ġgasp":8593,"Ã»":8594,"Ġquestioning":8595,"omy":8596,"Ġroads":8597,"ICE":8598,"HT":8599,"rical":8600,"olded":8601,"Ġtests":8602,"adise":8603,"Ġwinked":8604,"Ġsteam":8605,"Ġdisappointment":8606,"ĠMajor":8607,"Ġpractical":8608,"Ġbits":8609,"Ġadults":8610,"ĠLast":8611,"Ġinsect":8612,"Ġ2014":8613,"Ġultimate":8614,"ota":8615,"ĠCommander":8616,"Ġdetective":8617,"Ġnoble":8618,"ĠJessica":8619,"ĠBlake":8620,"ĠTwenty":8621,"bling":8622,"ĠFel":8623,"Ġrevenge":8624,"Ġgradually":8625,"icop":8626,"ĠScience":8627,"retched":8628,"top":8629,"Ġguided":8630,"Ġreferred":8631,"Ġgene":8632,"Ġunderground":8633,"Ġtwins":8634,"57":8635,"Ð°ÑĤ":8636,"ji":8637,"ĠPress":8638,"enth":8639,"gery":8640,"Ġemployees":8641,"à§":8642,"Ġstorage":8643,"Ġpatterns":8644,"ario":8645,"Ġlamp":8646,"erer":8647,"Mary":8648,"Ġchemical":8649,"Ġchap":8650,"Ġabuse":8651,"####":8652,"Ġvit":8653,"Ġwrap":8654,"salm":8655,"Ġupd":8656,"Ġbillion":8657,"ouncing":8658,"Ġhalt":8659,"Ġconfront":8660,"Ġcolon":8661,"iques":8662,"ĠNoah":8663,"ĠHaving":8664,"Ġladder":8665,"ĠIra":8666,"Ġpositions":8667,"ĠCase":8668,"ĠInter":8669,"Ġdiamond":8670,"ĠPower":8671,"power":8672,"Ġoverall":8673,"ĠFaith":8674,"Ġdagger":8675,"Ġreputation":8676,"ĠBE":8677,"ĠApparently":8678,"ĠWood":8679,"Ġthanked":8680,"Ġgenetic":8681,"ĠÏĦ":8682,"Ġtypical":8683,"Ġcampaign":8684,"Ġgrat":8685,"Ġwhilst":8686,"ĠHunter":8687,"60":8688,"ĠMake":8689,"quar":8690,"shit":8691,"ĠAR":8692,"ĠMarie":8693,"lation":8694,"Ġsideways":8695,"add":8696,"Ġadapt":8697,"Ġhopefully":8698,"Ġpunched":8699,"Ġacceler":8700,"seen":8701,"Ġfarther":8702,"Ġchuckle":8703,"ĠOR":8704,"Ġfantasy":8705,"Ġamazed":8706,"Ġtradition":8707,"Ġpir":8708,"peror":8709,"Ġgreatly":8710,"ĠSH":8711,"Ġroared":8712,"Give":8713,"Ġbelieves":8714,"Ġpron":8715,"venant":8716,"Ġdun":8717,"leg":8718,"Ġclaw":8719,"irk":8720,"Ġassistant":8721,"Ġbreaths":8722,"ĠAustin":8723,"onsense":8724,"ĠHay":8725,"Ġstuffed":8726,"Bet":8727,"Ġflin":8728,"Ġwebsite":8729,"David":8730,"ĠThings":8731,"ogue":8732,"itate":8733,"Ġdeveloping":8734,"Ġpromises":8735,"ĠÃĹ":8736,"Ġowe":8737,"Ġhousehold":8738,"world":8739,"Ġdeserved":8740,"Ġtelephone":8741,"antha":8742,"Ġaggress":8743,"ography":8744,"ĠColonel":8745,"iat":8746,"ĠCap":8747,"tical":8748,"Ġroots":8749,"Ġlaying":8750,"Ġhath":8751,"ii":8752,"two":8753,"Ġtwin":8754,"Ġsmirked":8755,"Ġprisoner":8756,"ĠFive":8757,"ouch":8758,"will":8759,"ruce":8760,"Ġprinciple":8761,"Ġours":8762,"Ġuniversity":8763,"Ġstole":8764,"Ġgenes":8765,"Ġcries":8766,"Ġfoundation":8767,"ÐµÑĢ":8768,"Ġinterior":8769,"ĠRow":8770,"ainted":8771,"Ġschools":8772,"ĠJulie":8773,"ĠCra":8774,"Ä±n":8775,"Ġfer":8776,"Ġbuck":8777,"AG":8778,"Ġcosts":8779,"Ġlatter":8780,"Ġincom":8781,"ĠDarwin":8782,"Ġratt":8783,"Ġreserved":8784,"ĠEld":8785,"Ġcommerc":8786,"Ġreturns":8787,"Ġdecre":8788,"iser":8789,"ĠFe":8790,"Ġstrict":8791,"Ġdrawer":8792,"eling":8793,"Ġmidst":8794,"ĠIran":8795,"Ġdifficulty":8796,"Ġlawn":8797,"ĠGive":8798,"Br":8799,"Ġplanted":8800,"Ġchannel":8801,"_\"":8802,"ĠSand":8803,"Ġruin":8804,"Ġduties":8805,"eras":8806,"Ġcasually":8807,"Ġbottles":8808,"Ġeleven":8809,"Ġkil":8810,"arded":8811,"Ġlargest":8812,"ÏĢ":8813,"viously":8814,"Ġswiftly":8815,"Ġrings":8816,"Ġsidewalk":8817,"56":8818,"car":8819,"Ġgrunted":8820,"acey":8821,"Ġrefuge":8822,"Ġgrinning":8823,"ĠNeither":8824,"Jo":8825,"Ġsyn":8826,"Ã´":8827,"ĠSpec":8828,"Ġyanked":8829,"Ġtugged":8830,"Ġsequence":8831,"Ġprovides":8832,"ĠRoger":8833,"Again":8834,"Ġmachines":8835,"Ġflashing":8836,"Ġsurvey":8837,"Ġgru":8838,"ĠCatholic":8839,"igning":8840,"Ġmiracle":8841,"ickered":8842,"Ġexplains":8843,"Ġclaws":8844,"ĠAndre":8845,"Ġpolitics":8846,"Gl":8847,"Ġshiny":8848,"Ġportal":8849,"Ġcomments":8850,"Ġconcerns":8851,"ĠThink":8852,"hamed":8853,"stri":8854,"Ġannounce":8855,"ĠSurely":8856,"Ġbun":8857,"oof":8858,"Ġtorment":8859,"Ġbore":8860,"Ġtissue":8861,"loe":8862,"Ġforgiveness":8863,"Ġeconomy":8864,"mighty":8865,"Ġorigin":8866,"opyright":8867,"ĠHill":8868,"Ġwhispers":8869,"zie":8870,"Ġmagazine":8871,"Ġclever":8872,"Ġsession":8873,"Ġholiday":8874,"ĠSel":8875,"Ġpity":8876,"who":8877,"Ġintrig":8878,"Ġyourselves":8879,"Ġtrash":8880,"Ġprinciples":8881,"Ġcoach":8882,"Ġdigging":8883,"izza":8884,"Ġsurrender":8885,"uddled":8886,"part":8887,"Ġles":8888,"ĠSea":8889,"Ġmax":8890,"afe":8891,"ĠDepartment":8892,"Ġcompetition":8893,"ishop":8894,"Ġimmune":8895,"Ġlandscape":8896,"Ġcreative":8897,"Ġcapture":8898,"Ġdelicious":8899,"Ġoutcome":8900,"Mag":8901,"ĠUN":8902,"Ġdifferences":8903,"Ġregist":8904,"Ġearned":8905,"Ġacadem":8906,"lle":8907,"Ġfury":8908,"ÙĢÙĢ":8909,"Ġfrustrated":8910,"Ġromantic":8911,"Ġmonitor":8912,"Ġupward":8913,"Ġcher":8914,"Ġconcentration":8915,"ĠCast":8916,"Ro":8917,"ubborn":8918,"Ġexhib":8919,"Ġangrily":8920,"Ġprompt":8921,"Ġ2011":8922,"Ġmemor":8923,"law":8924,"CO":8925,"Ġroot":8926,"ĠAiden":8927,"Ġcontrary":8928,"Ġexchanged":8929,"ĠEuropean":8930,"Ġeased":8931,"izations":8932,"Ġsacred":8933,"ĠSeveral":8934,"Ġprem":8935,"ĠPrincess":8936,"Ġbarrier":8937,"agues":8938,"anne":8939,"ava":8940,"ĠVincent":8941,"amental":8942,"ribute":8943,"Ġaccomplish":8944,"Ġterritory":8945,"ittee":8946,"Ġrighteousness":8947,"Ġdaughters":8948,"Ġsmirk":8949,"Ġoccasional":8950,"iane":8951,"ivery":8952,"ĠSteven":8953,"Ġtested":8954,"Ġamused":8955,"UN":8956,"Ġpurposes":8957,"Ġlimits":8958,"\"...":8959,"Ġoffers":8960,"Ġbeam":8961,"yard":8962,"ĠRub":8963,"Ġhelicop":8964,"Someone":8965,"ĠFlor":8966,"Ġselected":8967,"ocks":8968,"AB":8969,"Ġobed":8970,"ĠCOM":8971,"People":8972,"Ġkicking":8973,"Ġregardless":8974,"encies":8975,"Ġinternet":8976,"Ġawe":8977,"Ġavoided":8978,"lee":8979,"Ġalternative":8980,"Ġblowing":8981,"Ġrepair":8982,"ebru":8983,"Ġsuicide":8984,"Ġteams":8985,"ester":8986,"Ġmeetings":8987,"Ġextract":8988,"rah":8989,"Ġstroked":8990,"Ġkidna":8991,"Ġscree":8992,"ador":8993,"vet":8994,"ĠCa":8995,"anie":8996,"Ġproceeded":8997,"herent":8998,"Mrs":8999,"Ġapologize":9000,"Ġsharply":9001,"Ġthirst":9002,"Ġproviding":9003,"ĠPur":9004,"ĠIsaac":9005,"Ġwanna":9006,"Their":9007,"ĠAv":9008,"ĠKatie":9009,"Ġglances":9010,"ÉĻ":9011,"Ġslumped":9012,"ebruary":9013,"Ġcorn":9014,"Ġbrut":9015,"Ġsang":9016,"Ġgenerations":9017,"Ġdyn":9018,"Ġticket":9019,"ege":9020,"ĠLi":9021,"Ġveins":9022,"Ġfreely":9023,"ĠHist":9024,"Ġdishes":9025,"ĠSergeant":9026,"ounge":9027,"ĠRet":9028,"giving":9029,"mir":9030,"Ġpermanent":9031,"Ġoptim":9032,"Ġsanct":9033,"Ġsqueeze":9034,"ĠPan":9035,"eman":9036,"Ġbaseball":9037,"ÒĽ":9038,"Ġinsurance":9039,"Ġchase":9040,"ribly":9041,"Ġsignificantly":9042,"Ġdragging":9043,"Ġovert":9044,"Ġflicked":9045,"Ġconcluded":9046,"asingly":9047,"ĠChase":9048,"tery":9049,"quis":9050,"utive":9051,"ĠJesse":9052,"Ġbegged":9053,"Ġitem":9054,"Ġribs":9055,"Ġmild":9056,"Ġsimpl":9057,"Ġdod":9058,"oty":9059,"Ġdiagn":9060,"Ġspecifically":9061,"Ġpackage":9062,"Ġvote":9063,"och":9064,"Ġwishing":9065,"Ġstares":9066,"uma":9067,"ĠDaddy":9068,"cular":9069,"Ġsleeve":9070,"ĠDomin":9071,"Ġtemporary":9072,"made":9073,"Ġcritic":9074,"Ġhealed":9075,"Ġintend":9076,"Ġconsumed":9077,"ĠEventually":9078,"rive":9079,"Ġ?":9080,"ĠDivine":9081,"Ġdefined":9082,"Col":9083,"Ġshorts":9084,"ĠHarr":9085,"Ġreader":9086,"Ġsevere":9087,"Ġexhaled":9088,"Ġcounted":9089,"Ġperpet":9090,"Ġbid":9091,"actly":9092,"box":9093,"Ġreplies":9094,"Ġdil":9095,"Ġcandle":9096,"Ġdegrees":9097,"Ġroar":9098,"Ġdemands":9099,"Ãª":9100,"Ġjuice":9101,"Ġyield":9102,"Ġaddressed":9103,"Um":9104,"Ġspreading":9105,"ĠWithin":9106,"some":9107,"ĠMas":9108,"Ġprey":9109,"Ġceremony":9110,"Jul":9111,"vention":9112,"Ġhi":9113,"Ġerror":9114,"Ġleadership":9115,"omic":9116,"ĠEN":9117,"Ġfiring":9118,"Ġcaring":9119,"Ġdict":9120,"Ġhammer":9121,"ĠKrist":9122,"Ġanticipation":9123,"ĠCanada":9124,"ĠMoon":9125,"Ġintently":9126,"Ġillegal":9127,"ĠHu":9128,"Ġrecorded":9129,"Ġdeeds":9130,"Ġkeen":9131,"SF":9132,"Ġcommercial":9133,"ĠProt":9134,"Ġreprodu":9135,"rine":9136,"Ġexamine":9137,"born":9138,"ĠLarry":9139,"Ġbreaks":9140,"Ġmoaned":9141,"Ġmiserable":9142,"Ġgravity":9143,"Ġincredibly":9144,"ĠAnton":9145,"ĠRand":9146,"Ġtribe":9147,"phan":9148,"Ġneckl":9149,"Ġjet":9150,"Ġbushes":9151,"Over":9152,"wh":9153,"ez":9154,"Ġdating":9155,"Ġaboard":9156,"Ġsurge":9157,"Ġpriests":9158,"Ġbooth":9159,"ih":9160,"Ġprisoners":9161,"Ġobserve":9162,"ĠMet":9163,"Ġtrailed":9164,"ĠMem":9165,"ĠLu":9166,"ĠHeart":9167,"Ġadjusted":9168,"Ġthrob":9169,"iped":9170,"ĠMuhammad":9171,"Wh":9172,"Ġvital":9173,"Ġprofessor":9174,"Ġjog":9175,"Ġnails":9176,"Ġclick":9177,"Sim":9178,"Ġcateg":9179,"Ġillness":9180,"ĠGovernment":9181,"Ġsubjects":9182,"Both":9183,"ãĥ³":9184,"ĠGermany":9185,"Ġpouring":9186,"Ġfeeding":9187,"onents":9188,"Ġagony":9189,"ĠPho":9190,"Ġhelpful":9191,"Ġspear":9192,"Ġstaircase":9193,"Ġinfinite":9194,"vas":9195,"Ġflowed":9196,"eff":9197,"Actually":9198,"Ġtalent":9199,"Ġfrequently":9200,"Ġimpr":9201,"ĠAdd":9202,"ĠHor":9203,"Ġrevelation":9204,"Ġshouts":9205,"ĠØ¨":9206,"Ġjoining":9207,"Ġruined":9208,"Ġdepths":9209,"Ġstubborn":9210,"Ġdisag":9211,"Ġcottage":9212,"agle":9213,"Ġyawn":9214,"Ġramp":9215,"Ġavoiding":9216,"Ġmug":9217,"Ġbabies":9218,"ĠWH":9219,"Ġashamed":9220,"Ġsolve":9221,"sole":9222,"ESS":9223,"Ġimpressive":9224,"Ġdisplayed":9225,"ĠEddie":9226,"acter":9227,"Ġdat":9228,"alian":9229,"Ġslipping":9230,"Ġconcentrate":9231,"Ġmaterials":9232,"Ġstack":9233,"opher":9234,"Ġware":9235,"shot":9236,"Ġguidance":9237,"Ġwinning":9238,"Ġclicked":9239,"azing":9240,"ĠSay":9241,"away":9242,"Ġshelf":9243,"berry":9244,"Ġphilosophy":9245,"ĠIraq":9246,"Ġreaders":9247,"ĠDoc":9248,"Ġintentions":9249,"Time":9250,"ieve":9251,"Ġsadly":9252,"ĠCassie":9253,"ĠVirgin":9254,"Ġfires":9255,"Ġcrushed":9256,"Ġstriking":9257,"ĠTexas":9258,"ĠJustin":9259,"Ġneighbors":9260,"Ġcontrols":9261,"Ġintensity":9262,"Ġbom":9263,"enix":9264,"Ġartist":9265,"urches":9266,"Ġfactor":9267,"Ġtaller":9268,"iac":9269,"ĠTan":9270,"Ġrepent":9271,"BC":9272,"Ġmig":9273,"Ġhits":9274,"Ġfloated":9275,"Hmm":9276,"ĠKnight":9277,"Ġ)":9278,"equ":9279,"Luke":9280,"Ġbrows":9281,"Ġencouraged":9282,"Ġwizard":9283,"Ġcharges":9284,"Ġwolves":9285,"Ġripp":9286,"ĠSpan":9287,"Ġparted":9288,"Ġclinical":9289,"Ġbubb":9290,"Ġbasically":9291,"Ġapplication":9292,"Ġcommunicate":9293,"Ġflex":9294,"Ġvulnerable":9295,"Ġwasted":9296,"tion":9297,"Ã¢l":9298,"Ġaccounts":9299,"Ġclassroom":9300,"Ġbolt":9301,"Ġbatter":9302,"Ġsheer":9303,"Ġexplaining":9304,"Ġfacility":9305,"Ġdifferently":9306,"Ġinvent":9307,"Ġdevast":9308,"ĠAuthor":9309,"igen":9310,"uesday":9311,"Ġhesitation":9312,"ĠRoyal":9313,"uty":9314,"ĠConnor":9315,"xygen":9316,"xture":9317,"Ġultimately":9318,"Ġmouse":9319,"ĠScar":9320,"Ġintroduce":9321,"Ġrealise":9322,"Ġformation":9323,"ĠRoad":9324,"Sar":9325,"ults":9326,"Ġprophet":9327,"Ġtube":9328,"bage":9329,"Ġshone":9330,"ĠMolly":9331,"Ġcarved":9332,"inations":9333,"erent":9334,"ÙĤ":9335,"Ġjam":9336,"Ġdared":9337,"Ġtin":9338,"Ġprotecting":9339,"Ġunbelie":9340,"based":9341,"iches":9342,"term":9343,"ĠVery":9344,"Ġexcess":9345,"Ġfreak":9346,"Ġimplement":9347,"ĠAustralia":9348,"ĠLib":9349,"Ġnoticing":9350,"pit":9351,"Ġconversations":9352,"ĠEmpire":9353,"Ġshivered":9354,"Ġpotato":9355,"Ġhurting":9356,"Ġsnatched":9357,"80":9358,"rina":9359,"urned":9360,"Ġsources":9361,"Ġtalks":9362,"Ġrenew":9363,"akers":9364,"Ġswinging":9365,"Ġswallow":9366,"Ġexhaust":9367,"ÏĤ":9368,"Ġmechanism":9369,"ĠEver":9370,"Ġlounge":9371,"Ġsealed":9372,"rose":9373,"Ġshaped":9374,"Ġauthorities":9375,"Ġshuddered":9376,"Inst":9377,"Ben":9378,"Ġphase":9379,"ima":9380,"Ġsticking":9381,"ĠChic":9382,"clusive":9383,"awn":9384,"Ġfortun":9385,"Ã¢n":9386,"Ġrecovered":9387,"zer":9388,"Ġregarded":9389,"Ġadvert":9390,"aa":9391,"Ġcustomer":9392,"Ġrecip":9393,"Ġstrongly":9394,"Ġcavern":9395,"ĠJordan":9396,"Ġalter":9397,"ĠJapanese":9398,"Ġinsist":9399,"Ġopportunities":9400,"aver":9401,"Ġvisitors":9402,"App":9403,"Ġrevolution":9404,"ulously":9405,"Ġimmun":9406,"Ġdamaged":9407,"Ġwipe":9408,"Ġmarched":9409,"ĠAfrican":9410,"has":9411,"ĠHannah":9412,"ĠUntil":9413,"Call":9414,"Ġtab":9415,"Ġawoke":9416,"Ġobliv":9417,"Many":9418,"Ġbounced":9419,"Ġpurchased":9420,"Ġpipe":9421,"ĠWere":9422,"Ġincor":9423,"GF":9424,"Ġwashing":9425,"hab":9426,"avor":9427,"ĠSophie":9428,"Ġshaft":9429,"Ġexited":9430,"yr":9431,"Ġkindness":9432,"Ġdealt":9433,"Im":9434,"lands":9435,"Ġlogical":9436,"Remember":9437,"ĠCry":9438,"Ġstrip":9439,"Ġapple":9440,"Ġsurve":9441,"ĠJohnson":9442,"Ġinjury":9443,"Ġpros":9444,"Ġringing":9445,"Ġdetermination":9446,"antically":9447,"Ġeighteen":9448,"ĠID":9449,"Ù°":9450,"Ġtumors":9451,"ĠBell":9452,"Ġfulfill":9453,"Ġsimult":9454,"hony":9455,"Ġstool":9456,"Ġouts":9457,"Ġspit":9458,"press":9459,"ĠBarry":9460,"Ġviews":9461,"umin":9462,"ĠCaleb":9463,"Ġcourty":9464,"Ġcameras":9465,"Ġscary":9466,"Ġbullets":9467,"ĠPap":9468,"Ġaliens":9469,"ĠYoung":9470,"ando":9471,"ĠMama":9472,"ĠOliver":9473,"Ġprob":9474,"ĠArm":9475,"Ġflung":9476,"ĠSpanish":9477,"Ġrows":9478,"Ġillusion":9479,"ipal":9480,"Ġleaf":9481,"Ġappe":9482,"Ġscrambled":9483,"Ġwo":9484,"Ġfurious":9485,"cling":9486,"Ġachieved":9487,"Ġtasted":9488,"odes":9489,"Ġcurtain":9490,"ĠSing":9491,"Ġvel":9492,"ĠCre":9493,"Ġstirred":9494,"ĠRussia":9495,"respond":9496,"Ġautomatically":9497,"Ġsemi":9498,"Ġpatrol":9499,"elest":9500,"Ġ2010":9501,"Ġdemocr":9502,"ĠZach":9503,"Ġabund":9504,"Ġfactors":9505,"gle":9506,"Ġprivile":9507,"ĠVictoria":9508,"Ġsupported":9509,"Ġlicked":9510,"Ġtack":9511,"Ġelectricity":9512,"Ġbeaten":9513,"Ġsuits":9514,"Ġscare":9515,"Ġwrists":9516,"Though":9517,"ĠFer":9518,"Ġdisaster":9519,"ĠCamp":9520,"ĠYah":9521,"ĠDylan":9522,"Ġreplace":9523,"Ġador":9524,"Jim":9525,"rer":9526,"ĠInternet":9527,"67":9528,"Ġgloves":9529,"Shit":9530,"Ġnotion":9531,"ĠSecurity":9532,"earl":9533,"Ġwerew":9534,"Ġwrest":9535,"ĠMiddle":9536,"Ġmini":9537,"Ġscratched":9538,"ĠBas":9539,"ĠHebrew":9540,"omeday":9541,"UM":9542,"Ġducked":9543,"Ġfest":9544,"Ġdock":9545,"á¼":9546,"Ġjoint":9547,"Ġignorance":9548,"Ġreluctantly":9549,"ĠLance":9550,"Ġtoast":9551,"Ġdeaf":9552,"Ġstrangers":9553,"ĠAndy":9554,"Ġgrasped":9555,"ursday":9556,"ufact":9557,"Ġwhipped":9558,"Ġplun":9559,"rifying":9560,"taining":9561,"Ġelb":9562,"Ġdrum":9563,"ourse":9564,"ĠGent":9565,"Ġdiscovery":9566,"ĠKa":9567,"Ġnerve":9568,"Ġargued":9569,"Ġcord":9570,"PS":9571,"Ġmice":9572,"Ġgn":9573,"ĠLieutenant":9574,"Ġteased":9575,"Ġstandards":9576,"Ġdoubted":9577,"sen":9578,"________":9579,"cony":9580,"Ġscrap":9581,"Ġburnt":9582,"ahr":9583,"Ġarrested":9584,"anwhile":9585,"ÐµÐ»":9586,"ĠGrant":9587,"Ġprivacy":9588,"usement":9589,"Ġclients":9590,"Ġappointment":9591,"Ġsixty":9592,"Ġbund":9593,"ĠHol":9594,"ĠFair":9595,"Ġnecessarily":9596,"Ġpasses":9597,"Ġrecover":9598,"Ġdocuments":9599,"Ġdrained":9600,"Ġdelivery":9601,"Ġeleg":9602,"Ġcargo":9603,"irteen":9604,"rot":9605,"Ġutterly":9606,"Ġawesome":9607,"Ġmour":9608,"Ġscore":9609,"Ġmainly":9610,"Ġmeters":9611,"Keep":9612,"stein":9613,"roup":9614,"upp":9615,"ĠMort":9616,"alie":9617,"ĠLogan":9618,"Ġdart":9619,"Ġbehaviour":9620,"Ġgoddess":9621,"59":9622,"ĠIsab":9623,"Ġplays":9624,"Ġbeasts":9625,"acc":9626,"Ġattracted":9627,"ĠScripture":9628,"itan":9629,"Ġbalcony":9630,"Ġdarted":9631,"ĠFace":9632,"................":9633,"ĠInstitute":9634,"Ġchains":9635,"Ġfilth":9636,"Ġcautiously":9637,"Ġmatching":9638,"Ġprojects":9639,"ĠHead":9640,"Ġcounsel":9641,"ikes":9642,"arms":9643,"ĠCorinth":9644,"piration":9645,"Ġcorpse":9646,"ĠWater":9647,"Ġincludes":9648,"Ġcourtyard":9649,"Ġmes":9650,"Ġpractices":9651,"Ġunp":9652,"Ġthoroughly":9653,"Ġslightest":9654,"Ġstim":9655,"omon":9656,"Ġpizza":9657,"Ġ2015":9658,"udes":9659,"shine":9660,"Lord":9661,"cuse":9662,"Ġvacation":9663,"ĠCHAPTER":9664,"Ġcongreg":9665,"Ġdesired":9666,"works":9667,"Ġpossession":9668,"Ġlighting":9669,"ĠSays":9670,"Ġdreaming":9671,"].":9672,"Ġmagnific":9673,"Ġministry":9674,"zens":9675,"ĠAst":9676,"Ġmonsters":9677,"Mor":9678,"Ġdraft":9679,"Ġcrisis":9680,"Ġspots":9681,"Ġaircraft":9682,"Ġaffair":9683,"Ġinvitation":9684,"Ġirre":9685,"Ġphrase":9686,"Ġreferring":9687,"Ġneut":9688,"Ġvoid":9689,"Ġinvestigate":9690,"ĠOfficer":9691,"Ġinevitable":9692,"Ġabandon":9693,"Ġbrightly":9694,"Ġbearing":9695,"Ġtaxi":9696,"Ġprofile":9697,"Ġzone":9698,"ĠCross":9699,"Ġcountless":9700,"ĠInternational":9701,"ĠFBI":9702,"Ġpossibilities":9703,"Ġdepos":9704,"Ġclan":9705,"Ġvoc":9706,"ĠPut":9707,"chair":9708,"Ġgospel":9709,"Ġdeaths":9710,"Ġshallow":9711,"Ġdragons":9712,"Ġash":9713,"ĠHome":9714,"Ġconscience":9715,"Ġchasing":9716,"ĠMargaret":9717,"Ġankle":9718,"Ġlid":9719,"necess":9720,"Ġepis":9721,"Ġgoss":9722,"ĠGre":9723,"tail":9724,"Ġrod":9725,"Ġlaunched":9726,"Ġimmense":9727,"cup":9728,"Gr":9729,"mail":9730,"Ġhuff":9731,"Ġrealization":9732,"ĠStu":9733,"Ġslim":9734,"Ġchim":9735,"Ġassure":9736,"vol":9737,"haired":9738,"cription":9739,"ungle":9740,"Ġelderly":9741,"iating":9742,"CR":9743,"Ġ`":9744,"ologist":9745,"Ġjewel":9746,"Ġroughly":9747,"Ġsoup":9748,"Ġnavig":9749,"ĠMod":9750,"ĠAngela":9751,"Ġhab":9752,"Ġnipp":9753,"Ġoverl":9754,"Ġdripping":9755,"Ġcoord":9756,"ĠMia":9757,"Ġoxygen":9758,"Ġfundamental":9759,"ayer":9760,"Ġafterwards":9761,"stream":9762,"Ġcoc":9763,"ĠPD":9764,"Ġremarked":9765,"itching":9766,"Ġsaddle":9767,"yt":9768,"ĠEither":9769,"Ġwandering":9770,"Ġthankful":9771,"ardens":9772,"erences":9773,"Ġrend":9774,"Ġillust":9775,"yan":9776,"Ġcomputers":9777,"Ġelsewhere":9778,"ÐµÑĤ":9779,"Ġwestern":9780,"Ġclutched":9781,"Ġdorm":9782,"Ġlets":9783,"angs":9784,"Ġpretending":9785,"Ġprint":9786,"Max":9787,"imated":9788,"ĠJerry":9789,"rich":9790,"wind":9791,"Ġdevices":9792,"Ġgig":9793,"Ġod":9794,"Ġbust":9795,"Ġcurtains":9796,"Ġdivorce":9797,"Ġblessings":9798,"chief":9799,"Ġpleaded":9800,"Ġsouthern":9801,"Ġstatue":9802,"Ġacid":9803,"ĠMind":9804,"wide":9805,"ĠHan":9806,"Ġnecklace":9807,"ĠGary":9808,"Ġinvite":9809,"Ġrounded":9810,"ĠDerek":9811,"Ġsire":9812,"ĠChicago":9813,"ĠAlf":9814,"Ġenthusiasm":9815,"SE":9816,"unks":9817,"isle":9818,"Ġlinked":9819,"ĠMexico":9820,"ĠMichelle":9821,"Ġflushed":9822,"Ġlegend":9823,"Ġindicate":9824,"Ġintimid":9825,"Ġ60":9826,"41":9827,"mpt":9828,"Ġelectronic":9829,"arer":9830,"ko":9831,"55":9832,"ĠOd":9833,"Ġtowns":9834,"free":9835,"ĠWed":9836,"onder":9837,"road":9838,"good":9839,"Ġ31":9840,"Ġsale":9841,"Ñİ":9842,"Ġoverwhelmed":9843,"ĠJoey":9844,"ĠPlus":9845,"42":9846,"Ġpaus":9847,"Ġlan":9848,"ensions":9849,"Ġsubstance":9850,"Frank":9851,"enses":9852,"Ġdefinition":9853,"iency":9854,"ethe":9855,"Ġtorch":9856,"Sounds":9857,"ĠAmber":9858,"ĠAlexander":9859,"Ġmatt":9860,"ĠNate":9861,"Ġattended":9862,"Ġdisgu":9863,"Ġenlight":9864,"ĠFebruary":9865,"Ġfifth":9866,"Ġmedium":9867,"Ġcub":9868,"ĠSE":9869,"lled":9870,"Ġtag":9871,"ĠCreator":9872,"ĠProbably":9873,"Ġrequested":9874,"Ġcups":9875,"Ġgrant":9876,"Ġcompound":9877,"Ġaccurate":9878,"Ġinjuries":9879,"ĠBon":9880,"oped":9881,"Ġoperations":9882,"encing":9883,"ĠDrew":9884,"Ġsoftware":9885,"ĠForce":9886,"--\"":9887,"Ġ_______":9888,"Ġsumm":9889,"Ġcontinu":9890,"Ġzero":9891,"Ġviolently":9892,"plex":9893,"oston":9894,"Ġcats":9895,"Ġsmashed":9896,"ĠJennifer":9897,"Tw":9898,"bid":9899,"ILL":9900,"Ġcrashing":9901,"tw":9902,"Ġelabor":9903,"Ġmelted":9904,"Matthew":9905,"Ġrack":9906,"iva":9907,"Ġglorious":9908,"Ġhollow":9909,"inge":9910,"Ġappearing":9911,"ĠMelissa":9912,"ilda":9913,"iya":9914,"Ã¢m":9915,"ĠSomehow":9916,"http":9917,"oria":9918,"70":9919,"zard":9920,"Ġmaxim":9921,"Ġprophets":9922,"Ġfingert":9923,"CL":9924,"ĠAT":9925,"ajesty":9926,"resa":9927,"ules":9928,"Ġprograms":9929,"Ġmoist":9930,"Ġmounted":9931,"ĠPolice":9932,"Ġthud":9933,"ifully":9934,"Ġunlikely":9935,"Sometimes":9936,"Ġutil":9937,"lotte":9938,"orney":9939,"called":9940,"Ġadmir":9941,"ipt":9942,"ĠPen":9943,"Ġbucket":9944,"Ġdarkened":9945,"Ġsandwich":9946,"Ġhanding":9947,"Ġrecognition":9948,"Ġwealthy":9949,"word":9950,"Ġfeast":9951,"axy":9952,"Ġintellectual":9953,"Â»":9954,"Ġgay":9955,"ĠRuth":9956,"Ġdivided":9957,"Ġtrous":9958,"Ġinvestment":9959,"ĠTa":9960,"ĠHot":9961,"Ġbride":9962,"Ġgrabs":9963,"ĠKore":9964,"water":9965,"uction":9966,"Ġdisting":9967,"Ġlump":9968,"Ġcrouched":9969,"Yet":9970,"ĠWr":9971,"Ġcrad":9972,"Ġguitar":9973,"Ġtargets":9974,"ĠSebastian":9975,"Ġchoked":9976,"Ġaccomplished":9977,"Ġuh":9978,"Ġlayer":9979,"face":9980,"Ġcomparison":9981,"43":9982,"Ġunaware":9983,"vable":9984,"Ġaccommod":9985,"Ġmomentarily":9986,"Ġfinishing":9987,"Ġpatiently":9988,"Ġcuts":9989,"Ġhistorical":9990,"veled":9991,"Res":9992,"Too":9993,"Ġblushed":9994,"Ġgrocer":9995,"ĠLead":9996,"Ġstroke":9997,"Ġhumili":9998,"Ġhem":9999,"Ġrelevant":10000,"uper":10001,"eland":10002,"roc":10003,"ĠDick":10004,"Ġlimp":10005,"ĠCarter":10006,"Ġwinds":10007,"vo":10008,"Ġwaitress":10009,"ati":10010,"Ġdownwards":10011,"ĠVen":10012,"Ġblend":10013,"\")":10014,"orthy":10015,"ĠGra":10016,"Ġswore":10017,"ĠÐ¶":10018,"Ġsuitable":10019,"Ġstem":10020,"ordon":10021,"Ġprotective":10022,"formation":10023,"Ġbliss":10024,"Ġextraord":10025,"ĠDrake":10026,"sl":10027,"Ġmanufact":10028,"Ġembarrassment":10029,"ĠMedical":10030,"ipher":10031,"Ġwildly":10032,"alker":10033,"ĠCollege":10034,"ĠNaz":10035,"Should":10036,"ucker":10037,"Ġprofound":10038,"dia":10039,"Ġinterpretation":10040,"Ġhatch":10041,"Ġsubsequ":10042,"Ġcomprom":10043,"ĠFlorida":10044,"ĠMist":10045,"ĠWis":10046,"Ġbills":10047,"ĠDetective":10048,"Ġconj":10049,"bet":10050,"Ġexamples":10051,"Ġwheels":10052,"Ġsuggestion":10053,"Cha":10054,"Ġfucked":10055,"Ġdimension":10056,"Ġgenerous":10057,"ĠReal":10058,"Ġblades":10059,"Ġamusement":10060,"Ġdressing":10061,"Ġshrug":10062,"Ġhumble":10063,"ĠUnion":10064,"Ġshifting":10065,"Ġnoises":10066,"Ġmarble":10067,"Ġtid":10068,"urry":10069,"hou":10070,"ĠTrevor":10071,"Ġsolar":10072,"Ġarray":10073,"Ġwrath":10074,"Ġspy":10075,"Ġblankets":10076,"Ġwinced":10077,"ĠLinda":10078,"Love":10079,"ĠIre":10080,"Ġseve":10081,"human":10082,"Ġarrows":10083,"ALL":10084,"Ġresolve":10085,"ĠSlow":10086,"Ġwhispering":10087,"Ġvain":10088,"ĠLo":10089,"Ġcollective":10090,"run":10091,"Ġblocking":10092,"Ġtwist":10093,"Ġrepeatedly":10094,"Ġbush":10095,"iano":10096,"Daniel":10097,"Ġsuspicion":10098,"Ġsmells":10099,"Ġoutfit":10100,"Ġprofit":10101,"Ġagric":10102,"Ġatop":10103,"nesday":10104,"Ġdenied":10105,"Ġsustain":10106,"Ġstag":10107,"Ġoriginally":10108,"Ġmattress":10109,"Ġwhim":10110,"Ġchurches":10111,"Ġobserv":10112,"hearted":10113,"Ġmaneu":10114,"Up":10115,"Ġfoul":10116,"ĠCT":10117,"Ġmisery":10118,"Ġselection":10119,"ĠEdition":10120,"Ġdollar":10121,"asions":10122,"Ġprocesses":10123,"Ġcomplained":10124,"Ġrank":10125,"Ġblown":10126,"Ġcommands":10127,"ortunately":10128,"ĠWilson":10129,"Ġwiping":10130,"Ġdefeated":10131,"ttps":10132,"58":10133,"Ġcabinet":10134,"Ġdign":10135,"Ġaccus":10136,"ĠAbby":10137,"Ġcultural":10138,"Ġlin":10139,"Ġmixture":10140,"Ġfee":10141,"ican":10142,"Ġtransformed":10143,"Ġmode":10144,"Ġincreasingly":10145,"Ġcorrespond":10146,"renal":10147,"Ġsipped":10148,"apy":10149,"Ġfork":10150,"Ġmakeup":10151,"ountered":10152,"Ġdepends":10153,"Ġgrie":10154,"Ġhears":10155,"Ġbrains":10156,"ĠBarb":10157,"Ġtoy":10158,"ĠEspecially":10159,"ĠSn":10160,"Miss":10161,"ĠCR":10162,"ĠSpe":10163,"90":10164,"ril":10165,"Ġknuck":10166,"ĠBart":10167,"ĠGavin":10168,"ĠHealth":10169,"ĠInside":10170,"?!":10171,"Jon":10172,"ĠCL":10173,"Ġhopeless":10174,"Ġstored":10175,"Ġjoking":10176,"chers":10177,"pson":10178,"ijah":10179,"Ġencountered":10180,"Ġdimin":10181,"ĠAlmighty":10182,"Ġbunk":10183,"Mike":10184,"Ġstained":10185,"Ġshrie":10186,"Ġreduce":10187,"During":10188,"ĠONE":10189,"osc":10190,"Ġadopted":10191,"Ġmuse":10192,"Ser":10193,"Ġexisting":10194,"Ġdreamed":10195,"Ġassignment":10196,"nan":10197,"Ġdemonstrated":10198,"ĠRad":10199,"hin":10200,"Ġpassengers":10201,"Ġrecording":10202,"Ġstake":10203,"Ġbuttons":10204,"Ġunnecess":10205,"Ġpaths":10206,"Ġeffectively":10207,"ĠLater":10208,"ĠDana":10209,"Ġsixteen":10210,"Ġhelicopter":10211,"Ġdelay":10212,"Ġspaces":10213,"Ġnative":10214,"uality":10215,"ĠLeo":10216,"ĠScot":10217,"ITH":10218,"Î»":10219,"Ġaltar":10220,"ĠPac":10221,"Ġlighter":10222,"Ġnuts":10223,"Ġfrantically":10224,"hens":10225,"dro":10226,"ĠNOT":10227,"ÙĴ":10228,"Pat":10229,"your":10230,"Ġduck":10231,"Ġchallenges":10232,"Ġexternal":10233,"Ġgloom":10234,"Ġefficient":10235,"Ġmatched":10236,"itect":10237,"ĠHospital":10238,"Ġproven":10239,"Ġcoin":10240,"ĠTW":10241,"Ġunha":10242,"Ġtooth":10243,"onym":10244,"Ġpup":10245,"Ġdynam":10246,"ĠHard":10247,"ington":10248,"Ġscholars":10249,"Nice":10250,"ĠDiane":10251,"Ġworries":10252,"icia":10253,"RIF":10254,"Ùģ":10255,"Ġwelcom":10256,"Ġcomprehend":10257,"Ġanch":10258,"Ġtighter":10259,"Ġbew":10260,"Ġmeditation":10261,"Ġprecisely":10262,"asis":10263,"ĠIT":10264,"ĠRev":10265,"Ġinherit":10266,"Anyway":10267,"Ġdistrict":10268,"ĠSoul":10269,"ultural":10270,"ĠGospel":10271,"Ġhurts":10272,"Ġstretching":10273,"Ġbelongs":10274,"Ġfunctions":10275,"Looking":10276,"gers":10277,"Ġcotton":10278,"Ġperfection":10279,"Ġdestro":10280,"Ġretired":10281,"ĠTaking":10282,"Ġbuddy":10283,"jud":10284,"ĠDean":10285,"ĠChloe":10286,"Ġfloors":10287,"Ġinex":10288,"ami":10289,"Ġimpul":10290,"Ġodds":10291,"Ð¸Ð½":10292,"Ġbald":10293,"Ġjerk":10294,"Ġapost":10295,"Ġera":10296,"Ġunits":10297,"Ġeffic":10298,"illian":10299,"estly":10300,"Ġarriving":10301,"Ġextend":10302,"Ġtune":10303,"Ġpounded":10304,"Ġdirector":10305,"Ġkilomet":10306,"lance":10307,"ĠForest":10308,"Ġscratch":10309,"Ġstructures":10310,"ele":10311,"Ġtwisting":10312,"Ġtasks":10313,"istan":10314,"Ġbob":10315,"Ġsupper":10316,"Ġcontaining":10317,"ĠHeather":10318,"Ġrejected":10319,"Ġobjective":10320,"Ġsurprisingly":10321,"hia":10322,"inged":10323,"Ġindex":10324,"Ġbanks":10325,"Med":10326,"Ġsubstant":10327,"Ġhopped":10328,"ologies":10329,"Ġnic":10330,"ĠPers":10331,"Ġclung":10332,"Ġminister":10333,"Ġcounting":10334,"Ġbiological":10335,"ishly":10336,"Ġrounds":10337,"asping":10338,"Ġheated":10339,"Ġbuff":10340,"à¥į":10341,"ĠRiley":10342,"Ð¾Ð´":10343,"Ġlicense":10344,"Ġmolec":10345,"Ġseal":10346,"ĠMiller":10347,"Ġflour":10348,"Ġjungle":10349,"Ġcontains":10350,"Ġunlocked":10351,"aya":10352,"ĠFound":10353,"pass":10354,"ĠTon":10355,"Ġsoaked":10356,"uild":10357,"Ġdump":10358,"ieties":10359,"MS":10360,"Ġsample":10361,"ĠÐ¿ÑĢ":10362,"related":10363,"Ġcure":10364,"Ġvic":10365,"fulness":10366,"VER":10367,"Ġbapt":10368,"ĠNews":10369,"Ġfluid":10370,"Ġmaintained":10371,"ĠGray":10372,"ĠShadow":10373,"Rel":10374,"ĠRoy":10375,"Ġdarling":10376,"Ġdepression":10377,"Ġstrengthen":10378,"Ġaffairs":10379,"Ġmeals":10380,"arse":10381,"Ġindicating":10382,"Ġneur":10383,"bris":10384,"ĠOs":10385,"irming":10386,"Ġbord":10387,"Ġcosm":10388,"Ġtroubled":10389,"utch":10390,"Ġbehalf":10391,"from":10392,"lene":10393,"Ġwarehouse":10394,"heard":10395,"ittered":10396,"Ġkings":10397,"Ġbeds":10398,"Ġdetailed":10399,"ĠJulian":10400,"ĠGun":10401,"Ġcommitment":10402,"Next":10403,"ooper":10404,"Ġsurviv":10405,"ĠTrue":10406,"Ġdismissed":10407,"Ġpref":10408,"SS":10409,"ĠHas":10410,"Ġappeal":10411,"IST":10412,"ĠViet":10413,"Ġvari":10414,"Ġrac":10415,"ĠBoston":10416,"Ġprotested":10417,"cons":10418,"ĠContents":10419,"tic":10420,"ĠTuesday":10421,"Ġkin":10422,"Ġproperties":10423,"Ġregister":10424,"olds":10425,"ĠSamantha":10426,"ĠIslamic":10427,"Ġgreeting":10428,"ĠTurn":10429,"ĠLeg":10430,"Ġcelebrate":10431,"Ġcomforting":10432,"Ġtoe":10433,"Ġacquired":10434,"Ġprimitive":10435,"Ġorganized":10436,"Ġbetrayed":10437,"Ġstrained":10438,"Ð¸ÑĤ":10439,"Ġworrying":10440,"Ġlaunch":10441,"Kat":10442,"UST":10443,"ĠAgent":10444,"angel":10445,"quarters":10446,"Ġshops":10447,"uthors":10448,"ĠResearch":10449,"ĠAdrian":10450,"Ġlifest":10451,"ĠBal":10452,"Ġdiscussing":10453,"ormal":10454,"Ġbarked":10455,"Shut":10456,"Ġrelatives":10457,"Ġfever":10458,"AF":10459,"Ġpy":10460,"Ġaltogether":10461,"Ġinstrum":10462,"Ġblink":10463,"ĠUniverse":10464,"Ġneglect":10465,"Ġintimate":10466,"Ġwha":10467,"Ġsometime":10468,"Ġascend":10469,"ĠStella":10470,"Ġoak":10471,"Ġsche":10472,"Ġerupted":10473,"Ġsecured":10474,"Ġtroll":10475,"Ġdigital":10476,"ifferent":10477,"ĠIrish":10478,"Ġvom":10479,".'\"":10480,"ĠItalian":10481,"Ġcircled":10482,"Ġfolk":10483,"Ġapprox":10484,"ĠIndeed":10485,"Ð¾ÑĢ":10486,"ĠSorry":10487,"Eric":10488,"Ġambul":10489,"Ġcrawl":10490,"ĠAnthony":10491,"Ġnostri":10492,"Ġspilled":10493,"ĠSeeing":10494,"Ġmeasured":10495,"Ġaccepting":10496,"Ġstores":10497,"Ġsup":10498,"Ġclam":10499,"ĠOlivia":10500,"Ġsolemn":10501,"Ò¯":10502,"aka":10503,"Ġrecept":10504,"Ġinspired":10505,"Ġcontrad":10506,"ĠRaven":10507,"ĠIll":10508,"augh":10509,"ĠHank":10510,"ĠLex":10511,"appy":10512,"Ġmoonlight":10513,"ĠChristianity":10514,"ĠJos":10515,"Ġconcentrated":10516,"ĠOthers":10517,"Ġexplo":10518,"Ġgrowl":10519,"ĠCasey":10520,"ĠAD":10521,"ĠLew":10522,"Ġlion":10523,"ĠKnow":10524,"Down":10525,"eller":10526,"rus":10527,"Ġnonsense":10528,"ertainly":10529,"Ġpoll":10530,"Ġshorter":10531,"Ġdarker":10532,"ardon":10533,"Ġsurgery":10534,"eren":10535,"Ġboats":10536,"Ð¾Ð¼":10537,"Ġglowed":10538,"Ġinhabit":10539,"Ġdisturbed":10540,"Ġoperating":10541,"Ġpartially":10542,"Ġheadache":10543,"IGHT":10544,"Ġyer":10545,"ti":10546,"Ġpoetry":10547,"Ġcorrectly":10548,"Ġasshole":10549,"Ġsuggesting":10550,"Ġtearing":10551,"Ġarguing":10552,"Ġwallet":10553,"Ġunion":10554,"ource":10555,"ĠMessenger":10556,"Ġcocked":10557,"ĠHand":10558,"Ġwives":10559,"Ġfount":10560,"Ġengines":10561,"Ġlasted":10562,"Ġarched":10563,"Ġflooded":10564,"Ġdisturbing":10565,"ĠThursday":10566,"oga":10567,"Ġaccused":10568,"Ġneatly":10569,"Ġpretended":10570,"ĠMcC":10571,"Mart":10572,"hire":10573,"Ġmart":10574,"Ġfathers":10575,"ĠCentral":10576,"Ġsimultaneously":10577,"Jake":10578,"Ġelf":10579,"Ġdoubts":10580,"Ġpolitely":10581,"ĠØ§ÙĦ":10582,"ĠCorinthians":10583,"when":10584,"Ġfireplace":10585,"Ġmetast":10586,"Ġsquinted":10587,"ĠPast":10588,"ogy":10589,"Ġsnarled":10590,"Ġcollapse":10591,"Ġflaw":10592,"ĠPub":10593,"netic":10594,"igan":10595,"Ġnoon":10596,"Ġrepresented":10597,"thren":10598,"Sec":10599,"Ġmattered":10600,"Ġpayment":10601,"Ġconsole":10602,"Ġgroan":10603,"ptions":10604,"Ġsucc":10605,"ĠOpen":10606,"Ġtips":10607,"ĠGil":10608,"ilipp":10609,"Ġregularly":10610,"Ġshine":10611,"somet":10612,"Ġclutching":10613,"Ġcares":10614,"Ġdeliberately":10615,"Ġproposed":10616,"guard":10617,"Ġjab":10618,"Today":10619,"Ġescort":10620,"utter":10621,"ollen":10622,"Ġmall":10623,"Ġtales":10624,"Ġben":10625,"ART":10626,"Ġappointed":10627,"rons":10628,"Ġpathway":10629,"rd":10630,"Ġtremend":10631,"etheless":10632,"Ġacceptable":10633,"Ġcattle":10634,"ĠTemple":10635,"Ġobservation":10636,"Ġpine":10637,"ĠEp":10638,"ĠToby":10639,"hai":10640,"Ġicy":10641,"Ġcush":10642,"str":10643,"venty":10644,"ussy":10645,"ĠWor":10646,"Ġleap":10647,"ĠDog":10648,"Ġoccasions":10649,"Ġcaution":10650,"Ġperception":10651,"Ġchoosing":10652,"ĠGrandma":10653,"Ġdebate":10654,"Ġbegging":10655,"Ġweary":10656,"aneous":10657,"Ġwitnesses":10658,"Ġdozens":10659,"Ġspoon":10660,"ĠPier":10661,"Ġpowder":10662,"Ġ35":10663,"Ġsuccessfully":10664,"ĠDidn":10665,"ĠRich":10666,"raged":10667,"idel":10668,"ĠPa":10669,"keeper":10670,"iences":10671,"Ġappreciated":10672,"ifies":10673,"ĠCher":10674,"ĠAva":10675,"Ġmonit":10676,"Ġsung":10677,"Excuse":10678,"Ġdisturb":10679,"oping":10680,"ĠRus":10681,"Ġentertainment":10682,"Ġgazing":10683,"Ġshoe":10684,"Ġrolls":10685,"Ġidentical":10686,"Ġsheriff":10687,"avement":10688,"Ġneeding":10689,"ĠWild":10690,"Ġprosper":10691,"ĠDream":10692,"Ġpoked":10693,"Ġattacking":10694,"ĠLos":10695,"ĠLoc":10696,"ailing":10697,"Ġghosts":10698,"Sarah":10699,"icating":10700,"Ġmuffled":10701,"Ġplanets":10702,"Ġdwarf":10703,"Ġclimate":10704,"Ġreign":10705,"Ġwars":10706,"colm":10707,"Ġcharm":10708,"verty":10709,"Æ°á»":10710,"headed":10711,"Ġharmony":10712,"ĠClar":10713,"ĠMass":10714,"Ġmagnificent":10715,"Diana":10716,"Ġopponent":10717,"venue":10718,"Ġpoverty":10719,"Ġcampus":10720,"Ġinteraction":10721,"ni":10722,"Ġath":10723,"Ġcivilization":10724,"Ġappet":10725,"apers":10726,"Ġsniffed":10727,"Ġpursuit":10728,"avan":10729,"Ġspeaker":10730,"Ġfare":10731,"haw":10732,"lets":10733,"ĠAlbert":10734,"Sil":10735,"ĠChildren":10736,"ĠSid":10737,"Ġvest":10738,"Ġartific":10739,"Ġcoughed":10740,"Ġwander":10741,"Ġcreates":10742,"Ġspraw":10743,"Ġspider":10744,"Ġdebris":10745,"irth":10746,"oln":10747,"orters":10748,"Ġaccord":10749,"Other":10750,"Ġagency":10751,"acement":10752,"Ġgarbage":10753,"ĠORIF":10754,"Ð°Ð¼":10755,"Ġisolated":10756,"Ġamid":10757,"aux":10758,"Ġsignaling":10759,"pher":10760,"Ġfading":10761,"blem":10762,"Ġsped":10763,"Ġstrangely":10764,"Ġtinted":10765,"bot":10766,"ĠNancy":10767,"Ġdick":10768,"ĠExcept":10769,"Ġrip":10770,"ĠGabe":10771,"Ġfingertips":10772,"ĠDire":10773,"Ġmock":10774,"Ġtrousers":10775,"ĠSC":10776,"ĠAmb":10777,"ĠSociety":10778,"Ġcrimes":10779,"Ġsuitc":10780,"Ġpursue":10781,"ĠBrandon":10782,"Ġacceptance":10783,"ĠCir":10784,"Ġshapes":10785,"ĠArch":10786,"Ġinquired":10787,"Ġpara":10788,"des":10789,"05":10790,"Ġuniversal":10791,"Ġvisions":10792,"Ġneedle":10793,"Ġdemanding":10794,"unken":10795,"Ġreporter":10796,"Ġglaring":10797,"ĠGrey":10798,"Ġimportantly":10799,"ĠDavis":10800,"Ġgrumbled":10801,"ĠBan":10802,"Ġwreck":10803,"Ġfederal":10804,"ĠGhost":10805,"Dar":10806,"Ġparall":10807,"Ġ2016":10808,"izar":10809,"Ob":10810,"acking":10811,"pat":10812,"Ġnorthern":10813,"Ġbould":10814,"Ã¢hu":10815,"Ġfade":10816,"Ġcrush":10817,"ĠAsia":10818,"Ġtestim":10819,"Ġshuffled":10820,"Ġimmortal":10821,"inals":10822,"Ġjar":10823,"Ġconvey":10824,"ĠMinister":10825,"Ġrobot":10826,"being":10827,"ĠSystem":10828,"Ġstudio":10829,"Ġcolumn":10830,"ppers":10831,"Ġwider":10832,"erate":10833,"ĠMegan":10834,"Chinese":10835,"Ġsusp":10836,"Ġtroubles":10837,"Ġdepending":10838,"ĠCatherine":10839,"Gab":10840,"Ġdrama":10841,"Ġgiggle":10842,"Ġdistraction":10843,"plete":10844,"Ġexpressions":10845,"ĠAy":10846,"Later":10847,"uddle":10848,"ĠMerc":10849,"Ġtrembled":10850,"Ġaccum":10851,"Ġwrapping":10852,"Che":10853,"ĠNicole":10854,"ĠParker":10855,"essed":10856,"ĠHimself":10857,"ĠReally":10858,"ĠDamn":10859,"Ġmouths":10860,"Ġsew":10861,"acha":10862,".....":10863,"Ġdeer":10864,"Ġranch":10865,"Ġscowled":10866,"sal":10867,"othes":10868,"renched":10869,"INE":10870,"Ġsites":10871,"Ġscoff":10872,"Hold":10873,"Ġlocker":10874,"ĠCard":10875,"Ġremoving":10876,"ghan":10877,"Ġtipped":10878,"ĠId":10879,"Ġfridge":10880,"Ġmulti":10881,"Ġmadness":10882,"ethod":10883,"Ġgossip":10884,"lad":10885,"Ġleans":10886,"Ġcrum":10887,"ĠFree":10888,"HER":10889,"Ġdeparture":10890,"Aye":10891,"Copyright":10892,"Ġsticks":10893,"lessness":10894,"Ġseeds":10895,"fortunate":10896,"ĠFal":10897,"ĠInf":10898,"Ġwithdraw":10899,"Ġfans":10900,"Ġjunk":10901,"ĠDown":10902,"hips":10903,"Ġdates":10904,"Ġbrace":10905,"Ġwelcomed":10906,"bour":10907,"Ġpinned":10908,"Ġperf":10909,"Ð¾Ð³":10910,"PR":10911,"ups":10912,"Ġdense":10913,"Ġdaylight":10914,"Ġbullshit":10915,"Despite":10916,"soever":10917,"ĠLil":10918,"Ġfunds":10919,"bag":10920,"ĠHans":10921,"Ġstatements":10922,"ĠBehind":10923,"Ġinward":10924,"Mad":10925,"Ġsecretary":10926,"ĠTimes":10927,"Ġdistress":10928,"ĠBad":10929,"ĠDuke":10930,"uffed":10931,"Ġhonour":10932,"Ġscientist":10933,"nis":10934,"Ġvirus":10935,"apor":10936,"Ġthreats":10937,"hemat":10938,"Ġwield":10939,"Ġsteering":10940,"IONS":10941,"Ġstripped":10942,"ĠDer":10943,"Ġstealing":10944,"Ġurged":10945,"ĠClub":10946,"rigg":10947,"ĠHIS":10948,"Ġscrub":10949,"100":10950,"Ġstaggered":10951,"Ġthief":10952,"Ġshelves":10953,"ĠSophia":10954,"Cor":10955,"Ġslender":10956,"Ġdetected":10957,"Ġencl":10958,"esc":10959,"ĠNich":10960,"ĠColin":10961,"even":10962,"ĠOrder":10963,"oub":10964,"Ġsomeday":10965,"Jac":10966,"uffs":10967,"Ġbattles":10968,"Ġlegit":10969,"Ġretrieved":10970,"Ġrebell":10971,"Ġobtain":10972,"Ġannoying":10973,"iko":10974,"harm":10975,"Ha":10976,"cers":10977,"imeter":10978,"Ġexceed":10979,"Ġprize":10980,"Ġram":10981,"ĠQuran":10982,"Ġblog":10983,"Ġcurls":10984,"Captain":10985,"Ġeveryday":10986,"ĠCancer":10987,"Ġ...\"":10988,"ĠTodd":10989,"PL":10990,"ĠFox":10991,"ĠDie":10992,"Ġdisappearing":10993,"Ġblurted":10994,"ĠEvan":10995,"Ġadrenal":10996,"Ġsuite":10997,"Ġmistaken":10998,"ĠSeven":10999,"ĠHistory":11000,"Ġinterrog":11001,"Ġng":11002,"ĠJin":11003,"Ġimproved":11004,"ĠAlmost":11005,"ureau":11006,"ĠYear":11007,"Ġcul":11008,"Ġbehold":11009,"Ġcert":11010,"Ġworker":11011,"jamin":11012,"Ġpersonnel":11013,"ndry":11014,"Ġcontribut":11015,"hag":11016,"Ġmath":11017,"Ġpreced":11018,"ĠBest":11019,"Ġinvasion":11020,"Ġdeparted":11021,"undred":11022,"TR":11023,"ĠSlowly":11024,"Ġeh":11025,"ĠHom":11026,"ĠCham":11027,"Ġcurve":11028,"Ġgrimaced":11029,"uration":11030,"Ġaura":11031,"erness":11032,"Ġaggressive":11033,"ĠJour":11034,"rument":11035,"Ġscenario":11036,"Ġtempted":11037,"Ġbrushing":11038,"Ã±":11039,"ĠTara":11040,"Ġgentlemen":11041,"Ġembraced":11042,"Ġundert":11043,"Ġwigg":11044,"ĠBert":11045,"usiness":11046,"agging":11047,"ĠBruce":11048,"ATE":11049,"Ġsignificance":11050,"ĠActually":11051,"Ġsack":11052,"ĠRevelation":11053,"ĠÑĢ":11054,"Ġspan":11055,"ĠAssoci":11056,"Ġteasing":11057,"Ġsincere":11058,"Ġprocedure":11059,"Pr":11060,"Red":11061,"ĠFrancisco":11062,"Ð½Ñĭ":11063,"Ġlisted":11064,"aste":11065,"abilities":11066,"Peter":11067,"iro":11068,"ĠDist":11069,"Ġemployee":11070,"ĠCompany":11071,"rell":11072,"west":11073,"Ġslap":11074,"Ġcovenant":11075,"Ġdeserted":11076,"Ġignorant":11077,"Ġtransition":11078,"Ġpolished":11079,"Ġabsent":11080,"Ġharvest":11081,"Ġaged":11082,"ĠEli":11083,"Ġmeasures":11084,"Ġconsideration":11085,"Ġcoins":11086,"Ġrubber":11087,"Ġdipl":11088,"Ġprick":11089,"Ġdowntown":11090,"Ġprime":11091,"Ġoldest":11092,"Ġeagerly":11093,"Ġfiery":11094,"miral":11095,"Ġswirling":11096,"Ġdiscom":11097,"Ã¢lÃ¢":11098,"Ġsympathy":11099,"Ġpills":11100,"ĠWhether":11101,"Ġorb":11102,"ĠPhilip":11103,"angle":11104,"ĠGene":11105,"essions":11106,"Ġcoward":11107,"Ġnostrils":11108,"ĠService":11109,"Ġdedicated":11110,"Ġfantastic":11111,"Ty":11112,"Ġsoothing":11113,"estic":11114,"new":11115,"Ġtheirs":11116,"Ġadvised":11117,"ĠPhoenix":11118,"ellow":11119,"tenance":11120,"ĠCameron":11121,"wan":11122,"Ġrecovery":11123,"inson":11124,"Ġflashlight":11125,"Ġnotebook":11126,"wa":11127,"Ġexperiencing":11128,"Ġdumped":11129,"Ġwhereas":11130,"Ġshuttle":11131,"Ġqualities":11132,"vous":11133,"Ma":11134,"Ġdramatic":11135,"Ġfourteen":11136,"olk":11137,"Ġambulance":11138,"Ġstove":11139,"Ġpiercing":11140,"Dear":11141,"Ġmuscular":11142,"Ġscrewed":11143,"Ġkar":11144,"Ġdash":11145,"izzy":11146,"ĠStacy":11147,"Ġscor":11148,"ĠSilver":11149,"Ġshotgun":11150,"Ġscanning":11151,"Ġheartbeat":11152,"ml":11153,"Ġreligions":11154,"Ġpony":11155,"Ġconsist":11156,"Ġmechanical":11157,"Americ":11158,"nings":11159,"ĠAut":11160,"Ġ36":11161,"ØŃ":11162,"Ġguarantee":11163,"Ġrevol":11164,"ĠWy":11165,"Ġobtained":11166,"Ġannoyance":11167,"Ġbeck":11168,"ista":11169,"ĠAnything":11170,"Ġretrieve":11171,"Ġelbows":11172,"unny":11173,"abled":11174,"Ġsuggests":11175,"ylon":11176,"Ġalike":11177,"Ġrab":11178,"ĠSanta":11179,"Ġendure":11180,"rates":11181,"Ġfemin":11182,"Ġindul":11183,"Ġoutward":11184,"oren":11185,"ĠSup":11186,"Ġoffices":11187,"asmine":11188,"ĠSeries":11189,"Ġpaced":11190,"urg":11191,"Ġfavourite":11192,"zes":11193,"Bel":11194,"Ġteenager":11195,"Ġvegetables":11196,"Ġsunshine":11197,"Ġbubble":11198,"Ġcommunities":11199,"ĠJoy":11200,"ĠSpace":11201,"Ġperceived":11202,"ĠRobin":11203,"Ġaisle":11204,"Ġsinking":11205,"Ġsupporting":11206,"ĠRain":11207,"Ġconsult":11208,"Ġtrailer":11209,"ĠBud":11210,"Sat":11211,"Ġwrinkled":11212,"Ġpp":11213,"Ġweigh":11214,"Ġmeantime":11215,"Ġantib":11216,"Ġnh":11217,"rod":11218,"Ġlifestyle":11219,"ĠWednesday":11220,"ĠWind":11221,"Ġcandles":11222,"Ġunst":11223,"Ġwatches":11224,"Ġdeme":11225,"Ġink":11226,"Ġdude":11227,"Ġrect":11228,"52":11229,"Ġslamming":11230,"dney":11231,"Ġ2009":11232,"Ġhire":11233,"Ġtheme":11234,"Ġcarc":11235,"ĠEmer":11236,"Ġpole":11237,"Ġsector":11238,"Ġadds":11239,"ĠTechn":11240,"uru":11241,"Ã¨":11242,"bridge":11243,"Ġrestra":11244,"Ġhut":11245,"ulling":11246,"Ġhooked":11247,"Ġsphere":11248,"Ġextraordinary":11249,"Ġresulted":11250,"Ġunple":11251,"Ġgenius":11252,"Ġconfron":11253,"ĠForm":11254,"ĠLay":11255,"Ġslope":11256,"\\--":11257,"Nick":11258,"irs":11259,"Ġflies":11260,"Ġexpectations":11261,"Father":11262,"Ġached":11263,"Ġdefensive":11264,"Ġheel":11265,"ĠAli":11266,"Ġranks":11267,"ĠSin":11268,"Ġattach":11269,"ĠDO":11270,"Ġwonders":11271,"Ġmast":11272,"Ġancestors":11273,"Ġdrill":11274,"Ġtheat":11275,"unts":11276,"Ġtechnical":11277,"aired":11278,"uckily":11279,"Ġalle":11280,"Stay":11281,"Ġheavenly":11282,"Robert":11283,"Ġinstit":11284,"Ġprophecy":11285,"Ġtechniques":11286,"utic":11287,"ĠKal":11288,"Ġinstrument":11289,"arly":11290,"Ġache":11291,"Mel":11292,"uccess":11293,"Ġdraped":11294,"ellig":11295,"Ġuneasy":11296,"Ġawaken":11297,"Ġsi":11298,"Ġinfant":11299,"Ġreassuring":11300,"Yep":11301,"Ġpump":11302,"ĠValley":11303,"cat":11304,"ĠCongress":11305,"Ġmutual":11306,"Ġdelighted":11307,"ĠEllen":11308,"mares":11309,"Ġloyalty":11310,"Ġbothering":11311,"Ġpreparation":11312,"Ġscre":11313,"Ġflip":11314,"Ġ32":11315,"Ġresurrection":11316,"Ġmant":11317,"Ġunfortunate":11318,"Ġbusinesses":11319,"Ġbudget":11320,"Ġhay":11321,"ael":11322,"Ġuncont":11323,"erior":11324,"incoln":11325,"Har":11326,"Ġcharity":11327,"Ġpriority":11328,"Ġtox":11329,"Ġfeature":11330,"Ġdashed":11331,"ĠMagic":11332,"Ġregistered":11333,"ĠJared":11334,"Ġterribly":11335,"BN":11336,"Ġcolleagues":11337,"astern":11338,"Ġreform":11339,"Put":11340,"Ġshred":11341,"Ġcurved":11342,"IE":11343,"ĠTable":11344,"Ġwink":11345,"Ġdecorated":11346,"Ġcav":11347,"worth":11348,"ĠJudge":11349,"ĠFamily":11350,"ptic":11351,"Ġrepresents":11352,"Ġsquat":11353,"Ġfailing":11354,"Ġdiscipline":11355,"Ġlecture":11356,"Ġacknowledged":11357,"ibilities":11358,"Ġintro":11359,"ĠLana":11360,"Ġblows":11361,"Ġgratitude":11362,"ĠEX":11363,"Ġsom":11364,"ĠPerson":11365,"ĠCharlotte":11366,"viet":11367,"HY":11368,"Ġdusty":11369,"ĠTears":11370,"iry":11371,"weh":11372,"ĠMartha":11373,"Ġfert":11374,"ĠCounty":11375,"Ġopposed":11376,"Ġcontinually":11377,"ĠGirl":11378,"Ġfighter":11379,"ĠFREE":11380,"Soon":11381,"Ġorphan":11382,"ader":11383,"ĠEight":11384,"Ġcompare":11385,"ĠKeith":11386,"Ġcooked":11387,"Ġclasped":11388,"Ġpromising":11389,"Ġseventy":11390,"Ġentity":11391,"Ġproudly":11392,"Ġopinions":11393,"Ġtomb":11394,"have":11395,"66":11396,"ĠWITH":11397,"ube":11398,"Ġpathetic":11399,"Ġphenomen":11400,"osa":11401,"ĠSolomon":11402,"ĠTrust":11403,"Ñķ":11404,"ĠÑĥ":11405,"ĠTurning":11406,"Ġrays":11407,"Ġchips":11408,"umm":11409,"ĠAnderson":11410,"adel":11411,"Ġfocusing":11412,"Ġbiting":11413,"Ġapproaches":11414,"hension":11415,"Ġlazy":11416,"Ġfoods":11417,"Hen":11418,"Ġswollen":11419,"Ġraces":11420,"Ġmutations":11421,"Ġromance":11422,"Ġresumed":11423,"Ġglist":11424,"Ġarchitect":11425,"Ġsucceeded":11426,"Cam":11427,"ĠCA":11428,"incing":11429,"clusions":11430,"ĠImm":11431,"ĠGordon":11432,"ĠInn":11433,"ĠKings":11434,"Ġhyster":11435,"Ġbart":11436,"burg":11437,"51":11438,"bra":11439,"leton":11440,"Ġopenly":11441,"Ġlane":11442,"Ġaxe":11443,"zel":11444,"Ġstif":11445,"Ġ80":11446,"immed":11447,"ustomed":11448,"Ġpartly":11449,"ĠAud":11450,"ĠJoan":11451,"ĠWat":11452,"Ġteachings":11453,"OOD":11454,"Ġcelebration":11455,"Ġtransformation":11456,"Ġarrangements":11457,"oples":11458,"rape":11459,"Ġarticles":11460,"ĠSheriff":11461,"Ġcoincidence":11462,"ĠMD":11463,"Ġdrives":11464,"ĠElect":11465,"Ġfruits":11466,"Ġurgent":11467,"Under":11468,"ĠPrime":11469,"amiliar":11470,"Ġcontainer":11471,"ouses":11472,"Î·":11473,"Ġconvenient":11474,"Ġmessenger":11475,"Ġ70":11476,"Ġdrain":11477,"Ġmodest":11478,"Ġunfortunately":11479,"ĠPhill":11480,"Ġwidely":11481,"ĠAge":11482,"quet":11483,"door":11484,"three":11485,"Welcome":11486,"rane":11487,"ĠCrystal":11488,"len":11489,"Ġsickness":11490,"ĠOffice":11491,"Ġgravel":11492,"Ġcomposed":11493,"Ġresulting":11494,"Ġerect":11495,"Ġperforming":11496,"Ġconsiderable":11497,"ĠEva":11498,"rise":11499,"Ġchased":11500,"Got":11501,"ĠCraig":11502,"ĠViolet":11503,"Ġstance":11504,"Ġhyper":11505,"Ġcasting":11506,"Ġæ":11507,"ĠEmperor":11508,"ĠHalf":11509,"bbie":11510,"Ġfeat":11511,"ĠTown":11512,"ĠGot":11513,"Ġawhile":11514,"Ġemphasis":11515,"nh":11516,"ector":11517,"ĠUsing":11518,"Ġpavement":11519,"Ġforbidden":11520,"real":11521,"ected":11522,"Ġpracticed":11523,"ĠCorpor":11524,"ĠWait":11525,"Ġgrows":11526,"ĠEarl":11527,"?\"_":11528,"Ġskinny":11529,"Ġirritated":11530,"Ash":11531,"Ġconnections":11532,"ĠRomans":11533,"ĠBooks":11534,"Ġmarch":11535,"Ġadministration":11536,"Ġhello":11537,"Looks":11538,"Ġhunter":11539,"Each":11540,"Ġdaddy":11541,"uated":11542,"Ġsecretly":11543,"Ġarc":11544,"Ġtravelling":11545,"ĠErin":11546,"occup":11547,"Ġdrunken":11548,"Ġtorso":11549,"Ġrobes":11550,"ĠCare":11551,"oration":11552,"Ġmansion":11553,"Ġdecade":11554,"Ġ90":11555,"ĠWilliams":11556,"ĠUSA":11557,"ggie":11558,"Ġabsorbed":11559,"mun":11560,"gue":11561,"Ġattain":11562,"Ġarguments":11563,"Surat":11564,"miah":11565,"rary":11566,"Ġadmire":11567,"ĠOwen":11568,"ĠMack":11569,"Ġshuff":11570,"Ġbeliever":11571,"fly":11572,"ĠECO":11573,"Ġholl":11574,"ounted":11575,"Ġfactory":11576,"Besides":11577,"Ġpoly":11578,"ĠMust":11579,"Ġencouraging":11580,"mble":11581,"Had":11582,"dled":11583,"Ġsymbols":11584,"berly":11585,"Ġinviting":11586,"Ġvivid":11587,"Ġhovering":11588,"Ġknot":11589,"ĠTerry":11590,"Ġelders":11591,"avier":11592,"Ð°Ñģ":11593,"Ġmothers":11594,"Ġseized":11595,"Ġtiming":11596,"ĠTina":11597,"Ġassuming":11598,"section":11599,"Ġtheories":11600,"Ġpic":11601,"Ġpunish":11602,"Ġebook":11603,"Ġdiscon":11604,"olutely":11605,"Ġprod":11606,"Ġauthors":11607,"Rom":11608,"Ġpaperwork":11609,"Ġremarkable":11610,"Ġofficials":11611,"Ġepisode":11612,"Ó©":11613,"Ġrever":11614,"ivalent":11615,"ĠPop":11616,"ARD":11617,"Ġá¼":11618,"Ġpencil":11619,"Ġsynt":11620,"áº¿":11621,"Ġunnecessary":11622,"ĠCindy":11623,"eri":11624,"ĠTry":11625,"Ġexagger":11626,"ersed":11627,"William":11628,"tor":11629,"ĠDead":11630,"umph":11631,"Ġrice":11632,"Josh":11633,"Ġinstitution":11634,"Ġcorruption":11635,"Ġsympt":11636,"otch":11637,"alling":11638,"Ġfreezing":11639,"ĠWalter":11640,"ĠAcadem":11641,"know":11642,"Ġtranslated":11643,"Ġsupernatural":11644,"Ġceased":11645,"Ġsprang":11646,"ECT":11647,"Ġjokes":11648,"orous":11649,"Ġwhatsoever":11650,"Ġdiscomfort":11651,"Ġattraction":11652,"Ġflickered":11653,"Ġpeak":11654,"Ġexcitedly":11655,"Ġreminds":11656,"atus":11657,"Ġtrips":11658,"Ġunm":11659,"Ġslipp":11660,"ĠShui":11661,"Ġartificial":11662,"ĠPost":11663,"Fl":11664,"shaped":11665,"emet":11666,"Ġrely":11667,"Ġintu":11668,"ĠImp":11669,"ahl":11670,"Ġclerk":11671,"Ġfulfilled":11672,"Ġpecul":11673,"ĠTro":11674,"cules":11675,"hor":11676,"ĠSister":11677,"ĠLewis":11678,"Ġnause":11679,"Ġga":11680,"Ġpeculiar":11681,"athed":11682,"Make":11683,"Ġ33":11684,"ĠMedic":11685,"ĠSocial":11686,"asted":11687,"Ġsergeant":11688,"lend":11689,"zo":11690,"ete":11691,"Ġlargely":11692,"OB":11693,"Ġhovered":11694,"ĠChel":11695,"Ġeyelids":11696,"ipper":11697,"Ġcorporate":11698,"via":11699,"sea":11700,"Ġsket":11701,"ÄĻ":11702,"pens":11703,"ĠAld":11704,"Ġstabbed":11705,"ĠGree":11706,"edy":11707,"asma":11708,"ĠDirector":11709,"Ġfemales":11710,"Ġrav":11711,"ĠScarlet":11712,"Ġunpleasant":11713,"Ġconcepts":11714,"Ġresent":11715,"Ïħ":11716,"Ġconspir":11717,"AH":11718,"ĠLes":11719,"Ġinstincts":11720,"anche":11721,"ounding":11722,"Ġdownward":11723,"Ġofficially":11724,"ĠSaid":11725,"Ġankles":11726,"Ġfurr":11727,"Ġexasper":11728,"Ġabst":11729,"ĠHER":11730,"Ġneighbour":11731,"Ching":11732,"87":11733,"cribed":11734,"Ġrespected":11735,"Ġcommunications":11736,"Ġsettling":11737,"Ġprol":11738,"SH":11739,"Ġspells":11740,"omi":11741,"Ġ45":11742,"licted":11743,"Ġà®ª":11744,"Ġmole":11745,"ANT":11746,"Ġcollabor":11747,"ĠTheo":11748,"Ġ;":11749,"Ġrocky":11750,"ĠOk":11751,"Through":11752,"ĠClay":11753,"Ġtremendous":11754,"pres":11755,"Ġlonging":11756,"Ġdemonstrate":11757,"ĠHey":11758,"ĠRab":11759,"Ancient":11760,"making":11761,"Ġlayers":11762,"ĠRal":11763,"EST":11764,"Ġslice":11765,"Ġfoss":11766,"Ġsuppl":11767,"Ġinhaled":11768,"Ġknuckles":11769,"Ġinitially":11770,"eting":11771,"Ġconcert":11772,"Ġmusical":11773,"Ġragged":11774,"Ġdove":11775,"Ġcontest":11776,"ĠJustice":11777,"Ġhugging":11778,"Ġreminder":11779,"Ġ2008":11780,"path":11781,"Ġabsurd":11782,"Ġmoan":11783,"Think":11784,"Ġenforce":11785,"Ant":11786,"Ġliterature":11787,"Ġprincipal":11788,"ĠBuild":11789,"Ġtire":11790,"Â«":11791,"ĠEz":11792,"mann":11793,"ilton":11794,"Ġjumps":11795,"Ġoblivious":11796,"Ġbump":11797,"Ġsafer":11798,"Ġcitizen":11799,"Ġbio":11800,"ĠOtherwise":11801,"Ġvine":11802,"_**":11803,"Ġsignals":11804,"ĠIsn":11805,"Ġpanicked":11806,"Ġtrucks":11807,"ĠHart":11808,"Ġhabits":11809,"Ġovernight":11810,"uished":11811,"unching":11812,"Ġvirtue":11813,"Ġbewild":11814,"Ġpiled":11815,"Ġamounts":11816,"Ġsweetheart":11817,"iblical":11818,"vals":11819,"iona":11820,"Ġgovernments":11821,"Ġconvention":11822,"ssa":11823,"minded":11824,"ulsion":11825,"GE":11826,"Ð¸Ð»":11827,"Cont":11828,"Ġdisrupt":11829,"Ġnightmares":11830,"ĠDevil":11831,"Ġretreated":11832,"illance":11833,"Ġattorney":11834,"uation":11835,"stick":11836,"oft":11837,"Ġconstit":11838,"ĠMister":11839,"Ġaching":11840,"Ġscrib":11841,"Ġtapping":11842,"Question":11843,"Ġcharacteristics":11844,"rr":11845,"ĠBeat":11846,"Ġindustrial":11847,"rants":11848,"Ġvisitor":11849,"actic":11850,"dis":11851,"Ġstrolled":11852,"Ġsoph":11853,"Ġhighlight":11854,"Ġecst":11855,"Ġneutral":11856,"plan":11857,"IO":11858,"ĠAlways":11859,"Ġluxury":11860,"Ġcontrolling":11861,"ĠAngeles":11862,"Ġbroadcast":11863,"ĠâĢ":11864,"Ġissued":11865,"Ġminimum":11866,"Ġwww":11867,"Ġlifeless":11868,"Ġresidents":11869,"ĠElijah":11870,"Ġunderwear":11871,"Ġalpha":11872,"igure":11873,"Ġupside":11874,"Ġzombie":11875,"Ġbeamed":11876,"Ġkindly":11877,"SP":11878,"Ġmaintenance":11879,"Ġapproved":11880,"ooled":11881,"Ġrailing":11882,"piece":11883,"Ġwilderness":11884,"onic":11885,"ĠLear":11886,"archy":11887,"ĠSpecial":11888,"Ġbinding":11889,"ĠTru":11890,"ĠWomen":11891,"ĠJanet":11892,"Ġtaxes":11893,"Ġwriters":11894,"Ġ,\"":11895,"ĠGeoff":11896,"ĠRoss":11897,"azar":11898,"Ġcircular":11899,"ĠDoug":11900,"ĠLydia":11901,"Ġdestroying":11902,"AIN":11903,"Feng":11904,"Ġcorrected":11905,"Ġrigid":11906,"Ġemotionally":11907,"every":11908,"ĠSue":11909,"Ġscout":11910,"Ġworldly":11911,"ĠSouthern":11912,"ĠPL":11913,"Ġgalaxy":11914,"ĠLauren":11915,"Ġscars":11916,"Ġclip":11917,"ĠHoll":11918,"Ġtech":11919,"Ġthirteen":11920,"Ġfitting":11921,"ifications":11922,"Ġmales":11923,"Ġdiver":11924,"ĠUnless":11925,"uv":11926,"Ġmurderer":11927,"Ġbark":11928,"Ġbizar":11929,"Ġgau":11930,"Ġenvironmental":11931,"ĠGEO":11932,"Ġhesitate":11933,"ĠMessiah":11934,"bone":11935,"Ġalb":11936,"Ġradiation":11937,"ĠSoviet":11938,"Ġdrifting":11939,"Ġrocked":11940,"ISS":11941,"à¤¾":11942,"Ġlocks":11943,"ĠMoreover":11944,"ĠAmelia":11945,"Ġclapped":11946,"Ġpainfully":11947,"Ġtransferred":11948,"something":11949,"54":11950,"Ġviewed":11951,"ĠFord":11952,"Ġvaguely":11953,"ĠMuch":11954,"ĠKel":11955,"ollowing":11956,"Ġcommission":11957,"Ġimprison":11958,"Ġsatell":11959,"Ġprices":11960,"riger":11961,"Ġ37":11962,"Jan":11963,"Ġunhappy":11964,"ĠNature":11965,"Rob":11966,"itivity":11967,"Ġtossing":11968,"Ġlingered":11969,"Ġunseen":11970,"Ġreluctant":11971,"OO":11972,"ITY":11973,"ĠSupp":11974,"ĠPlanet":11975,"Ġtherape":11976,"Ġfarmer":11977,"Ġtricks":11978,"Ġproposal":11979,"Ġheap":11980,"Ġvicious":11981,"ĠPam":11982,"itudes":11983,"cled":11984,"Ġadvis":11985,"ĠStop":11986,"ĠChristopher":11987,"Ġelegant":11988,"Ġcandy":11989,"Ġreverse":11990,"Ġdisob":11991,"Ġinstinctively":11992,"Ġsucking":11993,"Ġshack":11994,"zi":11995,"None":11996,"lyph":11997,"ĠTop":11998,"ĠUK":11999,"ĠFif":12000,"Ġintact":12001,"ĠÐ·":12002,"Ġelectrical":12003,"Four":12004,"Ġemployed":12005,"agne":12006,"Ġretirement":12007,"Ġterrifying":12008,"Ġtut":12009,"pany":12010,"Ġhence":12011,"Ġamazement":12012,"Ġtraced":12013,"ĠCommand":12014,"step":12015,"ĠCorn":12016,"Ġvs":12017,"Ġpanc":12018,"Ġarrangement":12019,"Ġrelation":12020,"ĠRather":12021,"Ġinstruction":12022,"Ġcrawling":12023,"ĠSmashwords":12024,"Ġsparkling":12025,"ĠBank":12026,"Ġpeering":12027,"97":12028,"Ġdipped":12029,"Ġattending":12030,"Ġswam":12031,"Ġpaintings":12032,"ĠDemocr":12033,"Ġholog":12034,"ĠYahweh":12035,"ĠNE":12036,"Ġentit":12037,"Ġsocks":12038,"Ġdeciding":12039,"Ġfellows":12040,"cker":12041,"Ġprinted":12042,"Ġsummoned":12043,"Ġsuited":12044,"Ġgardens":12045,"Ġmand":12046,"ials":12047,"Ġgenuinely":12048,"Ġsmug":12049,"Ġvisits":12050,"ĠLar":12051,"Say":12052,"Ġgolf":12053,"Ġvirgin":12054,"robe":12055,"Ġsteadily":12056,"Ġcuriously":12057,"Ġescorted":12058,"Ġruled":12059,"98":12060,"Ġreasoning":12061,"Ġpeeked":12062,"ĠDest":12063,"why":12064,"Ġmotionless":12065,"endy":12066,"Indeed":12067,"ĠWisdom":12068,"Ġwrites":12069,"UC":12070,"Ġphones":12071,"scar":12072,"agine":12073,"Ġexpans":12074,"itating":12075,"ĠSaint":12076,"ĠLin":12077,"Ġtechnique":12078,"Ð½Ð¾":12079,"Ġlaser":12080,"Ġcalmed":12081,"Ġdesperation":12082,"Ġbrew":12083,"Ġpleading":12084,"Ġelection":12085,"ĠMalcolm":12086,"Ġscheme":12087,"OUR":12088,"Ġpip":12089,"Ġremn":12090,"Ġsport":12091,"ĠFacebook":12092,"igo":12093,"Ġinsects":12094,"Ġinvolving":12095,"through":12096,"front":12097,"Ġbouncing":12098,"Ġreads":12099,"Ġà®ī":12100,"Ġwaiter":12101,"ĠGods":12102,"Ġrelent":12103,"ĠNad":12104,"Ġmelt":12105,"ĠGriff":12106,"orns":12107,"ĠBull":12108,"Ġtestimony":12109,"ĠEllie":12110,"Ġtraged":12111,"Marc":12112,"Ġpassionate":12113,"ĠBow":12114,"kar":12115,"Ġnick":12116,"Ġbulk":12117,"Ġsuppress":12118,"Ġuttered":12119,"Ġfla":12120,"arson":12121,"Ġrates":12122,"uri":12123,"Nat":12124,"ĠBor":12125,"Ġfountain":12126,"ĠFear":12127,"Ġfindings":12128,"Ġfeathers":12129,"fold":12130,"Ġtreas":12131,"Ġfrightening":12132,"Probably":12133,")_":12134,"Ġpeoples":12135,"Ġbehave":12136,"obb":12137,"Ġanticipated":12138,"Ġadmired":12139,"Ãº":12140,"ĠÙĦ":12141,"Ġcongregation":12142,"Î¬":12143,"ĠMilo":12144,"ĠNon":12145,"Ġaddict":12146,"bird":12147,"Ġparallel":12148,"Ġexhaustion":12149,"Ġscur":12150,"kra":12151,"Ġsixth":12152,"Ġdependent":12153,"Ġ2000":12154,"ĠLen":12155,"Ġregain":12156,"Ġparan":12157,"ĠProject":12158,"Ġfighters":12159,"Ġpresents":12160,"Ġelaborate":12161,"Ġchewed":12162,"Isn":12163,"Allah":12164,"name":12165,"Ġshimmer":12166,"ĠHind":12167,"Ġber":12168,"Ġtwent":12169,"Ġtended":12170,"Ġinstruments":12171,"acent":12172,"Ġrejo":12173,"Ġorganizations":12174,"Ġwithdrew":12175,"Ron":12176,"ĠStephan":12177,"Ġeditor":12178,"Ġfilthy":12179,"Ġcompliment":12180,"Ġsatisfy":12181,"Ġcompens":12182,"ĠDE":12183,"ĠSydney":12184,"ĠÙĬ":12185,"Ġdischar":12186,"Ġengulf":12187,"ĠSupreme":12188,"],":12189,"Ġsoap":12190,"balls":12191,"first":12192,"Ġtribes":12193,"Ġawkwardly":12194,"ĠSandy":12195,"ĠLincoln":12196,"Ġpositioned":12197,"Ġlanguages":12198,"Ġscheduled":12199,"did":12200,"allic":12201,"Ġhaul":12202,"rec":12203,"Ġcharming":12204,"Ġhomeless":12205,"Ġscenes":12206,"ĠFortunately":12207,"dened":12208,"Ġcryst":12209,"Ġfarmers":12210,"nedy":12211,"ĠRandy":12212,"Ġinspiration":12213,"ĠJenna":12214,"inkle":12215,"Ġconserv":12216,"Ġbloom":12217,"Ġrefriger":12218,"rove":12219,"grim":12220,"Ġblush":12221,"ĠWes":12222,"Ġquiver":12223,"ĠNed":12224,"Ġpacing":12225,"rix":12226,"Ġmiracles":12227,"stretched":12228,"Ġeman":12229,"Ġmature":12230,"Ġdispl":12231,"ĠStory":12232,"Ġpicks":12233,"Ġreminding":12234,"ĠJa":12235,"iki":12236,"Ġhull":12237,"Ġstrain":12238,"Ġshaken":12239,"Ġreleasing":12240,"Jess":12241,"Ġlingering":12242,"faced":12243,"ACK":12244,"Ken":12245,"ĠHollywood":12246,"Ġpunct":12247,"parents":12248,"ĠDawn":12249,"usk":12250,"person":12251,"Ġsweeping":12252,"ea":12253,"oes":12254,"alking":12255,"ICK":12256,"Ġpoliticians":12257,"Ġlovers":12258,"ĠcafÃ©":12259,"Ä±r":12260,"Ġsmoothly":12261,"Ġcrowds":12262,"ĠLeah":12263,"Ġhttps":12264,"Ġchallenged":12265,"Ġloop":12266,"Inside":12267,"spring":12268,"Ġpersec":12269,"Ġhandled":12270,"Ð°Ðº":12271,"anging":12272,"Ġcrisp":12273,"Ġlaundry":12274,"Ġcrimson":12275,"La":12276,"uded":12277,"ĠAmaz":12278,"Î¯":12279,"Ġstunning":12280,"Ġinnocence":12281,"Ġfangs":12282,"ĠKind":12283,"Ġilluminated":12284,"Ġribb":12285,"Ġcontempt":12286,"Ġhomework":12287,"Ġ38":12288,"Ġenjoyment":12289,"Ġdiscern":12290,"Ġworsh":12291,"Ġconviction":12292,"ĠRober":12293,"oper":12294,"Ġrequirements":12295,"aki":12296,"Ġdevoted":12297,"Ġwhip":12298,"Ġcogn":12299,"Ġengagement":12300,"Ġshalt":12301,"Ġtravelled":12302,"Ġtops":12303,"Ġleaped":12304,"ĠTimothy":12305,"Ð¾Ð¹":12306,"...?\"":12307,"Ġsweep":12308,"Ġtracking":12309,"Ġrecognised":12310,"ĠAdmiral":12311,"ucing":12312,"ĠSyl":12313,"Ġ2017":12314,"Ġunison":12315,"ĠSnow":12316,"Ġwasting":12317,"mediately":12318,"urred":12319,"respect":12320,"Ġcopies":12321,"Ġoperate":12322,"Ġintru":12323,"pses":12324,"ĠØ£":12325,"Reg":12326,"Ġarrogant":12327,"retty":12328,"Ġscrut":12329,"alia":12330,"Ġmisunder":12331,"ĠShane":12332,"Ġoutline":12333,"ĠBenjamin":12334,"Ġaward":12335,"hensive":12336,"Ġlantern":12337,"emed":12338,"Ġblouse":12339,"ĠNavy":12340,"give":12341,"Ġpsychic":12342,"ĠMitch":12343,"Ġfuss":12344,"Ġevolved":12345,"Ġpunished":12346,"ĠMiranda":12347,"Ġbizarre":12348,"akened":12349,"Ġcust":12350,"Ġresponses":12351,"Ġlocate":12352,"Ġimmig":12353,"Jason":12354,"fia":12355,"ĠKarl":12356,"rient":12357,"ĠTroy":12358,"Ġcarn":12359,"amon":12360,"Ġthoughtful":12361,"ĠQuinn":12362,"Ġblinking":12363,"Ġsends":12364,"Ġparticles":12365,"ĠKnowing":12366,"Art":12367,"Five":12368,"Ġrefers":12369,"Ġsunset":12370,"break":12371,"ĠPeace":12372,"Ġtumbled":12373,"Ġsqueezing":12374,"bul":12375,"Ġearthly":12376,"udder":12377,"etta":12378,"ocate":12379,"Ġsobbing":12380,"books":12381,"Ġinsul":12382,"Ġsticky":12383,"Ġobserving":12384,"ĠUP":12385,"Ġexperiments":12386,"rak":12387,"Ġhaunted":12388,"ĠCub":12389,"Ġthrilled":12390,"Ġpuzzle":12391,"ĠSign":12392,"izzie":12393,"Ġrocking":12394,"ĠAngie":12395,"ĠNeil":12396,"ques":12397,"à®£":12398,"arett":12399,"icky":12400,"ĠBuddha":12401,"Ġnudged":12402,"Ġbartender":12403,"Ġconvincing":12404,"Ol":12405,"ĠShort":12406,"Ġpierced":12407,"Ġvirtually":12408,"Ġic":12409,"orus":12410,"loaded":12411,"Ġdivision":12412,"ambling":12413,"Ġpacking":12414,"Ġtouches":12415,"ĠIvan":12416,"ĠObviously":12417,"lah":12418,"Ġmarvel":12419,"inction":12420,"Ġbrass":12421,"Ġviv":12422,"Ġpiano":12423,"oli":12424,"fr":12425,"iza":12426,"Ġinclined":12427,"hop":12428,"osy":12429,"ĠBeach":12430,"Ġaccustomed":12431,"Ġmuseum":12432,"omp":12433,"ĠMAT":12434,"Ġchip":12435,"Ġrumors":12436,"Ġdiplom":12437,"Ø£":12438,"ĠAna":12439,"Ġfrequency":12440,"ĠWork":12441,"Ġarts":12442,"Ġassets":12443,"ĠGarden":12444,"ĠThird":12445,"Ġconducted":12446,"Ġoath":12447,"Ġfragile":12448,"Ġkinda":12449,"Ġbug":12450,"Ġventure":12451,"Ġsurveillance":12452,"Ġclay":12453,"bedded":12454,"Isa":12455,"Ġassembled":12456,"ĠBi":12457,"esy":12458,"Ġrabbit":12459,"Exactly":12460,"Ġforgetting":12461,"aige":12462,"Ġginger":12463,"Ġdresses":12464,"ĠEnt":12465,"Ġà®®":12466,"Ġoccurs":12467,"Ġfrantic":12468,"Ġmarketing":12469,"Ġconstructed":12470,"Ġframed":12471,"hany":12472,"ĠTR":12473,"Ġdiseases":12474,"Ġtwitched":12475,"Ġtemptation":12476,"geon":12477,"lings":12478,"Ġchallenging":12479,"Ġsuspended":12480,"filled":12481,"Ġindign":12482,"Ġtunnels":12483,"Ġinfected":12484,"areth":12485,"aby":12486,"Ġsliced":12487,"kers":12488,"Ġpastor":12489,"Nope":12490,"ĠPass":12491,"ĠField":12492,"ĠJade":12493,"umbers":12494,"Ġresidence":12495,"Ġequivalent":12496,"gra":12497,"Ġstages":12498,"Ġregul":12499,"Ġtide":12500,"Ġstations":12501,"Cla":12502,"Ġprosec":12503,"ryn":12504,"handed":12505,"Instead":12506,"Ġseeming":12507,"CA":12508,"ĠSet":12509,"Ġtrop":12510,"Ġwarmed":12511,"Ġrefres":12512,"Ġprogression":12513,"ĠØª":12514,"ĠMarshall":12515,"Ġfloat":12516,"Beats":12517,"ĠMiles":12518,"Ġgripping":12519,"ĠVirginia":12520,"Ġlaboratory":12521,"ĠPrinc":12522,"ĠChad":12523,"Ġunfamiliar":12524,"Ġsneered":12525,"acts":12526,"emetery":12527,"ĠGall":12528,"Ġropes":12529,"ĠGenesis":12530,"ĠParty":12531,"Ġseparation":12532,"Ġstrings":12533,"Bre":12534,"Ġproportion":12535,"star":12536,"Ġtires":12537,"Ġemployment":12538,"ĠAshley":12539,"OUS":12540,"Ġhind":12541,"Ġoffended":12542,"Ġadequ":12543,"Ġtemples":12544,"_?\"":12545,"Ġtickets":12546,"ĠSaul":12547,"Ġposted":12548,"ĠDu":12549,"Ġopposition":12550,"Ġmac":12551,"Ġfacilities":12552,"Ġhappier":12553,"Ġexplode":12554,"Ġinterven":12555,"cluding":12556,"Ġhastily":12557,"Ġunle":12558,"Ġguessing":12559,"Ġobeyed":12560,"umor":12561,"ĠRid":12562,"Ġbrutal":12563,"Ġskipped":12564,"Ġcanvas":12565,"Ġexamining":12566,"ĠFR":12567,"ĠJackie":12568,"Ġheed":12569,"Ġeastern":12570,"Ġstrand":12571,"Ġcomr":12572,"Ġblunt":12573,"ĠHoward":12574,"ÐµÑģ":12575,"Mus":12576,"Ġze":12577,"riers":12578,"Ġinsult":12579,"Tim":12580,"Ġbarg":12581,"Ġpromote":12582,"rome":12583,"Ġsnapping":12584,"ĠAcademy":12585,"Ġapproximately":12586,"athetic":12587,"Ġapology":12588,"Ġguarded":12589,"Ġarose":12590,"Ġdepressed":12591,"Ġsmoot":12592,"usions":12593,"ĠThom":12594,"Ġtoys":12595,"Ġ34":12596,"ĠSpr":12597,"obs":12598,"haraoh":12599,"Ġassessment":12600,"Ġcrumpled":12601,"ĠCand":12602,"Step":12603,"illes":12604,"Ġnicely":12605,"à®³":12606,"Ġyoungest":12607,"ĠALL":12608,"ulu":12609,"ĠPot":12610,"Ġskies":12611,"Ġreun":12612,"Ġforgiven":12613,"ĠCad":12614,"ĠÎº":12615,"ĠBless":12616,"Ġconfession":12617,"Ġfearful":12618,"Ġexpense":12619,"Ġpussy":12620,"interest":12621,"Ġpsychological":12622,"Ġtermin":12623,"abol":12624,"Ġmim":12625,"ĠClear":12626,"George":12627,"Ġloos":12628,"Îº":12629,"Ġorgans":12630,"Ġaltered":12631,"Ġcautious":12632,"Ġledge":12633,"à¦¾":12634,"Ġblackness":12635,"Ġoven":12636,"master":12637,"68":12638,"Ġjoked":12639,"ickly":12640,"ĠBetty":12641,"Ġhuddled":12642,"ĠOp":12643,"Ġ[*":12644,"Ġemerge":12645,"bro":12646,"Ġcoal":12647,"uan":12648,"Ġoverly":12649,"Ġenters":12650,"Ġsalad":12651,"Ġpubl":12652,"abs":12653,"ĠIV":12654,"uther":12655,"Ġpropped":12656,"inkling":12657,"Ġpushes":12658,"QU":12659,"Ġperched":12660,"Ġrefusing":12661,"Ġpondered":12662,"Ġwhore":12663,"Ġinhabitants":12664,"Ġfortunate":12665,"Inter":12666,"Ġagenda":12667,"Rep":12668,"ĠVar":12669,"Ġgulped":12670,"ĠItaly":12671,"Having":12672,"ĠTrent":12673,"Ġmechanisms":12674,"Ġwit":12675,"Ġforearm":12676,"95":12677,"Ð¶":12678,"lymp":12679,"white":12680,"Ġplunged":12681,"mal":12682,"ĠFinn":12683,"Ġteenage":12684,"Ġsections":12685,"andal":12686,"fish":12687,"Ġdefine":12688,"nut":12689,"Ġconsistent":12690,"Ġidol":12691,"Ġstays":12692,"ĠSant":12693,"urb":12694,"Ġconfessed":12695,"Ġessentially":12696,"_?":12697,"Ġstreaming":12698,"Ġhalted":12699,"Ġteens":12700,"orient":12701,"ĠFood":12702,"ĠAllen":12703,"Ġtrials":12704,"Ġdescribes":12705,"ĠBecky":12706,"Ġvessels":12707,"Ġdangling":12708,"state":12709,"grat":12710,"Last":12711,"Adam":12712,"Ġlunged":12713,"Ġdiscl":12714,"Ġpanting":12715,"Ġbrighter":12716,"ĠUnlike":12717,"Ġpotatoes":12718,"ĠPC":12719,"ĠPapa":12720,"Ġempire":12721,"oki":12722,"Didn":12723,"Ġpermitted":12724,"Ġwhistle":12725,"Ġcupped":12726,"Ġrape":12727,"Ms":12728,"Ġreveals":12729,"Ġgran":12730,"ĠPhilipp":12731,"Ġescaping":12732,"Ġscroll":12733,"Ġunfair":12734,"Ġstarving":12735,"Ġslit":12736,"Ġdoctrine":12737,"Mother":12738,"Ġthoughtfully":12739,"Ġresort":12740,"Ġseventeen":12741,"yers":12742,"Ġcolorful":12743,"itative":12744,"ĠEden":12745,"Ġdisbelie":12746,"Leave":12747,"Ġorbit":12748,"ĠSUV":12749,"dling":12750,"Ġmayor":12751,"ennis":12752,"Ġrisks":12753,"Ġawaiting":12754,"ONG":12755,"ĠProm":12756,"IVE":12757,"Ġtongues":12758,"ĠKr":12759,"ĠNatalie":12760,"ãĥ§":12761,"Ġvenge":12762,"Ġperceive":12763,"Ġmos":12764,"Ġimagining":12765,"Ġjealousy":12766,"Ġ((":12767,"Ġsweater":12768,"Del":12769,"Ġdomain":12770,"Ġsignature":12771,"ĠChuck":12772,"Ġoutstretched":12773,"ĠCaroline":12774,"Ġ2007":12775,"Ġjewelry":12776,"Ġveter":12777,"Ġties":12778,"Ġdose":12779,"Ġpotentially":12780,"Ġadrenaline":12781,"Ġnecessity":12782,"Ġconsequence":12783,"ĠFurthermore":12784,"allas":12785,"ixed":12786,"Ġstrapped":12787,"acion":12788,"eight":12789,"aza":12790,"Ġautomatic":12791,"Ġmused":12792,"Ġgrain":12793,"Ġwinding":12794,"Ġpolicies":12795,"acular":12796,"ÐµÐ¼":12797,"Ġdomestic":12798,"Ġbum":12799,"iblings":12800,"Ġwhiskey":12801,"Ġtensed":12802,"ĠMi":12803,"Ġraises":12804,"ĠViv":12805,"porary":12806,"Ġresolved":12807,"ĠKent":12808,"Ġstormed":12809,"igious":12810,"Ġtortured":12811,"Ġindication":12812,"Ġhostile":12813,"Ġdecides":12814,"Mal":12815,"Ġtrib":12816,"oor":12817,"Ġrescued":12818,"ĠWillow":12819,"ĠDeep":12820,"Ġanytime":12821,"Ġcandidate":12822,"ĠPublic":12823,"Ġfatig":12824,"Ġhorrified":12825,"Ġfrost":12826,"Ġassociation":12827,"Ġsting":12828,"True":12829,"ĠOx":12830,"ĠAlec":12831,"ĠBC":12832,"attering":12833,"Ġsuitcase":12834,"Ġscreens":12835,"ĠCooper":12836,"Ġaccidentally":12837,"Ġtranslation":12838,"imal":12839,"ĠGroup":12840,"Ġclinging":12841,"Ġcompartment":12842,"ĠBetter":12843,"ĠZeus":12844,"Ġknives":12845,"Ġscul":12846,"Ġrepro":12847,"Ġsunk":12848,"iament":12849,"Ġembarrassing":12850,"ĠÙģ":12851,"Ġkit":12852,"Ġshaky":12853,"Ġtrusting":12854,"Ġjudging":12855,"HING":12856,"ugged":12857,"aders":12858,"usive":12859,"Ġende":12860,"weight":12861,"Ġconsol":12862,"Ġbruises":12863,"ĠAlpha":12864,"07":12865,"Ġmathemat":12866,"ĠBritain":12867,"Ġmaximum":12868,"class":12869,"ĠFriend":12870,"Ġbolted":12871,"×ķ":12872,"ilia":12873,"Ġresembled":12874,"orne":12875,"Ġgaining":12876,"Ġmead":12877,"Holy":12878,"Ġwool":12879,"Ġproducing":12880,"Ġrepeating":12881,"Ġborr":12882,"Ġmetallic":12883,"imental":12884,"Life":12885,"Ġtherapeutic":12886,"Ġâ":12887,"ĠCommission":12888,"fare":12889,"PP":12890,"ĠTower":12891,"Ġassert":12892,"Ġsubd":12893,"ELL":12894,"Ġinstitutions":12895,"ĠEvelyn":12896,"ĠKit":12897,"ripp":12898,"ĠNeed":12899,"Ġflinched":12900,"uttering":12901,"Ġexped":12902,"Spe":12903,"Ġrelate":12904,"Ġrug":12905,"Ġinvolvement":12906,"ĠRap":12907,"ĠAnyone":12908,"ĠÂ©":12909,"ymph":12910,"Ġsensing":12911,"oto":12912,"Ġgasping":12913,"Ġterminal":12914,"ĠENG":12915,"Ġorc":12916,"Ġcloses":12917,"Ġcertainty":12918,"Ġreacted":12919,"Ġadvers":12920,"Ġexposure":12921,"Ġwillingly":12922,"Ġintroduction":12923,"ĠTab":12924,"ĠNevertheless":12925,"Ġshades":12926,"Ġathlet":12927,"Ġregions":12928,"Ġuncon":12929,"Ġlifts":12930,"Ġsurvivors":12931,"Ġnep":12932,"ĠOper":12933,"Ġdifficulties":12934,"boards":12935,"Also":12936,"lasses":12937,"Ġsleeves":12938,"Ġcriminals":12939,"roid":12940,"Ġoffense":12941,"Ġflush":12942,"Ġprocessing":12943,"Ġfiled":12944,"Ġly":12945,"Ġstiffened":12946,"ouched":12947,"Ġsober":12948,"Ġvice":12949,"inates":12950,"ĠMarco":12951,"Ġconver":12952,"riving":12953,"pencer":12954,"Ġninety":12955,"actor":12956,"Ġprevented":12957,"Ġimpatiently":12958,"Ġbeams":12959,"Ġbloss":12960,"Ġflared":12961,"Ð°Ð¹":12962,"ĠNikki":12963,"Ġdisgusting":12964,":_":12965,"Ġhorns":12966,"Ġdive":12967,"Ġtalents":12968,"Joe":12969,"obal":12970,"Er":12971,"Bro":12972,"Ġremainder":12973,"IDE":12974,"ourage":12975,"Ġclaiming":12976,"Ġjunior":12977,"à§ĩ":12978,"ĠKennedy":12979,"ĠVeg":12980,"Ġtablet":12981,"Ġvillages":12982,"OWN":12983,"Ġdevotion":12984,"Ġpeer":12985,"Ġassassin":12986,"Ġbrisk":12987,"Ġresident":12988,"Ġelves":12989,"Ġguts":12990,"Ġacademic":12991,"ÙĦØ§":12992,"Ġbeef":12993,"zzy":12994,"Ä«":12995,"gage":12996,"Ġscoffed":12997,"Ġrises":12998,"ĠProv":12999,"á»Ļ":13000,"Ġpromptly":13001,"Ġperimeter":13002,"ĠRuby":13003,"Ġsorce":13004,"Ġappreciation":13005,"Ġnan":13006,"ĠGodd":13007,"ĠPope":13008,"Ġcurb":13009,"Ġthrows":13010,"ĠDebbie":13011,"Ġconfusing":13012,"Ġparticipate":13013,"amble":13014,"ĠGrandpa":13015,"08":13016,"Ġarise":13017,"Ġstench":13018,"ĠMyr":13019,"gus":13020,"Ġsie":13021,"rice":13022,"storm":13023,"ĠMajesty":13024,"Ġcamps":13025,"eped":13026,"adian":13027,"ĠCru":13028,"Ġannual":13029,"Ġrevers":13030,"ĠER":13031,"def":13032,"Ġrattled":13033,"Ġeighty":13034,"ÏĮ":13035,"Ġcomposure":13036,"anks":13037,"ĠGeorgia":13038,"elson":13039,"Ġelected":13040,"Ġhardened":13041,"hour":13042,"Ð¾ÑĤ":13043,"isp":13044,"Ġsoftened":13045,"Ġmasses":13046,"ocation":13047,"Ġcreepy":13048,"Ġarena":13049,"ĠKell":13050,"rific":13051,"Ġglor":13052,"OUND":13053,"Ġairl":13054,"Ġchatting":13055,"Ġstroking":13056,"lit":13057,"ÑĨ":13058,"active":13059,"ropri":13060,"Chan":13061,"Ġ978":13062,"Ġarou":13063,"idays":13064,"Ġaccompany":13065,"Cass":13066,"six":13067,"Ġsilhou":13068,"Ġbumped":13069,"Ġruins":13070,"Ġox":13071,"itarian":13072,"ĠFle":13073,"ĠCarrie":13074,"ĠBR":13075,"Ġcowboy":13076,"Ġvary":13077,"ĠBear":13078,"ĠDevelop":13079,"Ġgross":13080,"vard":13081,"Ġ2006":13082,"Ġton":13083,"Ġcracks":13084,"Anything":13085,"Day":13086,"Ġcollecting":13087,"Ġscope":13088,"According":13089,"ĠÑĩ":13090,"Ġuncertainty":13091,"ĠAx":13092,"ĠDonald":13093,"Thomas":13094,"ĠORIFICE":13095,"antine":13096,"zil":13097,"Ġdisin":13098,"Ġjudged":13099,"'.\"":13100,"ciously":13101,"race":13102,"Ġsiblings":13103,"Ġdresser":13104,"ifting":13105,"Ġwerewolf":13106,"ĠLot":13107,"Ġconcealed":13108,"spec":13109,"Ġincreases":13110,"Ġpresentation":13111,"Ġdignity":13112,"Ġregained":13113,"odies":13114,"hist":13115,"ĠGraham":13116,"Ġactivated":13117,"Ġexter":13118,"Ġmars":13119,"Ø´":13120,"Ġthresh":13121,"Ġnail":13122,"ricted":13123,"Ã¬":13124,"Ġroses":13125,"Ġcrooked":13126,"eteen":13127,"umbles":13128,"ĠRun":13129,"arettes":13130,"Ġsnugg":13131,"ĠSasha":13132,"Ġcarries":13133,"Ġfrequent":13134,"Ġengineering":13135,"Ġdeed":13136,"Ġswayed":13137,"ĠTree":13138,"Ġhaze":13139,"Ġraven":13140,"Ġinnov":13141,"Ġrevel":13142,"alend":13143,"ĠBrid":13144,"Ġclassic":13145,"ĠSummer":13146,"ĠBody":13147,"arming":13148,"tan":13149,"Ġsty":13150,"Ġheck":13151,"ĠHit":13152,"ĠAvery":13153,"Ġingred":13154,"Ġoo":13155,"Ġmomentum":13156,"Ġcrest":13157,"Ġgem":13158,"ĠPearl":13159,"Ġfights":13160,"UB":13161,"Ġstrands":13162,"Ġbabe":13163,"Ġreapp":13164,"ori":13165,"Ġchewing":13166,"ĠHold":13167,"Ġengineer":13168,"ĠTeam":13169,"Ġnurses":13170,"Ġmarking":13171,"Ġlocations":13172,"Ġtwe":13173,"Ġkh":13174,"Ġdated":13175,"Ġpout":13176,"Ġgritted":13177,"Ġchecks":13178,"ĠStation":13179,"ĠSL":13180,"Ġgobl":13181,"Ġhey":13182,"Ġreactions":13183,"yson":13184,"Ġindicates":13185,"ĠIb":13186,"Ġraz":13187,"Ġpanties":13188,"Ġimaginary":13189,"ĠVe":13190,"Unfortunately":13191,"Ġfolder":13192,"Ġfantas":13193,"lph":13194,"comes":13195,"Ġkneeling":13196,"osom":13197,"Ġsweaty":13198,"ĠNY":13199,"flies":13200,"post":13201,"because":13202,"Ġtragedy":13203,"Ret":13204,"Ġswirled":13205,"gal":13206,"±ÙĦ":13207,"Ġprohib":13208,"erena":13209,"ottie":13210,"Has":13211,"Ġruler":13212,"Ġmasters":13213,"istically":13214,"ĠUse":13215,"Ø°":13216,"Ġfrank":13217,"obe":13218,"Ġstain":13219,"Ġuncontroll":13220,"burn":13221,"ĠBenn":13222,"vit":13223,"Ġobedience":13224,"Ġdrowned":13225,"Ġinvolves":13226,"Ġtourists":13227,"Ġfuriously":13228,"Ġfacial":13229,"ĠRh":13230,"Ġweighed":13231,"ĠRaj":13232,"Ġloan":13233,"Ġexamination":13234,"anya":13235,"ĠStanding":13236,"Ġfatal":13237,"Ġshirts":13238,"Ġinspection":13239,"Charlie":13240,"Ġintr":13241,"ĠUpon":13242,"SA":13243,"Ġcease":13244,"Ġsworn":13245,"osex":13246,"Henry":13247,"Ġalleg":13248,"Ġmotorcy":13249,"essert":13250,"Ġiniti":13251,"Ġflashes":13252,"Ġcontacts":13253,"Ġcourts":13254,"overs":13255,"Ġstacked":13256,"Ġtargeted":13257,"usty":13258,"ĠMelanie":13259,"onia":13260,"arter":13261,"Ġsymptoms":13262,"ĠNO":13263,"Ġstrikes":13264,"Ġbruised":13265,"ashri":13266,"ĠOlymp":13267,"Ġresponding":13268,"istair":13269,"Ġrivers":13270,"Ġrocket":13271,"Ġtangled":13272,"obile":13273,"Ġcomplaining":13274,"ĠSac":13275,"Ġtreating":13276,"Ġbacking":13277,"Ġcongrat":13278,"Ġmates":13279,"sett":13280,"Ġseas":13281,"ivated":13282,"ĠRef":13283,"tra":13284,"ĠPad":13285,"igs":13286,"Ġphysics":13287,"lord":13288,"Ġbears":13289,"Ġherd":13290,"ALE":13291,"ĠTravis":13292,"Ġcousins":13293,"ĠMarine":13294,"Ġ48":13295,"Ġresponsibilities":13296,"Ġfren":13297,"Ġveil":13298,"Ġwarming":13299,"Ġencouragement":13300,"Ġblasted":13301,"ĠMain":13302,"ĠCe":13303,"liament":13304,"Ġbury":13305,"Ġreins":13306,"ucks":13307,"fight":13308,"Ġderived":13309,"ĠJasper":13310,"prise":13311,"Ġacquaint":13312,"held":13313,"ĠWarren":13314,"Ġerr":13315,"ĠUsually":13316,"ĠBishop":13317,"kel":13318,"bound":13319,"ĠKey":13320,"Chris":13321,"Ġcleans":13322,"Ġsleepy":13323,"Ġsquir":13324,"Ġstray":13325,"reston":13326,"alo":13327,"Ġjur":13328,"uate":13329,"prints":13330,"ĠLatin":13331,"Ġdatab":13332,"Ġcracking":13333,"ensus":13334,"Ġanxiously":13335,"Ġnephew":13336,"Ġmenacing":13337,"Ġsubsequent":13338,"hari":13339,"Ġsunglasses":13340,"Ġfuckin":13341,"ĠAra":13342,"Ġexh":13343,"ĠLam":13344,"77":13345,"Bill":13346,"Ġthrobbing":13347,"Ġbelongings":13348,"Ġprimarily":13349,"Ġscarce":13350,"Ġblinding":13351,"Ġinterpre":13352,"Ġzombies":13353,"Ġeerie":13354,"Ġrelaxing":13355,"Ġfraction":13356,"Ġpose":13357,"ructive":13358,"Ġrap":13359,"rational":13360,"Ġrats":13361,"Kn":13362,"ois":13363,"Ġmanners":13364,"Ġhousing":13365,"Ġinfection":13366,"Ġgrandparents":13367,"Ġthine":13368,"×Ļ":13369,"Ġbattered":13370,"nected":13371,"acht":13372,"Ġprolifer":13373,"Ġechoing":13374,"ĠBarbara":13375,"Ġmush":13376,"Ġexploring":13377,"Ġphenomenon":13378,"Ġcouples":13379,"ĠUr":13380,"Ġyells":13381,"ĠRussell":13382,"Ġpracticing":13383,"Jay":13384,"Ġreconc":13385,"ĠBalt":13386,"Ġfurrowed":13387,"Ġflickering":13388,"Ġrestore":13389,"Ġwitches":13390,"Ġbron":13391,"Ġheadquarters":13392,"Ġstomped":13393,"dad":13394,"Huh":13395,"ĠLE":13396,"Ġcontribute":13397,"emon":13398,"Ġpreacher":13399,"Ġashes":13400,"Ġhorm":13401,"ĠPsych":13402,"Ġwary":13403,"ĠVeron":13404,"ONE":13405,"Ġestablishment":13406,"Ġhalls":13407,"ĠGuy":13408,"imity":13409,"Ġcigarettes":13410,"Ric":13411,"assador":13412,"Ġpossessions":13413,"Ġshifts":13414,"Dam":13415,"Ġhairs":13416,"Ġgraph":13417,"Ġsarcastically":13418,"Ġmetres":13419,"Ġemerging":13420,"Ġproteins":13421,"Ġcounty":13422,"Ġguardian":13423,"Ġcane":13424,"Ġrag":13425,"ĠÐ½Ðµ":13426,"ĠCas":13427,"formed":13428,"Ġlest":13429,"RNA":13430,"]:":13431,"vironment":13432,"Ġhumming":13433,"green":13434,"69":13435,"Ġclinic":13436,"Ð¾Ð½":13437,"Ġtug":13438,"Ġbundle":13439,"Ġhauled":13440,"Ġheroes":13441,"Ġvirtual":13442,"hill":13443,"ĠLow":13444,"ĠMaya":13445,"Ġperiods":13446,"hysical":13447,"ĠConnie":13448,"URE":13449,"Ġinstalled":13450,"Ġspilling":13451,"Ġdizzy":13452,"arek":13453,"Ġvi":13454,"Ġpurely":13455,"ĠTha":13456,"Ġrecommended":13457,"Ġrecl":13458,"Ġroles":13459,"colored":13460,"ĠDur":13461,"Ġsighs":13462,"Ġbind":13463,"Ġsauce":13464,"ĠStand":13465,"ĠApost":13466,"requ":13467,"ĠEastern":13468,"ĠWeb":13469,"only":13470,")**":13471,"vate":13472,"oids":13473,"outhed":13474,"Ġliking":13475,"Ġhonesty":13476,"Ġrespectively":13477,"ĠLuckily":13478,"Ġhoo":13479,"ettle":13480,"vie":13481,"----":13482,"TS":13483,"eters":13484,"Ġstamm":13485,"ĠGwen":13486,"Ġentitled":13487,"Ġincap":13488,"Ġcountered":13489,"Ġihr":13490,"Ġdisappro":13491,"Ġconfronted":13492,"Ġperplex":13493,"emen":13494,"Ġtypically":13495,"Ġthereby":13496,"Ġfacil":13497,"MP":13498,"Ġric":13499,"Ġreadily":13500,"Ġlinks":13501,"ĠMountain":13502,"Î¼":13503,"ĠCarmen":13504,"arciss":13505,"rable":13506,"Ġphilosoph":13507,"icken":13508,"ullen":13509,"Ġmagazines":13510,"Ġplasma":13511,"Ġbeans":13512,"Ġdrivers":13513,"ĠSmall":13514,"itage":13515,"Ġhed":13516,"Ġrestored":13517,"Ġsolely":13518,"ĠAcc":13519,"ĠCivil":13520,"ĠDale":13521,"ĠMeg":13522,"Magic":13523,"ĠIII":13524,"Ġpicnic":13525,"Ġfluttered":13526,"Ġfinest":13527,"enance":13528,"Ġextensive":13529,"ructure":13530,"Ġquote":13531,"Ġannouncement":13532,"Ġbount":13533,"ĠLiving":13534,"Ġtones":13535,"Ġ>":13536,"ĠObama":13537,"Ġunderstands":13538,"Ġpregnancy":13539,"ĠUniv":13540,"ĠMara":13541,"Ġlegis":13542,"wall":13543,"Ġbrid":13544,"Ġdome":13545,"ĠSuz":13546,"quisite":13547,"Ġassay":13548,"anqu":13549,"aria":13550,"Ġhates":13551,"Ġreporting":13552,"cluded":13553,"chal":13554,"ĠDisc":13555,"OG":13556,"ĠShow":13557,"Ġnewspapers":13558,"ĠNicholas":13559,"spe":13560,"Slow":13561,"ĠHopefully":13562,"Ġenhanced":13563,"Ġthreshold":13564,"Ġboards":13565,"ÑĭÐ½":13566,"ĠØ¹":13567,"Ġbombs":13568,"Ġraging":13569,"Were":13570,"wyn":13571,"Ġconsisted":13572,"ieth":13573,"oter":13574,"Ġfortress":13575,"arker":13576,"Ġposture":13577,"Ġcookies":13578,"Taking":13579,"uer":13580,"Ġpairs":13581,"Ġdivers":13582,"ĠBetween":13583,"ĠJessie":13584,"Ġba":13585,"oyer":13586,"Ġenqu":13587,"Ġworm":13588,"ĠDonna":13589,"Nah":13590,"Ġsubstantial":13591,"Ġcatches":13592,"Ġsobbed":13593,"ĠJournal":13594,"html":13595,"Ġeyeing":13596,"Ġcolony":13597,"Ġblazing":13598,"Ġgenerated":13599,"Ġcrops":13600,"Ġdistribution":13601,"Ġfetch":13602,"Ġunity":13603,"ĠMarines":13604,"ĠDC":13605,"Ġaffirm":13606,"ĠVic":13607,"Ġconsent":13608,"Ġming":13609,"à¯ĩ":13610,"ĠRoom":13611,"Ġvillagers":13612,"Ġinstall":13613,"ĠJudah":13614,"Co":13615,"tes":13616,"ĠPoint":13617,"bec":13618,"dam":13619,"issy":13620,"eteria":13621,"Qur":13622,"ĠName":13623,"Ġexecution":13624,"Ġpaw":13625,"ĠPenny":13626,"urable":13627,"Ġhopeful":13628,"Ġconceal":13629,"function":13630,"Try":13631,"Ac":13632,"ĠHumans":13633,"Ġharness":13634,"Ġhunters":13635,"bury":13636,"Ġseventh":13637,"Ġintrigued":13638,"Ġsid":13639,"Ġstrategies":13640,"ÅĽ":13641,"about":13642,"Ġcrucial":13643,"Ġpropag":13644,"Ġcarbon":13645,"Ġbasketball":13646,"Ġroaring":13647,"Ġpassages":13648,"Ġà®ħ":13649,"ollo":13650,"Ġcolours":13651,"ianna":13652,"Ġmocking":13653,"Ġsly":13654,"osity":13655,"ĠRest":13656,"eez":13657,"Ġmonitoring":13658,"Ġoffspring":13659,"ĠClass":13660,"Ġtruths":13661,"Ġterrorist":13662,"Ġmolecular":13663,"ĠCelest":13664,"Ġenhance":13665,"Ġfits":13666,"ĠRol":13667,"bsolutely":13668,"Ġreceiver":13669,"Ten":13670,"Ġappetite":13671,"Ġstumbling":13672,"Ġretorted":13673,"Ġbik":13674,"Dadashri":13675,"Ġmage":13676,"ĠGolden":13677,"uting":13678,"athom":13679,"Ġslides":13680,"ĠShawn":13681,"ĠNet":13682,"ĠJar":13683,"Ġlocals":13684,"Anna":13685,"Ġfingern":13686,"Ġinhibition":13687,"Ġmeaningful":13688,"ften":13689,"bat":13690,"him":13691,"Ġintric":13692,"deal":13693,"reedom":13694,"Being":13695,"ĠMexican":13696,"Ġsights":13697,"Ġsupposedly":13698,"ãĤ¤":13699,"uy":13700,"Ġdeploy":13701,"rived":13702,"Ġchir":13703,"Ġchambers":13704,"Ġsessions":13705,"Ø²":13706,"Ġbacon":13707,"Ġrestless":13708,"Ġrefrigerator":13709,"ĠJace":13710,"ceded":13711,"ĠWalker":13712,"lasting":13713,"Ġcrushing":13714,"Ġpromotion":13715,"Ġdescent":13716,"irms":13717,"Ġfrowning":13718,"ĠSharon":13719,"Ġwelf":13720,"Ġplague":13721,"Ġfreeze":13722,"Ġmistress":13723,"ĠListen":13724,"Ġdestined":13725,"Ġmaintaining":13726,"Ġgiggling":13727,"Such":13728,"ĠClint":13729,"Ġbalanced":13730,"ĠVietnam":13731,"ĠTracy":13732,"Ġdemocracy":13733,"Ġcomponents":13734,"Ġbrethren":13735,"Ġdessert":13736,"Ġpercept":13737,"ĠAlicia":13738,"Ã¼n":13739,"Ġtunic":13740,"ĠBren":13741,"áº¡":13742,"Ġadul":13743,"Ġresemblance":13744,"rative":13745,"END":13746,"Ġparam":13747,"Ġpouch":13748,"Ġrej":13749,"Ġampl":13750,"Ġpickup":13751,"Ġridge":13752,"Ġgroom":13753,"Ġwelfare":13754,"?)":13755,"Ġpillows":13756,"ĠAsian":13757,"ĠMyst":13758,"Ġlod":13759,"Ġtexts":13760,"Ġfascinating":13761,"Ġresource":13762,"Carl":13763,"Ġowed":13764,"pherd":13765,"ĠTrump":13766,"Ġfreshly":13767,"Smashwords":13768,"Ġcreeping":13769,"JV":13770,"ĠJi":13771,"Ġassembly":13772,"Ġmanaging":13773,"MA":13774,"Ġawakened":13775,"Ġtrump":13776,"Questioner":13777,"Ġportra":13778,"Ġnovels":13779,"Ġhandling":13780,"Ġtant":13781,"onymous":13782,"Ġlend":13783,"ĠBuck":13784,"chen":13785,"Ġdeserves":13786,"Ġexperts":13787,"Ġcaressed":13788,"Ġstew":13789,"Ġcommotion":13790,"Ġtransf":13791,"Ġpredicted":13792,"ĠHarold":13793,"iors":13794,"Ġelite":13795,"Ġgrocery":13796,"inch":13797,"88":13798,"opes":13799,"ĠMade":13800,"Ñī":13801,"ĠAS":13802,"Ġclarity":13803,"Ġscooped":13804,"ĠPacific":13805,"Ġlesser":13806,"Ġnonetheless":13807,"ĠWalt":13808,"Ġresid":13809,"Ġcommittee":13810,"Ġauthen":13811,"Ġgasps":13812,"uj":13813,"ione":13814,"Ġtriumph":13815,"Ġradical":13816,"Mon":13817,"ĠHelp":13818,"Ġsmacked":13819,"Ġbackyard":13820,"ÐµÐ½Ð¸":13821,"Ġcontinuous":13822,"Ġspill":13823,"ributes":13824,"ĠROD":13825,"Ġresisted":13826,"ÑĤÐ¾":13827,"Ġcontacted":13828,"uls":13829,"ĠKara":13830,"Ġserpent":13831,"Ġgust":13832,"Ġ(\"":13833,"Ann":13834,"Ġcement":13835,"ĠClark":13836,"Help":13837,"Ġmotel":13838,"Ġneared":13839,"Ġpains":13840,"Ġhandy":13841,"iti":13842,"Ġrider":13843,"Ġabdom":13844,"Ġinvented":13845,"Ġpresum":13846,"Ġglobe":13847,"Ġoverheard":13848,"Ġongoing":13849,"occupied":13850,"Ġdaring":13851,"Ġinterfere":13852,"**_":13853,"Ġpuppy":13854,"Ġseam":13855,"ĠBang":13856,"??":13857,"ĠGem":13858,"Ġswarm":13859,"Ġmessed":13860,"olving":13861,"ooted":13862,"Ġfib":13863,"ĠFat":13864,"Lou":13865,"OST":13866,"Ġloft":13867,"Ġnipples":13868,"Ġquicker":13869,"Ġscratching":13870,"ĠImper":13871,"Ġcompelled":13872,"Ġdeclare":13873,"ĠBrooke":13874,"ĠDal":13875,"Ġcharging":13876,"piring":13877,"duct":13878,"Ġcaress":13879,"Ùī":13880,"ĠGoo":13881,"Ġfewer":13882,"ĠBabylon":13883,"Ġlearnt":13884,"ĠClaud":13885,"orial":13886,"Ġsubmit":13887,"Ġserves":13888,"Ġrepresentative":13889,"Ġlacking":13890,"ĠMedicine":13891,"ĠÃ©":13892,"Ġomin":13893,"Ġlonged":13894,"Ġchannels":13895,"ĠKer":13896,"Ġster":13897,"adium":13898,"brid":13899,"Ġsobs":13900,"Ġslower":13901,"Ø¬":13902,"Ġmotions":13903,"American":13904,"ĠRoc":13905,"Ġdenial":13906,"ĠNine":13907,"Ġrib":13908,"stra":13909,"ĠGa":13910,"Ġrural":13911,"ĠErik":13912,"ĠFederal":13913,"Ġç":13914,"ĠBecca":13915,"nergy":13916,"Ġprotru":13917,"Ġcultures":13918,"Ġdimensions":13919,"stood":13920,"ĠCastle":13921,"Ġsanctuary":13922,"burst":13923,"Ġcafeteria":13924,"ĠStephanie":13925,"ĠLiber":13926,"Ġwarrant":13927,"Ġbedside":13928,"Ġboundaries":13929,"Ġregards":13930,"ĠJeremiah":13931,"Ġcreek":13932,"ĠAle":13933,"Ġcondemn":13934,"AA":13935,"Ġexotic":13936,"di":13937,"ĠBL":13938,"Ġhypothes":13939,"Ġphotographs":13940,"ĠBall":13941,"Ġoddly":13942,"Ġunwilling":13943,"ĠFoundation":13944,"Ġsaints":13945,"ĠElise":13946,"Ġshivering":13947,"Ġmaneuver":13948,"Ġexecuted":13949,"GFR":13950,"TE":13951,"Ġfunctional":13952,"Ġcheerful":13953,"Ġlugg":13954,"Ġcheered":13955,"roph":13956,"Ġeducated":13957,"Ġvacant":13958,"udge":13959,"ĠAllison":13960,"arring":13961,"got":13962,"02":13963,"ben":13964,"Ġ2018":13965,"Ġrotten":13966,"Ġther":13967,"Ġreson":13968,"ĠPil":13969,"ERSON":13970,"agram":13971,"Ġdisguise":13972,"agraph":13973,"Ġarmies":13974,"rics":13975,"ĠProgram":13976,"Ġshrieked":13977,"Ġchampagne":13978,"04":13979,"Ġconverted":13980,"ĠWhit":13981,"Ġcopper":13982,"Ġà®ķ":13983,"Ġlining":13984,"Ġoutrage":13985,"Nobody":13986,"Ġmamm":13987,"ouring":13988,"ĠAfghan":13989,"onto":13990,"Ġurgency":13991,"Ġbellowed":13992,"Ġliberty":13993,"ĠElla":13994,"Ġslick":13995,"Ġkidnapped":13996,"Ġjustify":13997,"Ġnu":13998,"Ġincon":13999,"Bar":14000,"girl":14001,"ĠÏĢ":14002,"Ġpaces":14003,"ĠMandy":14004,"ĠProphe":14005,"Ġparadise":14006,"Ġinheritance":14007,"Ġtripped":14008,"ĠFuck":14009,"Ġearthqu":14010,"Ġsunny":14011,"care":14012,"iantly":14013,"Ġtriump":14014,"spector":14015,"Ġthumbs":14016,"Ġtemporarily":14017,"Ġmicrophone":14018,"rition":14019,"Ġinject":14020,"Ġrebel":14021,"idi":14022,"IB":14023,"enment":14024,"Ġsolutions":14025,"Ġapr":14026,"ĠAvenue":14027,"Ġforests":14028,"Ġembedded":14029,"liness":14030,"Ġconnecting":14031,"Better":14032,"PD":14033,"Ġallies":14034,"Ġeliminate":14035,"Ġexpanded":14036,"mat":14037,"acted":14038,"ĠDante":14039,"Ġrecognise":14040,"Ġmarkets":14041,"Ġskip":14042,"Ġslavery":14043,"oubted":14044,"Neither":14045,"ĠBIO":14046,"Ġsweating":14047,"Ġorgasm":14048,"Ġheir":14049,"Ġconsume":14050,"Ġluggage":14051,"Ġstroll":14052,"Ġmirac":14053,"Ġhamm":14054,"Ġidentification":14055,"Ġestimated":14056,"Ð°Ð·":14057,"employ":14058,"izer":14059,"Ġdrone":14060,"Ġunsett":14061,"Ġscal":14062,"gence":14063,"Ġflock":14064,"Ġreflecting":14065,"Ġsurveyed":14066,"Ġviewing":14067,"rend":14068,"emption":14069,"ĠTit":14070,"UD":14071,"Ġparad":14072,"ĠEduc":14073,"Ġmotivation":14074,"Ġdub":14075,"Ġsized":14076,"ĠGina":14077,"Ġaddiction":14078,"Ġattent":14079,"Ġbuzzing":14080,"Ġspont":14081,"anting":14082,"Ġmeets":14083,"ĠKatherine":14084,"hot":14085,"ĠLane":14086,"ĠNev":14087,"Ġemptied":14088,"09":14089,"Ġincorpor":14090,"Ġexposing":14091,"ĠÎ¼":14092,"Ġgender":14093,"amas":14094,"Ġpoem":14095,"ooping":14096,"type":14097,"Ġplanes":14098,"Ġscales":14099,"Ġpiles":14100,"Ġstammered":14101,"Ġlimb":14102,"nette":14103,"ĠMorris":14104,"Ġheaved":14105,"ĠIreland":14106,"Ġdissip":14107,"Ġwaterfall":14108,"Ġbattery":14109,"ĠGerm":14110,"Ġthie":14111,"ĠAndrea":14112,"Ġvend":14113,"Ġapprent":14114,"Ġprominent":14115,"ĠCarlos":14116,"ĠTrib":14117,"ĠShell":14118,"Val":14119,"Ġperfume":14120,"Ġfoyer":14121,"Ġgrunt":14122,"Ġclues":14123,"ĠWendy":14124,"ÐµÐ´":14125,"icht":14126,"awa":14127,"Ġpreserve":14128,"Ġwhirl":14129,"oran":14130,"Ġanguish":14131,"Ġenvy":14132,"Ġstrap":14133,"Ġcable":14134,"Ġskilled":14135,"ĠDub":14136,"Ġdelic":14137,"Ġlocking":14138,"Ġcob":14139,"ĠIsaiah":14140,"Ġspectacular":14141,"ĠThirty":14142,"Ġlawyers":14143,"Ġmuddy":14144,"Ð°Ð´":14145,"Ġagon":14146,"ĠCalvin":14147,"dream":14148,"Ġprompted":14149,"ĠLA":14150,"Ġsecondary":14151,"Ġdisagree":14152,"IK":14153,"ĠLena":14154,"Ġexcuses":14155,"((":14156,"ĠBri":14157,"Ġexpenses":14158,"Ġresearc":14159,"ĠStef":14160,"Ġplayfully":14161,"Ġtravels":14162,"ĠBridge":14163,"ĠPharaoh":14164,"ĠAI":14165,"ĠThought":14166,"mill":14167,"ĠHug":14168,"áº¥":14169,"lines":14170,"opt":14171,"Ġorganic":14172,"ĠBoard":14173,"Steve":14174,"ĠLab":14175,"ressive":14176,"Ġstrongest":14177,"Ġjaws":14178,"Ġcrop":14179,"ĠJuan":14180,"Ġnearer":14181,"Ġleague":14182,"Ġpatio":14183,"Ġchatter":14184,"Ġblurred":14185,"ĠAmazon":14186,"itcher":14187,"75":14188,"rost":14189,"ĠHaven":14190,"Ġvolcan":14191,"Ġarrives":14192,"Ġsurviving":14193,"ĠIl":14194,"Ġcoughing":14195,"Ġcad":14196,"Ġunderlying":14197,"Several":14198,"Ġmessy":14199,"King":14200,"Ġdemeanor":14201,"Men":14202,"Ġslack":14203,"ĠJoel":14204,"Ġporn":14205,"Ġpoorly":14206,"ME":14207,"look":14208,"Ġcope":14209,"Ġpent":14210,"Ġenable":14211,"Ġburns":14212,"Ġstride":14213,"untary":14214,"ullah":14215,"Ġshields":14216,"Ġrim":14217,"Ġstirring":14218,"Cal":14219,"Until":14220,"Ġgraduated":14221,"ĠVis":14222,"Ġportray":14223,"Within":14224,"Open":14225,"Ġweed":14226,"ÐµÐ¹":14227,"ĠOrig":14228,"Ġadventures":14229,"Ġjury":14230,"Hal":14231,"ĠAly":14232,"ĠBapt":14233,"Ġorn":14234,"Ġpeek":14235,"ĠÙĨ":14236,"Ġmurders":14237,"Je":14238,"cal":14239,"Aw":14240,"ĠDom":14241,"anity":14242,"ĠRex":14243,"ÑģÑı":14244,"Ġlam":14245,"ĠBeyond":14246,"Ġcrude":14247,"Ġadopt":14248,"Ġdisgr":14249,"Ġ39":14250,"eur":14251,"ĠKend":14252,"ĠBella":14253,"Ġpronounced":14254,"ĠCorps":14255,"Danny":14256,"Ġirritation":14257,"Ġtrading":14258,"Ġcountryside":14259,"Comm":14260,"Ġdivide":14261,"Ø§ÙĨ":14262,"rene":14263,"Ġbonds":14264,"Ġpredic":14265,"yon":14266,"gon":14267,"Ġgleaming":14268,"ĠBeaut":14269,"ilation":14270,"Ġchoking":14271,"Ġsupreme":14272,"ldom":14273,"Sus":14274,"acco":14275,"Ġshudder":14276,"Greek":14277,"Ġchapters":14278,"Ġcemetery":14279,"Ġripping":14280,"ependent":14281,"ĠGerald":14282,"vah":14283,"Ġstark":14284,"Ġprocedures":14285,"Ġyel":14286,"Ġumb":14287,"ĠVill":14288,"ĠRalph":14289,"Ġpermanently":14290,"lem":14291,"Ġliver":14292,"ĠNan":14293,"ĠMall":14294,"Ġpreaching":14295,"Ġinterjected":14296,"Ġskept":14297,"itals":14298,"imer":14299,"Ġsocieties":14300,"ĠãĤ·":14301,"ĠEleanor":14302,"oneliness":14303,"owered":14304,"Ġcircling":14305,"ĠDominic":14306,"Ġfitted":14307,"onda":14308,"Ġinsign":14309,"oubtedly":14310,"Ġdisgusted":14311,"Ġrisen":14312,"65":14313,"Ġ2005":14314,"Ġurban":14315,"Ġambit":14316,"bin":14317,"Ġgraduate":14318,"Ġbraced":14319,"gil":14320,"ittering":14321,"ĠMeanwhile":14322,"bery":14323,"Ġtraits":14324,"ĠGuardian":14325,"Ġinevit":14326,"Ġnursing":14327,"ĠTogether":14328,"Ġblamed":14329,"found":14330,"ĠMA":14331,"Ð°Ð²":14332,"Ġdeals":14333,"Ġweakly":14334,"Ġteenagers":14335,"ĠPHY":14336,"Ġfolding":14337,"ĠAmong":14338,
[...]
